{
  "version": "1.0",
  "truncation": null,
  "padding": null,
  "added_tokens": [
    {
      "id": 0,
      "content": "<pad>",
      "single_word": false,
      "lstrip": false,
      "rstrip": false,
      "normalized": false,
      "special": true
    },
    {
      "id": 1,
      "content": "<eos>",
      "single_word": false,
      "lstrip": false,
      "rstrip": false,
      "normalized": false,
      "special": true
    },
    {
      "id": 2,
      "content": "<unk>",
      "single_word": false,
      "lstrip": false,
      "rstrip": false,
      "normalized": false,
      "special": true
    }
  ],
  "normalizer": null,
  "pre_tokenizer": {
    "type": "ByteLevel",
    "add_prefix_space": true,
    "trim_offsets": true,
    "use_regex": true
  },
  "post_processor": null,
  "decoder": {
    "type": "ByteLevel",
    "add_prefix_space": true,
    "trim_offsets": true,
    "use_regex": true
  },
  "model": {
    "type": "BPE",
    "dropout": null,
    "unk_token": "<unk>",
    "continuing_subword_prefix": null,
    "end_of_word_suffix": null,
    "fuse_unk": false,
    "byte_fallback": false,
    "ignore_merges": false,
    "vocab": {
      "<pad>": 0,
      "<eos>": 1,
      "<unk>": 2,
      "!": 3,
      "\"": 4,
      "#": 5,
      "$": 6,
      "%": 7,
      "&": 8,
      "'": 9,
      "(": 10,
      ")": 11,
      "*": 12,
      "+": 13,
      ",": 14,
      "-": 15,
      ".": 16,
      "/": 17,
      "0": 18,
      "1": 19,
      "2": 20,
      "3": 21,
      "4": 22,
      "5": 23,
      "6": 24,
      "7": 25,
      "8": 26,
      "9": 27,
      ":": 28,
      ";": 29,
      "<": 30,
      "=": 31,
      ">": 32,
      "?": 33,
      "@": 34,
      "A": 35,
      "B": 36,
      "C": 37,
      "D": 38,
      "E": 39,
      "F": 40,
      "G": 41,
      "H": 42,
      "I": 43,
      "J": 44,
      "K": 45,
      "L": 46,
      "M": 47,
      "N": 48,
      "O": 49,
      "P": 50,
      "Q": 51,
      "R": 52,
      "S": 53,
      "T": 54,
      "U": 55,
      "V": 56,
      "W": 57,
      "X": 58,
      "Y": 59,
      "Z": 60,
      "[": 61,
      "\\": 62,
      "]": 63,
      "^": 64,
      "_": 65,
      "`": 66,
      "a": 67,
      "b": 68,
      "c": 69,
      "d": 70,
      "e": 71,
      "f": 72,
      "g": 73,
      "h": 74,
      "i": 75,
      "j": 76,
      "k": 77,
      "l": 78,
      "m": 79,
      "n": 80,
      "o": 81,
      "p": 82,
      "q": 83,
      "r": 84,
      "s": 85,
      "t": 86,
      "u": 87,
      "v": 88,
      "w": 89,
      "x": 90,
      "y": 91,
      "z": 92,
      "{": 93,
      "|": 94,
      "}": 95,
      "~": 96,
      "¡": 97,
      "¢": 98,
      "£": 99,
      "¤": 100,
      "¥": 101,
      "¦": 102,
      "§": 103,
      "¨": 104,
      "©": 105,
      "ª": 106,
      "«": 107,
      "¬": 108,
      "®": 109,
      "¯": 110,
      "°": 111,
      "±": 112,
      "²": 113,
      "³": 114,
      "´": 115,
      "µ": 116,
      "¶": 117,
      "·": 118,
      "¸": 119,
      "¹": 120,
      "º": 121,
      "»": 122,
      "¼": 123,
      "½": 124,
      "¾": 125,
      "¿": 126,
      "Â": 127,
      "Ã": 128,
      "Ä": 129,
      "Å": 130,
      "Æ": 131,
      "É": 132,
      "Ê": 133,
      "Ì": 134,
      "Í": 135,
      "Î": 136,
      "Ï": 137,
      "Ð": 138,
      "Ñ": 139,
      "×": 140,
      "Ø": 141,
      "Ù": 142,
      "Ú": 143,
      "Û": 144,
      "à": 145,
      "á": 146,
      "â": 147,
      "ã": 148,
      "ä": 149,
      "å": 150,
      "æ": 151,
      "ç": 152,
      "è": 153,
      "é": 154,
      "ê": 155,
      "ë": 156,
      "ì": 157,
      "ï": 158,
      "ð": 159,
      "ĉ": 160,
      "Ġ": 161,
      "Ģ": 162,
      "ģ": 163,
      "Ĥ": 164,
      "ĥ": 165,
      "Ħ": 166,
      "ħ": 167,
      "Ĩ": 168,
      "ĩ": 169,
      "Ī": 170,
      "ī": 171,
      "Ĭ": 172,
      "ĭ": 173,
      "Į": 174,
      "į": 175,
      "İ": 176,
      "ı": 177,
      "Ĳ": 178,
      "ĳ": 179,
      "Ĵ": 180,
      "ĵ": 181,
      "Ķ": 182,
      "ķ": 183,
      "ĸ": 184,
      "Ĺ": 185,
      "ĺ": 186,
      "Ļ": 187,
      "ļ": 188,
      "Ľ": 189,
      "ľ": 190,
      "Ŀ": 191,
      "ŀ": 192,
      "Ł": 193,
      "ł": 194,
      "Ń": 195,
      "in": 196,
      "er": 197,
      "on": 198,
      "Ġt": 199,
      "an": 200,
      "es": 201,
      "or": 202,
      "at": 203,
      "ĠS": 204,
      "ĠA": 205,
      "ing": 206,
      "en": 207,
      "ar": 208,
      "it": 209,
      "ĠT": 210,
      "he": 211,
      "ĠC": 212,
      "al": 213,
      "ou": 214,
      "st": 215,
      "re": 216,
      "Ġf": 217,
      "ĠH": 218,
      "le": 219,
      "ĠP": 220,
      "Ġa": 221,
      "ic": 222,
      "ĠM": 223,
      "ro": 224,
      "ĠW": 225,
      "ĠI": 226,
      "Ġto": 227,
      "ed": 228,
      "ĠD": 229,
      "Ġs": 230,
      "Ġc": 231,
      "ĠB": 232,
      "Ġw": 233,
      "Ġo": 234,
      "ion": 235,
      "ac": 236,
      "ow": 237,
      "is": 238,
      "ĠF": 239,
      "ĠR": 240,
      "Ġthe": 241,
      "Ġin": 242,
      "âĢ": 243,
      "and": 244,
      "Ġb": 245,
      "Ġp": 246,
      "et": 247,
      "om": 248,
      "ĠG": 249,
      "Ġof": 250,
      "il": 251,
      "Ġd": 252,
      "ĠL": 253,
      "ĠE": 254,
      "Ġm": 255,
      "ent": 256,
      "ec": 257,
      "el": 258,
      "as": 259,
      "Ġfor": 260,
      "ĠN": 261,
      "Ġand": 262,
      "oo": 263,
      "id": 264,
      "ers": 265,
      "am": 266,
      "ĠO": 267,
      "ig": 268,
      "ĠThe": 269,
      "ut": 270,
      "ve": 271,
      "ĠU": 272,
      "ol": 273,
      "us": 274,
      "ot": 275,
      "pp": 276,
      "our": 277,
      "ter": 278,
      "ĠIn": 279,
      "ur": 280,
      "ith": 281,
      "ad": 282,
      "ĠâĢ": 283,
      "im": 284,
      "ay": 285,
      "ch": 286,
      "ĠHN": 287,
      "ation": 288,
      "Ġon": 289,
      "ĠSt": 290,
      "ĠWh": 291,
      "Ġl": 292,
      "un": 293,
      "Ġh": 294,
      "ew": 295,
      "Ġn": 296,
      "ir": 297,
      "ag": 298,
      "Ġy": 299,
      "ce": 300,
      "est": 301,
      "Ġwith": 302,
      "ess": 303,
      "em": 304,
      "âĢĻ": 305,
      "ri": 306,
      "op": 307,
      "Ġg": 308,
      "art": 309,
      "ver": 310,
      "Ġ(": 311,
      "ul": 312,
      "Ġre": 313,
      "20": 314,
      "ack": 315,
      "eb": 316,
      "ak": 317,
      "od": 318,
      "'s": 319,
      "ĠV": 320,
      "ra": 321,
      "ĠHow": 322,
      "ĠSh": 323,
      "ĠY": 324,
      "ĠâĢĵ": 325,
      "oc": 326,
      "ear": 327,
      "ĠAs": 328,
      "ab": 329,
      "ĠJ": 330,
      "ĠRe": 331,
      "Ġst": 332,
      "up": 333,
      "ct": 334,
      "ly": 335,
      "ĠAn": 336,
      "th": 337,
      "are": 338,
      "ts": 339,
      "rom": 340,
      "Ġe": 341,
      "ity": 342,
      "ate": 343,
      "Ġis": 344,
      "um": 345,
      "ist": 346,
      "ĠAsk": 347,
      "if": 348,
      "ill": 349,
      "ld": 350,
      "os": 351,
      "Ġth": 352,
      "omp": 353,
      "ine": 354,
      "ĠPro": 355,
      "ive": 356,
      "pt": 357,
      "Ġ1": 358,
      "ĠCh": 359,
      "Ġv": 360,
      "ook": 361,
      "ork": 362,
      "ect": 363,
      "ide": 364,
      "ĠTh": 365,
      "ĠK": 366,
      "ub": 367,
      "oun": 368,
      "out": 369,
      "igh": 370,
      "og": 371,
      "ĠApp": 372,
      "Ġan": 373,
      "ap": 374,
      "ure": 375,
      "Ġpro": 376,
      "Ġr": 377,
      "ĠShow": 378,
      "ev": 379,
      "ment": 380,
      "ĠIs": 381,
      "201": 382,
      "ust": 383,
      "ob": 384,
      "ies": 385,
      "all": 386,
      "one": 387,
      "ĠGoo": 388,
      "pl": 389,
      "ang": 390,
      "Ġfrom": 391,
      "ĠWhat": 392,
      "ore": 393,
      "ain": 394,
      "ia": 395,
      "gle": 396,
      "ial": 397,
      "av": 398,
      "age": 399,
      "Ġyou": 400,
      "end": 401,
      "Ġyour": 402,
      "ost": 403,
      "of": 404,
      "ast": 405,
      "ĠGoogle": 406,
      "ind": 407,
      "ard": 408,
      "qu": 409,
      "ĠCon": 410,
      "ĠNew": 411,
      "gr": 412,
      "iv": 413,
      "ech": 414,
      "ort": 415,
      "ip": 416,
      "ĠWhy": 417,
      "ail": 418,
      "ell": 419,
      "ee": 420,
      "Ġus": 421,
      "ry": 422,
      "Ġat": 423,
      "iz": 424,
      "ant": 425,
      "act": 426,
      "ign": 427,
      "ĠEn": 428,
      "ff": 429,
      "ice": 430,
      "ĠEx": 431,
      "se": 432,
      "Ġbe": 433,
      "ight": 434,
      "Ġit": 435,
      "Ġ-": 436,
      "ould": 437,
      "orm": 438,
      "ite": 439,
      "Ġby": 440,
      "ans": 441,
      "ĠSp": 442,
      "ock": 443,
      "ata": 444,
      "du": 445,
      "pen": 446,
      "oft": 447,
      "able": 448,
      "ĠComp": 449,
      "ark": 450,
      "ĠSc": 451,
      "ex": 452,
      "Ġcon": 453,
      "uil": 454,
      "ĠOn": 455,
      "Ġas": 456,
      "ions": 457,
      "00": 458,
      "ode": 459,
      "ĠUn": 460,
      "ĠCl": 461,
      "ake": 462,
      "Ġwh": 463,
      "ud": 464,
      "ile": 465,
      "ence": 466,
      "ik": 467,
      "ov": 468,
      "evel": 469,
      "ĠBe": 470,
      "Ġex": 471,
      "ace": 472,
      "ire": 473,
      "ome": 474,
      "Ġsh": 475,
      "ĠTr": 476,
      "ass": 477,
      "ning": 478,
      "ib": 479,
      "Ġ[": 480,
      "ord": 481,
      "tern": 482,
      "artup": 483,
      "ound": 484,
      "evelop": 485,
      "ree": 486,
      "ĠAm": 487,
      "ere": 488,
      "Ġdo": 489,
      "Ġle": 490,
      "ĠAl": 491,
      "Ġ2": 492,
      "Ġapp": 493,
      "ĠWeb": 494,
      "Ġ$": 495,
      "ph": 496,
      "ach": 497,
      "Ġch": 498,
      "Ġ3": 499,
      "ĠYou": 500,
      "ge": 501,
      "per": 502,
      "Ġcomp": 503,
      "ave": 504,
      "ware": 505,
      "ics": 506,
      "Ġnew": 507,
      "ime": 508,
      "ical": 509,
      "Ġi": 510,
      "reat": 511,
      "Ġare": 512,
      "ĠYour": 513,
      "ase": 514,
      "gram": 515,
      "eed": 516,
      "iew": 517,
      "bout": 518,
      "cc": 519,
      "uild": 520,
      "ĠPl": 521,
      "ug": 522,
      "form": 523,
      "ory": 524,
      "ame": 525,
      "ber": 526,
      "omm": 527,
      "ance": 528,
      "ens": 529,
      "Ġk": 530,
      "ĠAr": 531,
      "ĠApple": 532,
      "ĠUs": 533,
      "own": 534,
      "earch": 535,
      "erv": 536,
      "ĠAd": 537,
      "orld": 538,
      "Ġ201": 539,
      "yst": 540,
      "ebook": 541,
      "ros": 542,
      "ual": 543,
      "ĠFac": 544,
      "row": 545,
      "esign": 546,
      "Ġpl": 547,
      "ĠQ": 548,
      "ĠBl": 549,
      "ous": 550,
      "ting": 551,
      "âĢĿ": 552,
      "ĠâĢľ": 553,
      "Ġ'": 554,
      "ideo": 555,
      "ĠInt": 556,
      "ays": 557,
      "co": 558,
      "ors": 559,
      "ĠTw": 560,
      "enc": 561,
      "ary": 562,
      "Ġj": 563,
      "ick": 564,
      "ations": 565,
      "cri": 566,
      "ink": 567,
      "ron": 568,
      "Ġthat": 569,
      "duct": 570,
      "riv": 571,
      "Ġcl": 572,
      "ĠCan": 573,
      "ĠFacebook": 574,
      "pr": 575,
      "yth": 576,
      "ĠDe": 577,
      "ue": 578,
      "view": 579,
      "Ġint": 580,
      "irst": 581,
      "ĠDo": 582,
      "Ġun": 583,
      "Ġsp": 584,
      "ased": 585,
      "ĠOpen": 586,
      "ĠTech": 587,
      "ĠPr": 588,
      "ets": 589,
      "ient": 590,
      "imp": 591,
      "ian": 592,
      "Ġor": 593,
      "ĠAnd": 594,
      "Ġtr": 595,
      "az": 596,
      "ix": 597,
      "ys": 598,
      "ext": 599,
      "ult": 600,
      "ike": 601,
      "Ġ5": 602,
      "cript": 603,
      "ĠMic": 604,
      "Ġsc": 605,
      "Ġhe": 606,
      "gramm": 607,
      "ĠTo": 608,
      "ystem": 609,
      "ĠIm": 610,
      "line": 611,
      "ource": 612,
      "ĠIt": 613,
      "lic": 614,
      "oftware": 615,
      "Ġnot": 616,
      "ash": 617,
      "gh": 618,
      "Ġcan": 619,
      "'t": 620,
      "ĠAre": 621,
      "ck": 622,
      "ool": 623,
      "ject": 624,
      "ath": 625,
      "pd": 626,
      "Ġ20": 627,
      "hone": 628,
      "ons": 629,
      "ows": 630,
      "Ġweb": 631,
      "iness": 632,
      "Ġde": 633,
      "lect": 634,
      "ĠData": 635,
      "ĠFor": 636,
      "etw": 637,
      "ble": 638,
      "ough": 639,
      "ĠLe": 640,
      "Ġad": 641,
      "ated": 642,
      "rit": 643,
      "io": 644,
      "ie": 645,
      "Ġup": 646,
      "ĠJav": 647,
      "aw": 648,
      "gine": 649,
      "ĠWe": 650,
      "ood": 651,
      "ĠMan": 652,
      "ings": 653,
      "ĠNot": 654,
      "ox": 655,
      "Ġwork": 656,
      "Ġabout": 657,
      "der": 658,
      "ĠRes": 659,
      "ener": 660,
      "ĠStartup": 661,
      "olog": 662,
      "ĠGo": 663,
      "ating": 664,
      "pe": 665,
      "aun": 666,
      "usiness": 667,
      "ĠUS": 668,
      "ĠLear": 669,
      "ĠJava": 670,
      "ey": 671,
      "ĠSec": 672,
      "ower": 673,
      "ish": 674,
      "ern": 675,
      "ices": 676,
      "Ġ4": 677,
      "ĠQu": 678,
      "ĠAI": 679,
      "ĠDevelop": 680,
      "ade": 681,
      "oy": 682,
      "oud": 683,
      "ĠChin": 684,
      "any": 685,
      "fer": 686,
      "oll": 687,
      "ĠEm": 688,
      "ternet": 689,
      "ps": 690,
      "OS": 691,
      "ĠBuild": 692,
      "ise": 693,
      "ĠiP": 694,
      "itter": 695,
      "ĠZ": 696,
      "ong": 697,
      "Ġdata": 698,
      "ĠMicros": 699,
      "ents": 700,
      "ĠâĢĺ": 701,
      "ĠWork": 702,
      "ĠInd": 703,
      "ĠHack": 704,
      "ux": 705,
      "very": 706,
      "aking": 707,
      "Ġsu": 708,
      "rain": 709,
      "rypt": 710,
      "Ġinto": 711,
      "raph": 712,
      "app": 713,
      "ĠPh": 714,
      "ative": 715,
      "ience": 716,
      "roid": 717,
      "ĠDis": 718,
      "ĠCont": 719,
      "ars": 720,
      "ank": 721,
      "ates": 722,
      "ĠMy": 723,
      "ĠFl": 724,
      "eop": 725,
      "atch": 726,
      "Ġem": 727,
      "ax": 728,
      "ĠTwitter": 729,
      "Script": 730,
      "Ġover": 731,
      "Ġal": 732,
      "etwork": 733,
      "port": 734,
      "ital": 735,
      "urity": 736,
      "ython": 737,
      "aunch": 738,
      "ll": 739,
      "angu": 740,
      "PI": 741,
      "ram": 742,
      "Ġen": 743,
      "now": 744,
      "eople": 745,
      "ĠMicrosoft": 746,
      "ocial": 747,
      "ition": 748,
      "ĠWorld": 749,
      "Ġwe": 750,
      "Ġdevelop": 751,
      "fter": 752,
      "pdf": 753,
      "ric": 754,
      "ife": 755,
      "ond": 756,
      "anc": 757,
      "ution": 758,
      "ĠDesign": 759,
      "ru": 760,
      "its": 761,
      "Ġres": 762,
      "arket": 763,
      "gramming": 764,
      "ĠAmaz": 765,
      "ator": 766,
      "yn": 767,
      "int": 768,
      "ĠAndroid": 769,
      "les": 770,
      "Ġtech": 771,
      "ĠSu": 772,
      "obile": 773,
      "eek": 774,
      "und": 775,
      "Ġstartup": 776,
      "ĠX": 777,
      "ific": 778,
      "Ġbl": 779,
      "fl": 780,
      "Ġout": 781,
      "eep": 782,
      "ms": 783,
      "Ġcont": 784,
      "old": 785,
      "ĠLin": 786,
      "ages": 787,
      "acy": 788,
      "iss": 789,
      "ale": 790,
      "com": 791,
      "ĠMe": 792,
      "19": 793,
      "Ġ10": 794,
      "etter": 795,
      "Ġpr": 796,
      "ĠInternet": 797,
      "ĠAmazon": 798,
      "ures": 799,
      "als": 800,
      "ĠInter": 801,
      "red": 802,
      "ists": 803,
      "Ġvs": 804,
      "elf": 805,
      "ccess": 806,
      "ears": 807,
      "ĠAPI": 808,
      "ene": 809,
      "akes": 810,
      "Ġwill": 811,
      "ĠGet": 812,
      "ĠPython": 813,
      "arg": 814,
      "ĠFree": 815,
      "Ġusing": 816,
      "ĠWind": 817,
      "ĠNo": 818,
      "ful": 819,
      "Ġqu": 820,
      "Ġopen": 821,
      "ĠBit": 822,
      "ĠRec": 823,
      "uture": 824,
      "ĠMod": 825,
      "Ġits": 826,
      "Ġmy": 827,
      "urn": 828,
      "Ġuse": 829,
      "ange": 830,
      "Ġall": 831,
      "Ġhas": 832,
      "Ġhave": 833,
      "ĠReal": 834,
      "ility": 835,
      "ĠChina": 836,
      "erm": 837,
      "ĠComm": 838,
      "ĠComput": 839,
      "ĠOr": 840,
      "Ġsec": 841,
      "Ġdis": 842,
      "ĠTe": 843,
      "let": 844,
      "Ġme": 845,
      "ĠNe": 846,
      "ĠGu": 847,
      "imple": 848,
      "led": 849,
      "ĠWith": 850,
      "ology": 851,
      "ĠUsing": 852,
      "ĠAut": 853,
      "eric": 854,
      "Ġmore": 855,
      "ount": 856,
      "ĠGit": 857,
      "Ġnow": 858,
      "ĠHe": 859,
      "ĠOff": 860,
      "ĠAt": 861,
      "Ġ\"": 862,
      "Ġlear": 863,
      "wn": 864,
      "Ġ7": 865,
      "Ġag": 866,
      "ĠSm": 867,
      "ĠJavaScript": 868,
      "ency": 869,
      "ĠLinux": 870,
      "ins": 871,
      "alk": 872,
      "ict": 873,
      "ĠWindows": 874,
      "Ġro": 875,
      "edia": 876,
      "ream": 877,
      "ĠThat": 878,
      "anguage": 879,
      "Ġget": 880,
      "js": 881,
      "els": 882,
      "ĠSoftware": 883,
      "oad": 884,
      "ction": 885,
      "ĠAmeric": 886,
      "Ġgo": 887,
      "ner": 888,
      "ĠVal": 889,
      "ement": 890,
      "eth": 891,
      "vest": 892,
      "Ġfirst": 893,
      "Ġhow": 894,
      "ervice": 895,
      "ces": 896,
      "ĠOut": 897,
      "vent": 898,
      "Ġ6": 899,
      "ails": 900,
      "eat": 901,
      "ĠCode": 902,
      "Ġoff": 903,
      "..": 904,
      "oard": 905,
      "ich": 906,
      "ĠWill": 907,
      "ĠSw": 908,
      "Ġman": 909,
      "ĠCloud": 910,
      "ĠFirst": 911,
      "video": 912,
      "atform": 913,
      "Ġrec": 914,
      "ĠRed": 915,
      "ĠOne": 916,
      "ames": 917,
      "ĠEngine": 918,
      "hed": 919,
      "ments": 920,
      "ĠLearning": 921,
      "Ġbuild": 922,
      "ĠUp": 923,
      "coin": 924,
      "ĠAg": 925,
      "ĠMus": 926,
      "achine": 927,
      "ploy": 928,
      "uss": 929,
      "ĠiPhone": 930,
      "con": 931,
      "pport": 932,
      "ines": 933,
      "amp": 934,
      "ips": 935,
      "cl": 936,
      "ally": 937,
      "ove": 938,
      "ĠPart": 939,
      "ĠAll": 940,
      "ering": 941,
      "ĠBusiness": 942,
      "Ġ8": 943,
      "orn": 944,
      "Ġworld": 945,
      "EO": 946,
      "ĠAbout": 947,
      "ĠHT": 948,
      "ects": 949,
      "ft": 950,
      "ĠPer": 951,
      "ĠBig": 952,
      "ok": 953,
      "olution": 954,
      "ĠSte": 955,
      "SS": 956,
      "ĠMon": 957,
      "ism": 958,
      "illion": 959,
      "ĠBest": 960,
      "ular": 961,
      "ĠCom": 962,
      "ustom": 963,
      "ĠSystem": 964,
      "oss": 965,
      "QL": 966,
      "Ġmod": 967,
      "ote": 968,
      "SA": 969,
      "ĠAir": 970,
      "Ġtool": 971,
      "ĠBitcoin": 972,
      "ĠMore": 973,
      "ĠGr": 974,
      "af": 975,
      "ities": 976,
      "ible": 977,
      "ites": 978,
      "ivers": 979,
      "ious": 980,
      "rows": 981,
      "ĠBr": 982,
      "Ġcode": 983,
      "ĠEl": 984,
      "ĠDon": 985,
      "erson": 986,
      "ĠOnline": 987,
      "cing": 988,
      "ery": 989,
      "erver": 990,
      "ĠFr": 991,
      "ĠThis": 992,
      "ĠTechn": 993,
      "Ġar": 994,
      "Ġinter": 995,
      "Ġwhat": 996,
      "ĠIns": 997,
      "ibr": 998,
      "ely": 999,
      "ĠHas": 1000,
      "200": 1001,
      "ose": 1002,
      "Ġtest": 1003,
      "ater": 1004,
      "Ġhack": 1005,
      "ull": 1006,
      "ĠAnal": 1007,
      "Ġmake": 1008,
      "ĠTest": 1009,
      "Ġrele": 1010,
      "ĠNews": 1011,
      "ese": 1012,
      "alth": 1013,
      "Ġdown": 1014,
      "Ġthan": 1015,
      "ĠSe": 1016,
      "Ġbut": 1017,
      "ĠStud": 1018,
      "ĠCol": 1019,
      "ĠSur": 1020,
      "ĠVis": 1021,
      "less": 1022,
      "Ġ&": 1023,
      "tack": 1024,
      "Ġtime": 1025,
      "ĠProduct": 1026,
      "Ġhel": 1027,
      "Ø§": 1028,
      "ĠPre": 1029,
      "ral": 1030,
      "ĠMac": 1031,
      "ĠiOS": 1032,
      "ĠArt": 1033,
      "gy": 1034,
      "site": 1035,
      "uy": 1036,
      "Ġsoftware": 1037,
      "ization": 1038,
      "rough": 1039,
      "itor": 1040,
      "Ġcomm": 1041,
      "Ġafter": 1042,
      "ert": 1043,
      "ĠDec": 1044,
      "rib": 1045,
      "ovid": 1046,
      "ĠIntro": 1047,
      "ĠImp": 1048,
      "yp": 1049,
      "ĠSocial": 1050,
      "Ġone": 1051,
      "ĠTime": 1052,
      "uman": 1053,
      "igital": 1054,
      "ĠBuilding": 1055,
      "oot": 1056,
      "ĠInst": 1057,
      "ants": 1058,
      "ĠNow": 1059,
      "Ġshould": 1060,
      "ĠProgramming": 1061,
      "ress": 1062,
      "Ġph": 1063,
      "ĠOb": 1064,
      "ĠWho": 1065,
      "ĠTop": 1066,
      "Ġpeople": 1067,
      "oney": 1068,
      "ĠMake": 1069,
      "Ġsystem": 1070,
      "000": 1071,
      "tle": 1072,
      "ots": 1073,
      "cess": 1074,
      "ley": 1075,
      "ends": 1076,
      "hip": 1077,
      "ĠCovid": 1078,
      "Ġsm": 1079,
      "ĠNetwork": 1080,
      "ĠShould": 1081,
      "ype": 1082,
      "ĠSearch": 1083,
      "ret": 1084,
      "aster": 1085,
      "ĠGl": 1086,
      "urr": 1087,
      "Ġdesign": 1088,
      "noun": 1089,
      "arm": 1090,
      "ĠChe": 1091,
      "ĠMarket": 1092,
      "Ġlike": 1093,
      "uck": 1094,
      "ĠHel": 1095,
      "Ġthis": 1096,
      "ooks": 1097,
      "reate": 1098,
      "Ġany": 1099,
      "Ġproduct": 1100,
      "Ġneed": 1101,
      "ĠRele": 1102,
      "itch": 1103,
      "ĠCr": 1104,
      "rome": 1105,
      "la": 1106,
      "ĠMin": 1107,
      "ĠWhen": 1108,
      "ands": 1109,
      "ĠSil": 1110,
      "ĠOver": 1111,
      "ĠTrans": 1112,
      "ĠTool": 1113,
      "vers": 1114,
      "ML": 1115,
      "read": 1116,
      "uper": 1117,
      "ives": 1118,
      "ize": 1119,
      "Ġte": 1120,
      "ĠEv": 1121,
      "Ġ|": 1122,
      "Ġper": 1123,
      "ger": 1124,
      "ases": 1125,
      "ĠJob": 1126,
      "ĠManag": 1127,
      "ĠSl": 1128,
      "rol": 1129,
      "ational": 1130,
      "ĠDoes": 1131,
      "Hub": 1132,
      "Ġ9": 1133,
      "Ġback": 1134,
      "oth": 1135,
      "Ġdoes": 1136,
      "Ġfl": 1137,
      "Ġfree": 1138,
      "ams": 1139,
      "Ġim": 1140,
      "ĠCal": 1141,
      "ĠPost": 1142,
      "ĠGame": 1143,
      "ublic": 1144,
      "ĠRob": 1145,
      "ĠReact": 1146,
      "pos": 1147,
      "Ġaut": 1148,
      "Ġcould": 1149,
      "ainst": 1150,
      "ĠEd": 1151,
      "ĠSecurity": 1152,
      "ĠDev": 1153,
      "Ġcom": 1154,
      "uring": 1155,
      "Ġacc": 1156,
      "ĠMobile": 1157,
      "rivacy": 1158,
      "ier": 1159,
      "icon": 1160,
      "ĠHigh": 1161,
      "ify": 1162,
      "ĠCons": 1163,
      "anies": 1164,
      "Ġso": 1165,
      "ĠRuss": 1166,
      "Ġimp": 1167,
      "Ġsource": 1168,
      "ural": 1169,
      "ĠBack": 1170,
      "Ġbusiness": 1171,
      "ized": 1172,
      "uilt": 1173,
      "ĠSol": 1174,
      "ĠVideo": 1175,
      "ĠExpl": 1176,
      "ĠGener": 1177,
      "ident": 1178,
      "ym": 1179,
      "ervices": 1180,
      "ĠFuture": 1181,
      "ned": 1182,
      "ĠDown": 1183,
      "ĠFire": 1184,
      "ĠFound": 1185,
      "eta": 1186,
      "air": 1187,
      "ĠSo": 1188,
      "reak": 1189,
      "Ġway": 1190,
      "Ġlaunch": 1191,
      "ĠPol": 1192,
      "ube": 1193,
      "ĠRem": 1194,
      "irt": 1195,
      "ĠFrom": 1196,
      "uro": 1197,
      "atter": 1198,
      "ruct": 1199,
      "ied": 1200,
      "ĠUse": 1201,
      "unt": 1202,
      "ĠCar": 1203,
      "Ġreal": 1204,
      "Ġstart": 1205,
      "ĠStart": 1206,
      "ability": 1207,
      "gor": 1208,
      "ĠPat": 1209,
      "ework": 1210,
      "ĠReview": 1211,
      "ther": 1212,
      "blem": 1213,
      "ep": 1214,
      "Ġhelp": 1215,
      "oin": 1216,
      "ones": 1217,
      "ĠPower": 1218,
      "ĠLaunch": 1219,
      "istory": 1220,
      "ĠGitHub": 1221,
      "Ġmon": 1222,
      "Ġengine": 1223,
      "ĠCreat": 1224,
      "ĠIP": 1225,
      "Ġfind": 1226,
      "Ġcomput": 1227,
      "pect": 1228,
      "Ġtheir": 1229,
      "ĠLife": 1230,
      "ading": 1231,
      "ift": 1232,
      "ole": 1233,
      "Ġdec": 1234,
      "urs": 1235,
      "ĠPar": 1236,
      "Ġrem": 1237,
      "ĠIts": 1238,
      "ump": 1239,
      "formance": 1240,
      "Ġno": 1241,
      "ĠSpace": 1242,
      "ising": 1243,
      "ĠExper": 1244,
      "Ġyears": 1245,
      "ramework": 1246,
      "ibrary": 1247,
      "ĠTes": 1248,
      "ĠHave": 1249,
      "ild": 1250,
      "ĠId": 1251,
      "ĠSk": 1252,
      "ĠCEO": 1253,
      "ĠMachine": 1254,
      "ĠWar": 1255,
      "ĠChrome": 1256,
      "Ġpre": 1257,
      "ĠGuide": 1258,
      "board": 1259,
      "ues": 1260,
      "atic": 1261,
      "rop": 1262,
      "ah": 1263,
      "atab": 1264,
      "Ġcr": 1265,
      "yt": 1266,
      "ouse": 1267,
      "iles": 1268,
      "man": 1269,
      "ĠAc": 1270,
      "Ġev": 1271,
      "ograph": 1272,
      "Ġapps": 1273,
      "rong": 1274,
      "hem": 1275,
      "lex": 1276,
      "ffect": 1277,
      "ĠJust": 1278,
      "Ġjob": 1279,
      "ero": 1280,
      "reen": 1281,
      "Ġonline": 1282,
      "Ġgame": 1283,
      "In": 1284,
      "day": 1285,
      "Ġmost": 1286,
      "ĠNeed": 1287,
      "imate": 1288,
      "Ġgener": 1289,
      "WS": 1290,
      "cle": 1291,
      "ĠSource": 1292,
      "uby": 1293,
      "rowser": 1294,
      "apt": 1295,
      "ĠFin": 1296,
      "gorith": 1297,
      "ffic": 1298,
      "ĠNext": 1299,
      "ĠDr": 1300,
      "ĠProject": 1301,
      "ĠTesla": 1302,
      "ging": 1303,
      "ling": 1304,
      "ats": 1305,
      "St": 1306,
      "ises": 1307,
      "jects": 1308,
      "ds": 1309,
      "Ġour": 1310,
      "Ġown": 1311,
      "Ġnetwork": 1312,
      "ords": 1313,
      "ium": 1314,
      "way": 1315,
      "orts": 1316,
      "Ġfound": 1317,
      "ĠUnder": 1318,
      "ĠComputer": 1319,
      "ĠMost": 1320,
      "ĠScience": 1321,
      "orth": 1322,
      "ĠAcc": 1323,
      "ĠApps": 1324,
      "Ġexper": 1325,
      "Ġ202": 1326,
      "uch": 1327,
      "ales": 1328,
      "Ġind": 1329,
      "Ġbig": 1330,
      "Ġstud": 1331,
      "Ġ19": 1332,
      "Ġjust": 1333,
      "ĠResearch": 1334,
      "ĠDevelopment": 1335,
      "Ġdev": 1336,
      "ĠNode": 1337,
      "ĠStr": 1338,
      "aring": 1339,
      "Ġac": 1340,
      "Ġsearch": 1341,
      "prene": 1342,
      "Ġtechn": 1343,
      "ĠCrypt": 1344,
      "Ġwas": 1345,
      "vert": 1346,
      "aus": 1347,
      "ract": 1348,
      "ĠInvest": 1349,
      "Ġcompany": 1350,
      "ĠPlay": 1351,
      "sh": 1352,
      "ĠDay": 1353,
      "ĠOf": 1354,
      "load": 1355,
      "ness": 1356,
      "ĠAWS": 1357,
      "reprene": 1358,
      "Ġcol": 1359,
      "ĠHelp": 1360,
      "Ġne": 1361,
      "vern": 1362,
      "Ġwhen": 1363,
      "ĠPeople": 1364,
      "Ġbec": 1365,
      "ross": 1366,
      "ĠSilicon": 1367,
      "ĠValley": 1368,
      "box": 1369,
      "ense": 1370,
      "ĠMay": 1371,
      "ivity": 1372,
      "Ġknow": 1373,
      "press": 1374,
      "Ġtrans": 1375,
      "ward": 1376,
      "ĠFind": 1377,
      "ush": 1378,
      "Ġdon": 1379,
      "ĠGood": 1380,
      "Ġcons": 1381,
      "Ġsays": 1382,
      "Ġbetter": 1383,
      "irus": 1384,
      "ten": 1385,
      "ĠAct": 1386,
      "Ġgood": 1387,
      "ĠProt": 1388,
      "ĠIndia": 1389,
      "ĠPay": 1390,
      "ersonal": 1391,
      "ĠCor": 1392,
      "ĠDeb": 1393,
      "Ġbest": 1394,
      "asy": 1395,
      "chool": 1396,
      "arth": 1397,
      "Ġpay": 1398,
      "Ġvideo": 1399,
      "Ġwho": 1400,
      "oup": 1401,
      "ĠUber": 1402,
      "ysis": 1403,
      "ĠVisual": 1404,
      "ĠNet": 1405,
      "ights": 1406,
      "nect": 1407,
      "Ġsur": 1408,
      "Ġpart": 1409,
      "ĠEnt": 1410,
      "ĠEuro": 1411,
      "rav": 1412,
      "off": 1413,
      "ellig": 1414,
      "Ġusers": 1415,
      "ĠPlan": 1416,
      "ĠFun": 1417,
      "cept": 1418,
      "ĠOS": 1419,
      "ĠHTML": 1420,
      "ĠCustom": 1421,
      "gest": 1422,
      "ĠCould": 1423,
      "ĠRun": 1424,
      "umb": 1425,
      "obal": 1426,
      "Ġexpl": 1427,
      "ĠEvery": 1428,
      "Ġlanguage": 1429,
      "ĠPhot": 1430,
      "ĠElect": 1431,
      "een": 1432,
      "ĠBetter": 1433,
      "ask": 1434,
      "oom": 1435,
      "eli": 1436,
      "ĠCo": 1437,
      "ĠCy": 1438,
      "ĠAfter": 1439,
      "ĠRuby": 1440,
      "ĠLaw": 1441,
      "riting": 1442,
      "ĠDigital": 1443,
      "Ġmay": 1444,
      "ĠDeep": 1445,
      "Ġmobile": 1446,
      "Ġplan": 1447,
      "lish": 1448,
      "acking": 1449,
      "PU": 1450,
      "ĠSub": 1451,
      "Ġgr": 1452,
      "ĠIntel": 1453,
      "to": 1454,
      "Ġsome": 1455,
      "aps": 1456,
      "ribut": 1457,
      "ĠMult": 1458,
      "ĠLanguage": 1459,
      "ĠAny": 1460,
      "iqu": 1461,
      "aces": 1462,
      "Ġmin": 1463,
      "iffer": 1464,
      "Ġproject": 1465,
      "ĠBlock": 1466,
      "Ġwithout": 1467,
      "iet": 1468,
      "ĠLike": 1469,
      "Ġvis": 1470,
      "ĠCSS": 1471,
      "ĠMaking": 1472,
      "Ġhigh": 1473,
      "ĠAnnoun": 1474,
      "ĠExt": 1475,
      "ced": 1476,
      "Ġif": 1477,
      "Ġtw": 1478,
      "ĠLook": 1479,
      "Ġmade": 1480,
      "Ġunder": 1481,
      "ientists": 1482,
      "Ġent": 1483,
      "Ġart": 1484,
      "ĠStartups": 1485,
      "br": 1486,
      "Ġra": 1487,
      "ĠMar": 1488,
      "ĠRust": 1489,
      "Ġbr": 1490,
      "uts": 1491,
      "Ġwhy": 1492,
      "ĠBlog": 1493,
      "ything": 1494,
      "ĠAss": 1495,
      "Ġlearning": 1496,
      "ĠTim": 1497,
      "ĠGreat": 1498,
      "Ġrun": 1499,
      "down": 1500,
      "hind": 1501,
      "ĠWatch": 1502,
      "ids": 1503,
      "ĠAdd": 1504,
      "Ġed": 1505,
      "anding": 1506,
      "ĠRead": 1507,
      "ĠSmart": 1508,
      "ĠAmerica": 1509,
      "ees": 1510,
      "Ġpol": 1511,
      "ours": 1512,
      "ĠWhere": 1513,
      "Ġyear": 1514,
      "alls": 1515,
      "ton": 1516,
      "Ġfuture": 1517,
      "ĠOur": 1518,
      "Ġprogramming": 1519,
      "ired": 1520,
      "cover": 1521,
      "Ġsupport": 1522,
      "fore": 1523,
      "Ġ#": 1524,
      "Ġmarket": 1525,
      "ĠKnow": 1526,
      "ocker": 1527,
      "50": 1528,
      "Tube": 1529,
      "onom": 1530,
      "ĠDoc": 1531,
      "Ġsocial": 1532,
      "Ġins": 1533,
      "ider": 1534,
      "ung": 1535,
      "umm": 1536,
      "ument": 1537,
      "ĠApplic": 1538,
      "ĠAdv": 1539,
      "Ġsecurity": 1540,
      "Ġmanag": 1541,
      "ĠSuper": 1542,
      "ĠGraph": 1543,
      "ĠInc": 1544,
      "ĠIf": 1545,
      "Ġcreat": 1546,
      "ĠBook": 1547,
      "Ġpower": 1548,
      "ĠUK": 1549,
      "ules": 1550,
      "Ġlife": 1551,
      "irtual": 1552,
      "ĠEurope": 1553,
      "++": 1554,
      "ĠServer": 1555,
      "ĠLess": 1556,
      "Ġlook": 1557,
      "oding": 1558,
      "ustry": 1559,
      "atabase": 1560,
      "oj": 1561,
      "inal": 1562,
      "ĠMat": 1563,
      "Ġpat": 1564,
      "Ġprot": 1565,
      "gress": 1566,
      "izing": 1567,
      "antum": 1568,
      "Ġext": 1569,
      "DB": 1570,
      "ĠSimple": 1571,
      "Ġpass": 1572,
      "iving": 1573,
      "ĠEnd": 1574,
      "ÙĦ": 1575,
      "esk": 1576,
      "ĠService": 1577,
      "isk": 1578,
      "allen": 1579,
      "ĠCompany": 1580,
      "aper": 1581,
      "ĠList": 1582,
      "ĠSa": 1583,
      "ird": 1584,
      "ĠLearn": 1585,
      "iel": 1586,
      "rite": 1587,
      "ĠMark": 1588,
      "ĠRet": 1589,
      "ĠLive": 1590,
      "Ġread": 1591,
      "10": 1592,
      "me": 1593,
      "ĠWay": 1594,
      "unity": 1595,
      "ptim": 1596,
      "ĠArch": 1597,
      "back": 1598,
      "gin": 1599,
      "Ġide": 1600,
      "Ġfun": 1601,
      "ĠAv": 1602,
      "ĠBec": 1603,
      "ourn": 1604,
      "ĠInf": 1605,
      "ĠStore": 1606,
      "ĠThings": 1607,
      "etect": 1608,
      "omen": 1609,
      "ĠAnt": 1610,
      "ĠProf": 1611,
      "ĠDem": 1612,
      "ential": 1613,
      "ĠNA": 1614,
      "formation": 1615,
      "ĠDef": 1616,
      "ĠEver": 1617,
      "ĠYouTube": 1618,
      "Ġcar": 1619,
      "ĠKey": 1620,
      "Ġav": 1621,
      "ĠMet": 1622,
      "Ġsol": 1623,
      "ĠRails": 1624,
      "Ġplatform": 1625,
      "ĠInterview": 1626,
      "land": 1627,
      "pping": 1628,
      "Ġ100": 1629,
      "Ġadd": 1630,
      "ĠAp": 1631,
      "ges": 1632,
      "Ġinc": 1633,
      "Ġdevelopment": 1634,
      "gan": 1635,
      "rup": 1636,
      "sc": 1637,
      "ĠMedia": 1638,
      "ĠJo": 1639,
      "eries": 1640,
      "ĠRev": 1641,
      "elligence": 1642,
      "ited": 1643,
      "ĠHome": 1644,
      "ison": 1645,
      "ĠBlack": 1646,
      "eak": 1647,
      "ĠCap": 1648,
      "ĠMo": 1649,
      "Ġelect": 1650,
      "ains": 1651,
      "ending": 1652,
      "ĠPlatform": 1653,
      "TP": 1654,
      "ims": 1655,
      "iring": 1656,
      "ĠDeveloper": 1657,
      "ai": 1658,
      "Ġsite": 1659,
      "zz": 1660,
      "Ġservice": 1661,
      "acc": 1662,
      "ically": 1663,
      "ĠModel": 1664,
      "ĠJobs": 1665,
      "roll": 1666,
      "ody": 1667,
      "Ġwebsite": 1668,
      "...": 1669,
      "IT": 1670,
      "ann": 1671,
      "ĠHard": 1672,
      "Ġwar": 1673,
      "ĠForm": 1674,
      "irect": 1675,
      "ĠTechnology": 1676,
      "Ġreleased": 1677,
      "Ġche": 1678,
      "Ġwant": 1679,
      "ĠFund": 1680,
      "idd": 1681,
      "other": 1682,
      "vernment": 1683,
      "SQL": 1684,
      "oring": 1685,
      "ĠMem": 1686,
      "Ġwould": 1687,
      "ĠState": 1688,
      "ĠLeg": 1689,
      "ĠHere": 1690,
      "Ġnext": 1691,
      "ires": 1692,
      "for": 1693,
      "rov": 1694,
      "rove": 1695,
      "ĠAutom": 1696,
      "ĠSn": 1697,
      "ĠIntrodu": 1698,
      "Ġgu": 1699,
      "ĠThan": 1700,
      "iting": 1701,
      "ĠPass": 1702,
      "ĠLog": 1703,
      "ersion": 1704,
      "ĠReport": 1705,
      "ĠChinese": 1706,
      "Ġsimple": 1707,
      "Ġthey": 1708,
      "etes": 1709,
      "ĠEarth": 1710,
      "ĠUpd": 1711,
      "Ġinst": 1712,
      "raft": 1713,
      "ocal": 1714,
      "apan": 1715,
      "ĠUnivers": 1716,
      "itect": 1717,
      "Ġam": 1718,
      "ĠFast": 1719,
      "ason": 1720,
      "Ġthere": 1721,
      "ytics": 1722,
      "âĢĵ": 1723,
      "Ġbuilt": 1724,
      "Ġapplic": 1725,
      "Ġnews": 1726,
      "arge": 1727,
      "Ġcor": 1728,
      "ional": 1729,
      "elling": 1730,
      "duction": 1731,
      "ĠMusk": 1732,
      "ĠSet": 1733,
      "ĠEcon": 1734,
      "Ġgl": 1735,
      "ĠYear": 1736,
      "Ġblock": 1737,
      "fox": 1738,
      "era": 1739,
      "ench": 1740,
      "ari": 1741,
      "ĠMov": 1742,
      "ĠGrow": 1743,
      "ĠAng": 1744,
      "ĠMusic": 1745,
      "mark": 1746,
      "iment": 1747,
      "ĠJapan": 1748,
      "Ġthink": 1749,
      "ĠThink": 1750,
      "Ġkey": 1751,
      "Ġsub": 1752,
      "ĠGetting": 1753,
      "ĠEconom": 1754,
      "nov": 1755,
      "ĠDist": 1756,
      "ty": 1757,
      "ication": 1758,
      "ults": 1759,
      "Ġchange": 1760,
      "urrency": 1761,
      "ĠTV": 1762,
      "Ġco": 1763,
      "ĠOwn": 1764,
      "PT": 1765,
      "ĠAb": 1766,
      "ingle": 1767,
      "ĠTips": 1768,
      "Ġstr": 1769,
      "ĠTwo": 1770,
      "ĠiPad": 1771,
      "YC": 1772,
      "aj": 1773,
      "bit": 1774,
      "cast": 1775,
      "oice": 1776,
      "ĠHuman": 1777,
      "ĠHistory": 1778,
      "ĠDocker": 1779,
      "Ġdr": 1780,
      "ĠLink": 1781,
      "chain": 1782,
      "Ġlaw": 1783,
      "Ġlibrary": 1784,
      "ogn": 1785,
      "ront": 1786,
      "Ġemail": 1787,
      "ĠPrivacy": 1788,
      "rok": 1789,
      "Ġevery": 1790,
      "ailable": 1791,
      "ĠHacker": 1792,
      "ched": 1793,
      "top": 1794,
      "uzz": 1795,
      "Ġinvest": 1796,
      "rive": 1797,
      "active": 1798,
      "aS": 1799,
      "ĠSelf": 1800,
      "ĠText": 1801,
      "ĠCent": 1802,
      "ĠWeek": 1803,
      "based": 1804,
      "oint": 1805,
      "time": 1806,
      "Ġpost": 1807,
      "irm": 1808,
      "Ġcloud": 1809,
      "etween": 1810,
      "ĠMoney": 1811,
      "Ġcompanies": 1812,
      "Ġsmart": 1813,
      "ON": 1814,
      "face": 1815,
      "ators": 1816,
      "ĠCreate": 1817,
      "Ġbased": 1818,
      "utor": 1819,
      "ĠKub": 1820,
      "ards": 1821,
      "ĠPres": 1822,
      "Ġlearn": 1823,
      "SD": 1824,
      "yle": 1825,
      "Ġcrypt": 1826,
      "ĠLab": 1827,
      "ĠYears": 1828,
      "ĠScal": 1829,
      "phone": 1830,
      "rivate": 1831,
      "ference": 1832,
      "Ġresearch": 1833,
      "Ġrob": 1834,
      "egr": 1835,
      "ĠSome": 1836,
      "ouch": 1837,
      "ĠBill": 1838,
      "ror": 1839,
      "ĠPublic": 1840,
      "icial": 1841,
      "ĠBank": 1842,
      "ources": 1843,
      "ĠStar": 1844,
      "ulation": 1845,
      "ĠChat": 1846,
      "ĠFirefox": 1847,
      "ES": 1848,
      "ĠClass": 1849,
      "ĠQuest": 1850,
      "ĠIde": 1851,
      "Ġend": 1852,
      "ĠHapp": 1853,
      "ĠMag": 1854,
      "ĠWord": 1855,
      "Ġcustom": 1856,
      "ision": 1857,
      "Ġlist": 1858,
      "Ġreg": 1859,
      "por": 1860,
      "sites": 1861,
      "ality": 1862,
      "Ġset": 1863,
      "Ġanal": 1864,
      "aving": 1865,
      "ĠHealth": 1866,
      "Ġagainst": 1867,
      "ĠNASA": 1868,
      "pro": 1869,
      "Ġsl": 1870,
      "Ġinf": 1871,
      "ĠStop": 1872,
      "opy": 1873,
      "Ġreview": 1874,
      "ĠEntreprene": 1875,
      "Ġ0": 1876,
      "ĠMed": 1877,
      "Ġattack": 1878,
      "ernetes": 1879,
      "ĠWik": 1880,
      "Ġmult": 1881,
      "Ġmuch": 1882,
      "place": 1883,
      "ĠAlgorith": 1884,
      "ĠLead": 1885,
      "ĠReg": 1886,
      "Ġplay": 1887,
      "ĠStudy": 1888,
      "HP": 1889,
      "itive": 1890,
      "ache": 1891,
      "ily": 1892,
      "Ġret": 1893,
      "ĠJS": 1894,
      "Ġever": 1895,
      "aid": 1896,
      "aut": 1897,
      "ĠDN": 1898,
      "ĠLet": 1899,
      "Ġupd": 1900,
      "ĠDevelopers": 1901,
      "Ġdevelopers": 1902,
      "IS": 1903,
      "ters": 1904,
      "ĠSim": 1905,
      "ĠSign": 1906,
      "Ġweek": 1907,
      "redict": 1908,
      "Ø§Ø": 1909,
      "ĠIntroducing": 1910,
      "get": 1911,
      "Ġec": 1912,
      "ĠMess": 1913,
      "Ġtop": 1914,
      "ĠFeat": 1915,
      "emic": 1916,
      "Ġval": 1917,
      "udio": 1918,
      "ĠMeet": 1919,
      "oid": 1920,
      "Ġse": 1921,
      "Ġcreate": 1922,
      "ulner": 1923,
      "Ġ11": 1924,
      "ĠStory": 1925,
      "ĠYork": 1926,
      "ĠProcess": 1927,
      "Ġ30": 1928,
      "riving": 1929,
      "ĠPrin": 1930,
      "rupt": 1931,
      "ĠKubernetes": 1932,
      "ration": 1933,
      "vid": 1934,
      "Ġhapp": 1935,
      "Ġthrough": 1936,
      "ape": 1937,
      "ĠPerformance": 1938,
      "afe": 1939,
      "ĠCour": 1940,
      "ĠPi": 1941,
      "Ġdoc": 1942,
      "Ġform": 1943,
      "ĠUI": 1944,
      "rap": 1945,
      "ells": 1946,
      "ĠRel": 1947,
      "ott": 1948,
      "ences": 1949,
      "Ġ200": 1950,
      "ification": 1951,
      "ĠCalif": 1952,
      "ĠSan": 1953,
      "ĠGe": 1954,
      "asp": 1955,
      "Ġlong": 1956,
      "Ġhard": 1957,
      "Ġstill": 1958,
      "Ġvia": 1959,
      "ĠMarketing": 1960,
      "ĠReleased": 1961,
      "ructure": 1962,
      "bl": 1963,
      "ss": 1964,
      "ule": 1965,
      "ĠPhone": 1966,
      "ĠBre": 1967,
      "ĠBuy": 1968,
      "Ġdid": 1969,
      "Ġstor": 1970,
      "ills": 1971,
      "ternative": 1972,
      "'re": 1973,
      "dit": 1974,
      "Ġfund": 1975,
      "Ġact": 1976,
      "Ġmem": 1977,
      "aming": 1978,
      "Ġonly": 1979,
      "ries": 1980,
      "early": 1981,
      "ĠConf": 1982,
      "ĠUsers": 1983,
      "Ġfeat": 1984,
      "ĠDid": 1985,
      "ised": 1986,
      "Ġdeb": 1987,
      "ĠStor": 1988,
      "ĠProgramm": 1989,
      "2016": 1990,
      "Ġchang": 1991,
      "Ġspace": 1992,
      "ĠInside": 1993,
      "ĠTesting": 1994,
      "ĠRussia": 1995,
      "utorial": 1996,
      "ĠÙ": 1997,
      "ĠPC": 1998,
      "ĠBrain": 1999,
      "Ġphone": 2000,
      "ĠAnalysis": 2001,
      "Ġcomputer": 2002,
      "be": 2003,
      "cer": 2004,
      "onav": 2005,
      "lement": 2006,
      "ĠEr": 2007,
      "Ġlive": 2008,
      "Ġbeen": 2009,
      "ĠScientists": 2010,
      "ĠWebsite": 2011,
      "Ġ2020": 2012,
      "Ġreport": 2013,
      "iled": 2014,
      "ĠCaliforn": 2015,
      "onavirus": 2016,
      "ĠSQL": 2017,
      "Ġold": 2018,
      "ĠGen": 2019,
      "Ġday": 2020,
      "ĠTrump": 2021,
      "ission": 2022,
      "source": 2023,
      "Ġtake": 2024,
      "ĠWin": 2025,
      "Ġsign": 2026,
      "raw": 2027,
      "ĠChang": 2028,
      "flow": 2029,
      "ren": 2030,
      "Ġtalk": 2031,
      "Ġself": 2032,
      "Ġhuman": 2033,
      "Ġreve": 2034,
      "ĠProblem": 2035,
      "Ġprof": 2036,
      "ĠElon": 2037,
      "Ġ/": 2038,
      "ĠPHP": 2039,
      "Ġhome": 2040,
      "ET": 2041,
      "ky": 2042,
      "word": 2043,
      "ĠHy": 2044,
      "Ġdem": 2045,
      "Ġ2012": 2046,
      "ought": 2047,
      "ificial": 2048,
      "ĠManagement": 2049,
      "esktop": 2050,
      "uff": 2051,
      "ony": 2052,
      "Ġfin": 2053,
      "Ġbuy": 2054,
      "Ġbrowser": 2055,
      "ils": 2056,
      "ute": 2057,
      "ĠStat": 2058,
      "Ġrev": 2059,
      "2015": 2060,
      "Ġadv": 2061,
      "ĠCalifornia": 2062,
      "erc": 2063,
      "Ġab": 2064,
      "Ġaccess": 2065,
      "ĠFre": 2066,
      "omain": 2067,
      "Ġdist": 2068,
      "Ġmoney": 2069,
      "eler": 2070,
      "play": 2071,
      "arget": 2072,
      "ĠAmerican": 2073,
      "ĠHTTP": 2074,
      "ĠTools": 2075,
      "li": 2076,
      "ĠWas": 2077,
      "oop": 2078,
      "ĠSmall": 2079,
      "amsung": 2080,
      "Ġturn": 2081,
      "ĠType": 2082,
      "Ġfast": 2083,
      "ĠGames": 2084,
      "ĠEp": 2085,
      "ĠStream": 2086,
      "Ġless": 2087,
      "opular": 2088,
      "berry": 2089,
      "ĠUser": 2090,
      "ĠGlobal": 2091,
      "ĠRobot": 2092,
      "Ġlaunches": 2093,
      "lin": 2094,
      "ĠWant": 2095,
      "ĠBad": 2096,
      "agram": 2097,
      "ĠYC": 2098,
      "ĠProgram": 2099,
      "Ġright": 2100,
      "iple": 2101,
      "ension": 2102,
      "ĠSamsung": 2103,
      "ĠHand": 2104,
      "Ġbook": 2105,
      "ĠEth": 2106,
      "Ġ12": 2107,
      "ynam": 2108,
      "Ġstartups": 2109,
      "Ġmonth": 2110,
      "esh": 2111,
      "ĠSchool": 2112,
      "Ġframework": 2113,
      "ĠWriting": 2114,
      "Ġthem": 2115,
      "ĠLong": 2116,
      "ury": 2117,
      "ĠEng": 2118,
      "ather": 2119,
      "ployees": 2120,
      "ĠStack": 2121,
      "ideos": 2122,
      "Ġproblem": 2123,
      "Con": 2124,
      "enn": 2125,
      "arter": 2126,
      "ĠCity": 2127,
      "reet": 2128,
      "Ġpar": 2129,
      "Ġmov": 2130,
      "Ġmakes": 2131,
      "Ġmedia": 2132,
      "Ġlog": 2133,
      "quest": 2134,
      "blems": 2135,
      "ollow": 2136,
      "ĠEngineering": 2137,
      "Ġphot": 2138,
      "cul": 2139,
      "ĠAf": 2140,
      "Ġserver": 2141,
      "aging": 2142,
      "Ġass": 2143,
      "lete": 2144,
      "Ġtools": 2145,
      "by": 2146,
      "ef": 2147,
      "ĠTra": 2148,
      "Ġcy": 2149,
      "iler": 2150,
      "utes": 2151,
      "riend": 2152,
      "ĠRep": 2153,
      "Ġthings": 2154,
      "Ġprogram": 2155,
      "Ġ50": 2156,
      "ĠSteve": 2157,
      "cation": 2158,
      "mail": 2159,
      "net": 2160,
      "we": 2161,
      "Ġtext": 2162,
      "ĠSyn": 2163,
      "ĠTalk": 2164,
      "icle": 2165,
      "ĠEU": 2166,
      "Ġmus": 2167,
      "iff": 2168,
      "Ġdeveloper": 2169,
      "ause": 2170,
      "book": 2171,
      "Ġ.": 2172,
      "ĠCase": 2173,
      "ĠRa": 2174,
      "ĠThere": 2175,
      "ĠEnc": 2176,
      "lection": 2177,
      "Ġtechnology": 2178,
      "bin": 2179,
      "uit": 2180,
      "ĠAust": 2181,
      "ĠCur": 2182,
      "leg": 2183,
      "Ġob": 2184,
      "ĠFail": 2185,
      "ples": 2186,
      "flix": 2187,
      "ĠSurve": 2188,
      "te": 2189,
      "Ġpage": 2190,
      "iron": 2191,
      "ified": 2192,
      "ĠSuccess": 2193,
      "ĠCrypto": 2194,
      "gre": 2195,
      "oor": 2196,
      "sw": 2197,
      "Ġother": 2198,
      "2014": 2199,
      "berg": 2200,
      "ritten": 2201,
      "ĠSupport": 2202,
      "ossible": 2203,
      "untu": 2204,
      "ĠCle": 2205,
      "ĠEar": 2206,
      "ope": 2207,
      "ners": 2208,
      "ĠAM": 2209,
      "ĠThey": 2210,
      "Ġlink": 2211,
      "Ġused": 2212,
      "ĠSystems": 2213,
      "ĠMot": 2214,
      "Ġmany": 2215,
      "Ġmachine": 2216,
      "ĠTheir": 2217,
      "ocus": 2218,
      "umber": 2219,
      "ĠCompanies": 2220,
      "ĠTeam": 2221,
      "ĠRussian": 2222,
      "ĠNetflix": 2223,
      "ributed": 2224,
      "ield": 2225,
      "ior": 2226,
      "ying": 2227,
      "ane": 2228,
      "Ġsk": 2229,
      "ĠNSA": 2230,
      "ĠUb": 2231,
      "2017": 2232,
      "ugs": 2233,
      "ĠIntroduction": 2234,
      "ĠLaunches": 2235,
      "ography": 2236,
      "ifferent": 2237,
      "AR": 2238,
      "Ġair": 2239,
      "roach": 2240,
      "ĠFramework": 2241,
      "istic": 2242,
      "Ġconf": 2243,
      "Ġscience": 2244,
      "ĠImage": 2245,
      "Ġdef": 2246,
      "ĠQuantum": 2247,
      "ĠAttack": 2248,
      "ĠUnderst": 2249,
      "itecture": 2250,
      "bed": 2251,
      "ucle": 2252,
      "ĠFed": 2253,
      "usion": 2254,
      "ublish": 2255,
      "2013": 2256,
      "oughts": 2257,
      "ĠSecret": 2258,
      "anguages": 2259,
      "ajor": 2260,
      "ĠPort": 2261,
      "Ġprivacy": 2262,
      "Ġprocess": 2263,
      "terns": 2264,
      "prise": 2265,
      "ĠControl": 2266,
      "ĠTake": 2267,
      "ĠRight": 2268,
      "ama": 2269,
      "ĠOptim": 2270,
      "ads": 2271,
      "ĠWhich": 2272,
      "ĠAnalytics": 2273,
      "MS": 2274,
      "ĠTell": 2275,
      "icles": 2276,
      "isco": 2277,
      "Ġmaking": 2278,
      "Ġgreat": 2279,
      "Ġgrow": 2280,
      "ĠChange": 2281,
      "icks": 2282,
      "ĠDead": 2283,
      "Ġbuilding": 2284,
      "ahoo": 2285,
      "ĠAR": 2286,
      "aries": 2287,
      "ĠColl": 2288,
      "Ġsw": 2289,
      "ĠLight": 2290,
      "uth": 2291,
      "ĠPract": 2292,
      "ravel": 2293,
      "ojure": 2294,
      "ĠHol": 2295,
      "Ġinternet": 2296,
      "amb": 2297,
      "Ġhis": 2298,
      "abor": 2299,
      "umans": 2300,
      "Ġ15": 2301,
      "ĠKill": 2302,
      "ĠDep": 2303,
      "Ġblog": 2304,
      "ĠComputing": 2305,
      "ĠAgainst": 2306,
      "Ġmodel": 2307,
      "JS": 2308,
      "sy": 2309,
      "iny": 2310,
      "ĠSays": 2311,
      "ĠAccess": 2312,
      "ĠMade": 2313,
      "ĠBas": 2314,
      "ĠBut": 2315,
      "Ġbrain": 2316,
      "Ġbeing": 2317,
      "order": 2318,
      "Ġdeal": 2319,
      "ĠWorking": 2320,
      "Ġsuccess": 2321,
      "11": 2322,
      "outh": 2323,
      "isis": 2324,
      "Ġbank": 2325,
      "ĠGerm": 2326,
      "ender": 2327,
      "Ġautom": 2328,
      "ĠLessons": 2329,
      "ĠServices": 2330,
      "Ġcost": 2331,
      "Ġpublic": 2332,
      "pped": 2333,
      "ĠIntelligence": 2334,
      "ĠHackers": 2335,
      "The": 2336,
      "viron": 2337,
      "ĠIT": 2338,
      "ĠRad": 2339,
      "Ġpersonal": 2340,
      "ĠVer": 2341,
      "ĠVirtual": 2342,
      "ables": 2343,
      "ĠEmail": 2344,
      "BM": 2345,
      "PA": 2346,
      "par": 2347,
      "ĠRasp": 2348,
      "omb": 2349,
      "2018": 2350,
      "ango": 2351,
      "Ġcontrol": 2352,
      "ittle": 2353,
      "ĠTurn": 2354,
      "ĠProm": 2355,
      "Ġtoo": 2356,
      "Ġbad": 2357,
      "eter": 2358,
      "ĠLat": 2359,
      "Ġlight": 2360,
      "aker": 2361,
      "Ġiss": 2362,
      "avor": 2363,
      "Ġclass": 2364,
      "Ġworking": 2365,
      "Ġquest": 2366,
      "fact": 2367,
      "sp": 2368,
      "ÙĬ": 2369,
      "ĠSumm": 2370,
      "Ġfil": 2371,
      "ĠHar": 2372,
      "ĠYahoo": 2373,
      "Ġprojects": 2374,
      "Ġstudy": 2375,
      "uclear": 2376,
      "12": 2377,
      "ĠWould": 2378,
      "acing": 2379,
      "ategy": 2380,
      "2019": 2381,
      "ĠSpot": 2382,
      "ĠWithout": 2383,
      "ĠRaspberry": 2384,
      "ER": 2385,
      "icy": 2386,
      "Ġhand": 2387,
      "rast": 2388,
      "eedback": 2389,
      "Ġ2018": 2390,
      "ĠSwift": 2391,
      "Ch": 2392,
      "ĠCost": 2393,
      "lege": 2394,
      "ĠBy": 2395,
      "ĠEffect": 2396,
      "Ġmic": 2397,
      "oost": 2398,
      "ĠOper": 2399,
      "unk": 2400,
      "ĠResp": 2401,
      "199": 2402,
      "ampa": 2403,
      "ĠGroup": 2404,
      "ĠSaaS": 2405,
      "ĠID": 2406,
      "ĠDrop": 2407,
      "ĠChallen": 2408,
      "ĠKn": 2409,
      "Ġant": 2410,
      "Ġlet": 2411,
      "Ġtrack": 2412,
      "ulture": 2413,
      "ĠCheck": 2414,
      "Ġmusic": 2415,
      "over": 2416,
      "wh": 2417,
      "ĠShe": 2418,
      "ĠTri": 2419,
      "Ġmess": 2420,
      "ental": 2421,
      "riends": 2422,
      "ĠVC": 2423,
      "ection": 2424,
      "Ġuser": 2425,
      "Ġ2016": 2426,
      "attery": 2427,
      "ĠCapital": 2428,
      "ault": 2429,
      "lock": 2430,
      "Ġtra": 2431,
      "ature": 2432,
      "ĠTer": 2433,
      "Ġfiles": 2434,
      "imes": 2435,
      "Ġgames": 2436,
      "ĠSpec": 2437,
      "Ġhealth": 2438,
      "ĠContent": 2439,
      "hn": 2440,
      "ĠTur": 2441,
      "ĠCam": 2442,
      "Ġwrong": 2443,
      "ĠFull": 2444,
      "illance": 2445,
      "ĠDisc": 2446,
      "ournal": 2447,
      "ĠUbuntu": 2448,
      "ampaign": 2449,
      "AN": 2450,
      "bers": 2451,
      "wes": 2452,
      "ĠSales": 2453,
      "ĠPersonal": 2454,
      "Ġhistory": 2455,
      "ĠVent": 2456,
      "Ġ13": 2457,
      "Ġannoun": 2458,
      "Ġ2019": 2459,
      "ination": 2460,
      "ĠTax": 2461,
      "ĠCyber": 2462,
      "ĠMars": 2463,
      "Ġsim": 2464,
      "ĠBoot": 2465,
      "ĠOld": 2466,
      "oph": 2467,
      "Ġrel": 2468,
      "ounts": 2469,
      "ĠBehind": 2470,
      "Ġ2017": 2471,
      "ethod": 2472,
      "Ġtwo": 2473,
      "Fi": 2474,
      "ID": 2475,
      "ler": 2476,
      "min": 2477,
      "tr": 2478,
      "ĠHer": 2479,
      "ĠBreak": 2480,
      "Ġprom": 2481,
      "omes": 2482,
      "illa": 2483,
      "anger": 2484,
      "ĠClojure": 2485,
      "Ġshow": 2486,
      "ĠCanad": 2487,
      "redit": 2488,
      "umbers": 2489,
      "Ġvisual": 2490,
      "Cl": 2491,
      "the": 2492,
      "Ġ:": 2493,
      "Ġtri": 2494,
      "ĠSS": 2495,
      "rew": 2496,
      "Ġsee": 2497,
      "ĠRich": 2498,
      "ĠEasy": 2499,
      "Ġstory": 2500,
      "Ġcontent": 2501,
      "ĠApplication": 2502,
      "ze": 2503,
      "Ġcase": 2504,
      "ĠBi": 2505,
      "ĠEdu": 2506,
      "asons": 2507,
      "ĠPhys": 2508,
      "ĠModern": 2509,
      "ĠRelease": 2510,
      "ĠUpdate": 2511,
      "App": 2512,
      "PS": 2513,
      "ians": 2514,
      "ves": 2515,
      "erious": 2516,
      "Ġtax": 2517,
      "ĠDi": 2518,
      "ĠFix": 2519,
      "amm": 2520,
      "rist": 2521,
      "Ġgets": 2522,
      "ĠShort": 2523,
      "ĠOffice": 2524,
      "iant": 2525,
      "ĠMal": 2526,
      "ĠMass": 2527,
      "ĠDark": 2528,
      "Ġservices": 2529,
      "Ġbetween": 2530,
      "Ġdigital": 2531,
      "ĠInnov": 2532,
      "ĠStock": 2533,
      "Ġgot": 2534,
      "ĠRemote": 2535,
      "ĠPhotos": 2536,
      "nd": 2537,
      "onym": 2538,
      "attle": 2539,
      "ened": 2540,
      "ĠMillion": 2541,
      "ometh": 2542,
      "Ø§ÙĦ": 2543,
      "Ġteam": 2544,
      "Ġjobs": 2545,
      "ares": 2546,
      "Ġsay": 2547,
      "utting": 2548,
      "ops": 2549,
      "Ġ2011": 2550,
      "ĠHacking": 2551,
      "Ġresp": 2552,
      "Ġavailable": 2553,
      "'m": 2554,
      "ci": 2555,
      "cent": 2556,
      "ving": 2557,
      "ĠTrain": 2558,
      "Ġwon": 2559,
      "acle": 2560,
      "ĠView": 2561,
      "illions": 2562,
      "ĠTeach": 2563,
      "ctional": 2564,
      "ĠArtificial": 2565,
      "ĠAustral": 2566,
      "omething": 2567,
      "ring": 2568,
      "right": 2569,
      "eral": 2570,
      "Ġtrain": 2571,
      "org": 2572,
      "Ġfail": 2573,
      "ĠHouse": 2574,
      "lease": 2575,
      "ĠPy": 2576,
      "Ġwants": 2577,
      "ĠRest": 2578,
      "odcast": 2579,
      "ocation": 2580,
      "apers": 2581,
      "2011": 2582,
      "Ġshows": 2583,
      "Ġkill": 2584,
      "anced": 2585,
      "ĠNetworks": 2586,
      "ique": 2587,
      "force": 2588,
      "yond": 2589,
      "ino": 2590,
      "ĠWall": 2591,
      "Ġcent": 2592,
      "ĠGold": 2593,
      "ctions": 2594,
      "ĠThree": 2595,
      "aint": 2596,
      "ained": 2597,
      "Ġbefore": 2598,
      "ondon": 2599,
      "ĠInstagram": 2600,
      "100": 2601,
      "ED": 2602,
      "SP": 2603,
      "Sp": 2604,
      "eech": 2605,
      "ke": 2606,
      "most": 2607,
      "ĠWi": 2608,
      "ĠBar": 2609,
      "ĠWhite": 2610,
      "ĠConnect": 2611,
      "ĠSpeed": 2612,
      "ypes": 2613,
      "Ġidea": 2614,
      "comp": 2615,
      "pts": 2616,
      "ĠSEO": 2617,
      "ĠToo": 2618,
      "ĠMakes": 2619,
      "ĠIBM": 2620,
      "ĠBay": 2621,
      "isp": 2622,
      "Ġmet": 2623,
      "ecut": 2624,
      "ĠStand": 2625,
      "Ġprogramm": 2626,
      "ĠIntegr": 2627,
      "Ġclient": 2628,
      "ĠAuth": 2629,
      "Ġtesting": 2630,
      "ĠAcqu": 2631,
      "Ġindustry": 2632,
      "ĠEntrepreneurs": 2633,
      "ĠBro": 2634,
      "Ġbreak": 2635,
      "Ġdatabase": 2636,
      "ĠNative": 2637,
      "ĠReve": 2638,
      "ĠKeep": 2639,
      "ommend": 2640,
      "Ġmanagement": 2641,
      "Qu": 2642,
      "fect": 2643,
      "jango": 2644,
      "ĠCare": 2645,
      "ĠCore": 2646,
      "ĠHot": 2647,
      "Ġcount": 2648,
      "ĠFB": 2649,
      "Ġban": 2650,
      "ĠLondon": 2651,
      "oses": 2652,
      "ocket": 2653,
      "Ġspec": 2654,
      "Ġdead": 2655,
      "ĠIndustry": 2656,
      "ryption": 2657,
      "Ġgoing": 2658,
      "Ġsmall": 2659,
      "Ġperformance": 2660,
      "ildren": 2661,
      "ĠMulti": 2662,
      "ĠBlockchain": 2663,
      "ĠEverything": 2664,
      "son": 2665,
      "Ġenc": 2666,
      "ĠSnow": 2667,
      "ĠAst": 2668,
      "ĠPand": 2669,
      "ĠML": 2670,
      "ĠGal": 2671,
      "ocr": 2672,
      "Ġlead": 2673,
      "ually": 2674,
      "Ġcla": 2675,
      "ĠSlack": 2676,
      "Ġacqu": 2677,
      "ĠJohn": 2678,
      "30": 2679,
      "Book": 2680,
      "Ġ+": 2681,
      "esp": 2682,
      "Ġfix": 2683,
      "ĠWomen": 2684,
      "ĠDatabase": 2685,
      "ĠLast": 2686,
      "ĠLibrary": 2687,
      "Ġste": 2688,
      "ĠTrack": 2689,
      "ief": 2690,
      "Ġalgorith": 2691,
      "ĠNever": 2692,
      "Ġeconom": 2693,
      "ergy": 2694,
      "ĠMIT": 2695,
      "Ġcal": 2696,
      "ĠBrowser": 2697,
      "imal": 2698,
      "ĠStill": 2699,
      "Ġnon": 2700,
      "Ġreally": 2701,
      "Ġversion": 2702,
      "ĠEnter": 2703,
      "Ġbehind": 2704,
      "Ġask": 2705,
      "ĠReddit": 2706,
      "ĠFranc": 2707,
      "Ġinterview": 2708,
      "ognition": 2709,
      "ĠGPU": 2710,
      "use": 2711,
      "une": 2712,
      "Ġhost": 2713,
      "aves": 2714,
      "ĠMicro": 2715,
      "ĠDownload": 2716,
      "ĠCreating": 2717,
      "wesome": 2718,
      "Re": 2719,
      "den": 2720,
      "host": 2721,
      "ĠSup": 2722,
      "ĠBrit": 2723,
      "Ġpack": 2724,
      "ember": 2725,
      "ĠJul": 2726,
      "ĠAPIs": 2727,
      "CC": 2728,
      "Sh": 2729,
      "ĠØ": 2730,
      "atell": 2731,
      "ĠCall": 2732,
      "ĠMap": 2733,
      "Ġstate": 2734,
      "Ġeasy": 2735,
      "Ġ16": 2736,
      "ĠPhil": 2737,
      "ĠCommun": 2738,
      "ĠTele": 2739,
      "ĠCheap": 2740,
      "ĠIPO": 2741,
      "Ġ2021": 2742,
      "ĠAfric": 2743,
      "ĠSouth": 2744,
      "ared": 2745,
      "outs": 2746,
      "Ġtoday": 2747,
      "Ġwritten": 2748,
      "asing": 2749,
      "ĠUk": 2750,
      "Ġhere": 2751,
      "Ġgraph": 2752,
      "raz": 2753,
      "2012": 2754,
      "obe": 2755,
      "rying": 2756,
      "ĠDeal": 2757,
      "Ġcoming": 2758,
      "Ġremote": 2759,
      "Ġcheck": 2760,
      "ĠUnderstanding": 2761,
      "Based": 2762,
      "IN": 2763,
      "oes": 2764,
      "vel": 2765,
      "ĠSite": 2766,
      "ĠMind": 2767,
      "ilities": 2768,
      "irms": 2769,
      "odes": 2770,
      "ocurrency": 2771,
      "Ġ14": 2772,
      "Ġatt": 2773,
      "Ġwhere": 2774,
      "ibility": 2775,
      "Ġkeep": 2776,
      "ĠGovernment": 2777,
      "onds": 2778,
      "iction": 2779,
      "Ġbecome": 2780,
      "Ġguide": 2781,
      "aff": 2782,
      "ga": 2783,
      "light": 2784,
      "ne": 2785,
      "oon": 2786,
      "iter": 2787,
      "unch": 2788,
      "Ġstat": 2789,
      "astic": 2790,
      "Ġ2013": 2791,
      "ĠReality": 2792,
      "ĠNeural": 2793,
      "ĠAtt": 2794,
      "Ops": 2795,
      "tt": 2796,
      "Ġz": 2797,
      "orse": 2798,
      "ĠTutorial": 2799,
      "ouble": 2800,
      "ĠPack": 2801,
      "Ġcoll": 2802,
      "ĠBillion": 2803,
      "ĠFive": 2804,
      "lying": 2805,
      "ensor": 2806,
      "ĠArm": 2807,
      "enef": 2808,
      "Ġlearned": 2809,
      "ĠAngular": 2810,
      "eel": 2811,
      "year": 2812,
      "ĠCS": 2813,
      "ĠDetect": 2814,
      "ĠFight": 2815,
      "Ġdays": 2816,
      "aily": 2817,
      "ugh": 2818,
      "Ġ2015": 2819,
      "fficient": 2820,
      "accine": 2821,
      "Ġrobot": 2822,
      "ĠCourt": 2823,
      "avorite": 2824,
      "21": 2825,
      "eet": 2826,
      "not": 2827,
      "ris": 2828,
      "inter": 2829,
      "ĠSqu": 2830,
      "ĠSee": 2831,
      "ĠTem": 2832,
      "ĠCI": 2833,
      "ĠCPU": 2834,
      "Ġcour": 2835,
      "ĠFil": 2836,
      "ĠFall": 2837,
      "Ġstop": 2838,
      "ĠEnergy": 2839,
      "ĠBeing": 2840,
      "ernel": 2841,
      "ĠLinked": 2842,
      "ĠQuestions": 2843,
      "VM": 2844,
      "bn": 2845,
      "Ġimple": 2846,
      "ĠSave": 2847,
      "ĠAge": 2848,
      "ĠLow": 2849,
      "ĠStreet": 2850,
      "Ġred": 2851,
      "Ġleg": 2852,
      "Ġwebsites": 2853,
      "clud": 2854,
      "ĠImplement": 2855,
      "ĠRunning": 2856,
      "ince": 2857,
      "ĠSeries": 2858,
      "ĠTod": 2859,
      "ĠCat": 2860,
      "ĠDjango": 2861,
      "Ġsyn": 2862,
      "Ġbug": 2863,
      "oman": 2864,
      "Ġdetect": 2865,
      "esting": 2866,
      "Ġview": 2867,
      "ĠIss": 2868,
      "aste": 2869,
      "Ġconnect": 2870,
      "ĠClimate": 2871,
      "ĠBefore": 2872,
      "ĠModels": 2873,
      "ĠCombin": 2874,
      "Ġdoesn": 2875,
      "vironment": 2876,
      "Ġimplement": 2877,
      "OM": 2878,
      "Time": 2879,
      "ij": 2880,
      "ĠØ§ÙĦ": 2881,
      "ĠDel": 2882,
      "ĠDynam": 2883,
      "Ġsuper": 2884,
      "ĠBo": 2885,
      "ĠNon": 2886,
      "ĠIntern": 2887,
      "Ġlast": 2888,
      "Ġstream": 2889,
      "ĠThrough": 2890,
      "uggest": 2891,
      "riven": 2892,
      "ĠDeath": 2893,
      "Ġpres": 2894,
      "ĠSolar": 2895,
      "ĠApache": 2896,
      "kell": 2897,
      "yz": 2898,
      "erg": 2899,
      "atural": 2900,
      "ĠSch": 2901,
      "eng": 2902,
      "Ġfre": 2903,
      "Ġfaster": 2904,
      "ĠMiss": 2905,
      "Ġoper": 2906,
      "ĠRisk": 2907,
      "ĠThem": 2908,
      "Ġeffect": 2909,
      "Ġchat": 2910,
      "ĠMonth": 2911,
      "urrent": 2912,
      "ĠAnnounces": 2913,
      "ĠApplications": 2914,
      "ĠAlgorithm": 2915,
      "ĠFrancisco": 2916,
      "emb": 2917,
      "ĠImport": 2918,
      "Ġ40": 2919,
      "ancial": 2920,
      "ledge": 2921,
      "Ġarch": 2922,
      "itoring": 2923,
      "Ġsurve": 2924,
      "ĠTimes": 2925,
      "roken": 2926,
      "'ve": 2927,
      "80": 2928,
      "ĠSale": 2929,
      "ĠCount": 2930,
      "ĠMil": 2931,
      "Ġsales": 2932,
      "Ġcare": 2933,
      "ĠFace": 2934,
      "andom": 2935,
      "osing": 2936,
      "ĠOnly": 2937,
      "ounder": 2938,
      "ĠPrice": 2939,
      "ĠQuick": 2940,
      "Ġrecord": 2941,
      "Ġdevices": 2942,
      "list": 2943,
      "like": 2944,
      "ma": 2945,
      "uel": 2946,
      "ĠTable": 2947,
      "head": 2948,
      "asure": 2949,
      "river": 2950,
      "ĠExp": 2951,
      "Ġsupp": 2952,
      "Ġemployees": 2953,
      "Ġalternative": 2954,
      "ĠSupp": 2955,
      "Ġapplication": 2956,
      "AM": 2957,
      "AS": 2958,
      "self": 2959,
      "words": 2960,
      "ĠCrow": 2961,
      "ĠPage": 2962,
      "ĠWays": 2963,
      "ĠDirect": 2964,
      "Ġsingle": 2965,
      "Ġwrite": 2966,
      "etition": 2967,
      "ĠLim": 2968,
      "Ġmed": 2969,
      "idence": 2970,
      "ession": 2971,
      "Ġrad": 2972,
      "energy": 2973,
      "aunched": 2974,
      "ollar": 2975,
      "ĠHaskell": 2976,
      "ĠFounder": 2977,
      "ĠArchitecture": 2978,
      "da": 2979,
      "Ã©": 2980,
      "ĠSen": 2981,
      "rets": 2982,
      "ĠPredict": 2983,
      "ĠDesktop": 2984,
      "ety": 2985,
      "ĠGmail": 2986,
      "ĠEst": 2987,
      "ĠConc": 2988,
      "ipedia": 2989,
      "ervers": 2990,
      "ĠNotes": 2991,
      "flu": 2992,
      "ĠCommunity": 2993,
      "Ġagain": 2994,
      "verse": 2995,
      "covered": 2996,
      "NET": 2997,
      "eys": 2998,
      "ways": 2999,
      "Ġfile": 3000,
      "ĠHost": 3001,
      "ĠBooks": 3002,
      "ĠGets": 3003,
      "Ġmac": 3004,
      "oung": 3005,
      "plic": 3006,
      "argest": 3007,
      "ĠOrig": 3008,
      "ĠComing": 3009,
      "Ġaccount": 3010,
      "Ġexperience": 3011,
      "Ġincre": 3012,
      "ĠMoz": 3013,
      "enchmark": 3014,
      "EC": 3015,
      "eer": 3016,
      "ns": 3017,
      "rest": 3018,
      "ĠSaf": 3019,
      "ĠMath": 3020,
      "ĠWon": 3021,
      "ĠIr": 3022,
      "ĠBeta": 3023,
      "Ġwin": 3024,
      "ĠLib": 3025,
      "igr": 3026,
      "ags": 3027,
      "umer": 3028,
      "Ġthreat": 3029,
      "Ġrisk": 3030,
      "Ġshare": 3031,
      "Ġ25": 3032,
      "ĠOracle": 3033,
      "ĠAuto": 3034,
      "ĠAmericans": 3035,
      "ĠExperience": 3036,
      "ĠResearchers": 3037,
      "vertising": 3038,
      "Ġnever": 3039,
      "ĠMemory": 3040,
      "rastructure": 3041,
      "AT": 3042,
      "ipp": 3043,
      "Ġer": 3044,
      "erce": 3045,
      "ĠTor": 3046,
      "ĠRise": 3047,
      "ĠRoad": 3048,
      "ulator": 3049,
      "Ġrep": 3050,
      "ugin": 3051,
      "encies": 3052,
      "Ġclimate": 3053,
      "ether": 3054,
      "aterial": 3055,
      "Ġanyone": 3056,
      "Ġimage": 3057,
      "Ġauth": 3058,
      "ĠElectric": 3059,
      "elivery": 3060,
      "iddle": 3061,
      "Ġapplications": 3062,
      "BC": 3063,
      "Th": 3064,
      "ha": 3065,
      "Ġenergy": 3066,
      "ĠAT": 3067,
      "ĠCross": 3068,
      "ĠDream": 3069,
      "Ġschool": 3070,
      "ished": 3071,
      "Ġmiss": 3072,
      "ides": 3073,
      "ership": 3074,
      "ĠOther": 3075,
      "irl": 3076,
      "irth": 3077,
      "ups": 3078,
      "ĠThoughts": 3079,
      "ĠKore": 3080,
      "ĠInteractive": 3081,
      "Ġmeet": 3082,
      "ĠBring": 3083,
      "hemat": 3084,
      "Ġupdate": 3085,
      "aur": 3086,
      "hav": 3087,
      "ora": 3088,
      "ĠSF": 3089,
      "ĠSay": 3090,
      "ĠCO": 3091,
      "ĠMor": 3092,
      "Ġsites": 3093,
      "Ġcur": 3094,
      "Ġcap": 3095,
      "ĠBel": 3096,
      "Ġport": 3097,
      "Ġdet": 3098,
      "entral": 3099,
      "aked": 3100,
      "ĠRef": 3101,
      "Ġkn": 3102,
      "Ġintro": 3103,
      "ĠGoing": 3104,
      "Ġgovernment": 3105,
      "ĠColor": 3106,
      "ucker": 3107,
      "ĠManager": 3108,
      "Ġimprove": 3109,
      "ĠIdent": 3110,
      "Ġglobal": 3111,
      "ĠEducation": 3112,
      "ina": 3113,
      "ana": 3114,
      "Ġfull": 3115,
      "Ġcall": 3116,
      "acter": 3117,
      "ĠFour": 3118,
      "Ġdeep": 3119,
      "ĠNF": 3120,
      "ĠInv": 3121,
      "verage": 3122,
      "ĠVol": 3123,
      "ĠJe": 3124,
      "ĠDeploy": 3125,
      "ĠSecure": 3126,
      "axy": 3127,
      "erminal": 3128,
      "Ġdisc": 3129,
      "ĠObject": 3130,
      "Ġteach": 3131,
      "UI": 3132,
      "ved": 3133,
      "Ø±": 3134,
      "Ġident": 3135,
      "ening": 3136,
      "ĠCard": 3137,
      "leep": 3138,
      "ĠMyst": 3139,
      "edly": 3140,
      "ĠNav": 3141,
      "ĠNorth": 3142,
      "oose": 3143,
      "Ġhours": 3144,
      "akers": 3145,
      "Ġstand": 3146,
      "Ġstore": 3147,
      "ground": 3148,
      "rones": 3149,
      "ĠRecord": 3150,
      "Ġsecret": 3151,
      "ĠObama": 3152,
      "Ġsystems": 3153,
      "ĠSpaceX": 3154,
      "ĠDocument": 3155,
      "ĠDNS": 3156,
      "GPT": 3157,
      "ĠÂ": 3158,
      "inary": 3159,
      "esc": 3160,
      "acts": 3161,
      "ĠFood": 3162,
      "Ġinv": 3163,
      "etic": 3164,
      "ĠGra": 3165,
      "Ġmillion": 3166,
      "estro": 3167,
      "ĠVR": 3168,
      "ĠVulner": 3169,
      "ffects": 3170,
      "ients": 3171,
      "Ġrelease": 3172,
      "ĠCoronavirus": 3173,
      "offee": 3174,
      "ĠCustomer": 3175,
      "Ġcrypto": 3176,
      "EST": 3177,
      "ĠFBI": 3178,
      "AP": 3179,
      "Press": 3180,
      "oDB": 3181,
      "ĠMax": 3182,
      "ĠBuilt": 3183,
      "Ġbre": 3184,
      "Ġbooks": 3185,
      "oms": 3186,
      "ĠInformation": 3187,
      "2020": 3188,
      "ocol": 3189,
      "ĠAnother": 3190,
      "Ġequ": 3191,
      "ption": 3192,
      "achines": 3193,
      "Ġads": 3194,
      "ĠCommon": 3195,
      "Ġgetting": 3196,
      "Ġaround": 3197,
      "Ġrunning": 3198,
      "AI": 3199,
      "augh": 3200,
      "uation": 3201,
      "Ġtakes": 3202,
      "atives": 3203,
      "enue": 3204,
      "Ġfollow": 3205,
      "ĠWrong": 3206,
      "ĠDet": 3207,
      "ett": 3208,
      "eless": 3209,
      "ĠShare": 3210,
      "Ġrest": 3211,
      "ĠReally": 3212,
      "ĠHead": 3213,
      "ĠLooking": 3214,
      "ĠSnap": 3215,
      "opyright": 3216,
      "ĠJSON": 3217,
      "onymous": 3218,
      "ĠToday": 3219,
      "TC": 3220,
      "go": 3221,
      "uc": 3222,
      "erve": 3223,
      "ĠSing": 3224,
      "ĠSingle": 3225,
      "ĠCoding": 3226,
      "alf": 3227,
      "ster": 3228,
      "ĠPrivate": 3229,
      "ĠWrite": 3230,
      "Ġprivate": 3231,
      "ĠLove": 3232,
      "ĠLocal": 3233,
      "Ġmove": 3234,
      "ĠNvid": 3235,
      "amily": 3236,
      "ĠTheory": 3237,
      "change": 3238,
      "Ġname": 3239,
      "ĠVe": 3240,
      "uments": 3241,
      "ĠBegin": 3242,
      "apping": 3243,
      "ample": 3244,
      "Ġmodern": 3245,
      "ĠAnti": 3246,
      "ĠNvidia": 3247,
      "IM": 3248,
      "ailed": 3249,
      "come": 3250,
      "ĠAz": 3251,
      "ĠPa": 3252,
      "ĠBox": 3253,
      "Ġworth": 3254,
      "ĠGot": 3255,
      "Ġduring": 3256,
      "eline": 3257,
      "utral": 3258,
      "ĠStri": 3259,
      "agon": 3260,
      "Ġwhich": 3261,
      "ĠAds": 3262,
      "ĠQual": 3263,
      "ĠZero": 3264,
      "Ġpatent": 3265,
      "Ġelectric": 3266,
      "ĠÙħ": 3267,
      "ĠMozilla": 3268,
      "che": 3269,
      "iol": 3270,
      "ney": 3271,
      "itors": 3272,
      "ĠHad": 3273,
      "ĠPo": 3274,
      "ĠPri": 3275,
      "ĠFront": 3276,
      "ĠLay": 3277,
      "ĠNYC": 3278,
      "ume": 3279,
      "ubble": 3280,
      "Ġ2014": 3281,
      "Ġspeed": 3282,
      "Ġhead": 3283,
      "Ġworks": 3284,
      "ĠLearned": 3285,
      "Ġpract": 3286,
      "ĠStudio": 3287,
      "ĠImprove": 3288,
      "60": 3289,
      "TO": 3290,
      "ka": 3291,
      "lt": 3292,
      "ÙĨ": 3293,
      "ĠCook": 3294,
      "aling": 3295,
      "alle": 3296,
      "reme": 3297,
      "ĠMaps": 3298,
      "Ġcam": 3299,
      "Ġcars": 3300,
      "ades": 3301,
      "Ġlim": 3302,
      "Ġlove": 3303,
      "Ġref": 3304,
      "raine": 3305,
      "Ġrules": 3306,
      "ival": 3307,
      "echan": 3308,
      "Ġexp": 3309,
      "ientific": 3310,
      "Ġentreprene": 3311,
      "ĠAdvice": 3312,
      "ĠWikipedia": 3313,
      "where": 3314,
      "uckerberg": 3315,
      "cel": 3316,
      "gen": 3317,
      "ye": 3318,
      "ĠPan": 3319,
      "ĠMer": 3320,
      "omet": 3321,
      "Ġoffer": 3322,
      "ĠEvent": 3323,
      "ĠVersion": 3324,
      "ĠReasons": 3325,
      "Ġisn": 3326,
      "Ġplans": 3327,
      "rivers": 3328,
      "ieve": 3329,
      "anks": 3330,
      "Ġ2022": 3331,
      "Ġideas": 3332,
      "ĠGrowth": 3333,
      "ĠIdea": 3334,
      "oT": 3335,
      "ĠAug": 3336,
      "ĠTre": 3337,
      "ĠTouch": 3338,
      "ĠMc": 3339,
      "ĠRound": 3340,
      "ĠRules": 3341,
      "ĠGol": 3342,
      "ĠEqu": 3343,
      "iful": 3344,
      "Ġuses": 3345,
      "Ġchallen": 3346,
      "ĠZuckerberg": 3347,
      "ĠTechnical": 3348,
      "aptop": 3349,
      "Ġraises": 3350,
      "ĠFeature": 3351,
      "sych": 3352,
      "bon": 3353,
      "Ġfight": 3354,
      "ĠPir": 3355,
      "ĠMen": 3356,
      "ĠWater": 3357,
      "ĠDrive": 3358,
      "ĠLisp": 3359,
      "Ġmat": 3360,
      "utions": 3361,
      "otential": 3362,
      "Ġvirtual": 3363,
      "ĠConst": 3364,
      "Ġunivers": 3365,
      "Ġdep": 3366,
      "ĠNok": 3367,
      "ĠImprov": 3368,
      "ĠWordPress": 3369,
      "Ġmulti": 3370,
      "swer": 3371,
      "ĠAMD": 3372,
      "ĠCombinator": 3373,
      "25": 3374,
      "86": 3375,
      "ele": 3376,
      "ius": 3377,
      "ipping": 3378,
      "Ġtarget": 3379,
      "orst": 3380,
      "arison": 3381,
      "Ġaway": 3382,
      "ĠII": 3383,
      "Ġwomen": 3384,
      "ĠFake": 3385,
      "illed": 3386,
      "ecurity": 3387,
      "Ġ2010": 3388,
      "ronic": 3389,
      "ĠContin": 3390,
      "ĠFlash": 3391,
      "ĠEngineer": 3392,
      "ready": 3393,
      "ĠPolit": 3394,
      "Ġexperiment": 3395,
      "ĠAnnouncing": 3396,
      "ĠRevolution": 3397,
      "autiful": 3398,
      "Query": 3399,
      "ĠEnterprise": 3400,
      "DK": 3401,
      "Fl": 3402,
      "LI": 3403,
      "Wh": 3404,
      "comm": 3405,
      "rics": 3406,
      "ĠHis": 3407,
      "ĠMove": 3408,
      "ĠFile": 3409,
      "Ġbi": 3410,
      "Ġdifferent": 3411,
      "urch": 3412,
      "Ġlow": 3413,
      "ĠChrist": 3414,
      "Ġvulner": 3415,
      "ocks": 3416,
      "Ġshort": 3417,
      "Ġ24": 3418,
      "ĠPatent": 3419,
      "pected": 3420,
      "Ġeven": 3421,
      "Ġfounder": 3422,
      "idden": 3423,
      "Ġannounces": 3424,
      "ĠUkraine": 3425,
      "embly": 3426,
      "ĠNokia": 3427,
      "RL": 3428,
      "bab": 3429,
      "iation": 3430,
      "pir": 3431,
      "Ġx": 3432,
      "ĠAlex": 3433,
      "Ġfood": 3434,
      "ĠHu": 3435,
      "ĠHom": 3436,
      "ĠWire": 3437,
      "Ġshe": 3438,
      "Ġpopular": 3439,
      "ĠChar": 3440,
      "ĠThreat": 3441,
      "uster": 3442,
      "Ġ21": 3443,
      "ĠAdobe": 3444,
      "ashing": 3445,
      "Ġdeath": 3446,
      "ologies": 3447,
      "ances": 3448,
      "Ġprice": 3449,
      "ĠEngineers": 3450,
      "Ġmodels": 3451,
      "Ġreleases": 3452,
      "ĠGlass": 3453,
      "ĠGeneration": 3454,
      "ĠExperiment": 3455,
      "iety": 3456,
      "ĠFeatures": 3457,
      "ĠHyper": 3458,
      "PM": 3459,
      "ford": 3460,
      "power": 3461,
      "uk": 3462,
      "Ġearly": 3463,
      "ald": 3464,
      "Ġside": 3465,
      "Ġsolution": 3466,
      "ĠBot": 3467,
      "ĠFiles": 3468,
      "Ġbeta": 3469,
      "Ġgen": 3470,
      "ateg": 3471,
      "Ġ17": 3472,
      "Ġproblems": 3473,
      "ĠConference": 3474,
      "ensors": 3475,
      "covery": 3476,
      "jection": 3477,
      "ruction": 3478,
      "ĠBecome": 3479,
      "Ġanalysis": 3480,
      "Ġmemory": 3481,
      "Ġfeatures": 3482,
      "Ġreveals": 3483,
      "ĠEarly": 3484,
      "atellite": 3485,
      "15": 3486,
      "DF": 3487,
      "PR": 3488,
      "Pl": 3489,
      "so": 3490,
      "onse": 3491,
      "Ġter": 3492,
      "Ġdirect": 3493,
      "Ġmal": 3494,
      "Ġeas": 3495,
      "Ġ18": 3496,
      "ĠTrust": 3497,
      "ereum": 3498,
      "ĠUsed": 3499,
      "ĠInto": 3500,
      "ĠOfficial": 3501,
      "Ġtests": 3502,
      "Ġproducts": 3503,
      "ĠEvolution": 3504,
      "Ġimages": 3505,
      "ĠAcceler": 3506,
      "ĠChatGPT": 3507,
      "base": 3508,
      "xy": 3509,
      "Ġtable": 3510,
      "att": 3511,
      "ĠSun": 3512,
      "ĠSide": 3513,
      "ĠCrit": 3514,
      "ĠWants": 3515,
      "ĠIll": 3516,
      "Ġcle": 3517,
      "Ġcoding": 3518,
      "Ġwere": 3519,
      "Ġdes": 3520,
      "ĠLamb": 3521,
      "Ġhy": 3522,
      "through": 3523,
      "ĠContain": 3524,
      "Ġhackers": 3525,
      "Ġcommunity": 3526,
      "ographic": 3527,
      "brid": 3528,
      "ĠProgrammer": 3529,
      "riendly": 3530,
      "ĠVenture": 3531,
      "ĠAzure": 3532,
      "uys": 3533,
      "ont": 3534,
      "Ġtem": 3535,
      "itt": 3536,
      "itary": 3537,
      "ĠCars": 3538,
      "ĠDig": 3539,
      "ĠEss": 3540,
      "Ġlost": 3541,
      "Ġhit": 3542,
      "irc": 3543,
      "raud": 3544,
      "Ġthing": 3545,
      "ounter": 3546,
      "ĠShows": 3547,
      "ĠWhats": 3548,
      "Ġplace": 3549,
      "inking": 3550,
      "ĠIndian": 3551,
      "Ġquantum": 3552,
      "ĠAnyone": 3553,
      "ĠEuropean": 3554,
      "porate": 3555,
      "Ġcyber": 3556,
      "greSQL": 3557,
      "ĠSpotify": 3558,
      "14": 3559,
      "ball": 3560,
      "got": 3561,
      "hing": 3562,
      "ĠSal": 3563,
      "ĠPark": 3564,
      "ĠPush": 3565,
      "ĠPaper": 3566,
      "ĠMuch": 3567,
      "ĠDat": 3568,
      "Ġsn": 3569,
      "Ġsave": 3570,
      "ĠREST": 3571,
      "Ġboard": 3572,
      "ĠGive": 3573,
      "ĠGates": 3574,
      "ĠLanguages": 3575,
      "Ġmark": 3576,
      "ĠAnim": 3577,
      "istics": 3578,
      "ĠKids": 3579,
      "izer": 3580,
      "ĠScale": 3581,
      "ikely": 3582,
      "ĠPlans": 3583,
      "ĠBlue": 3584,
      "Ġtracking": 3585,
      "Ġworkers": 3586,
      "ological": 3587,
      "ĠSecond": 3588,
      "rict": 3589,
      "eeks": 3590,
      "ĠOrgan": 3591,
      "ĠEven": 3592,
      "Ġimm": 3593,
      "ĠPostgreSQL": 3594,
      "ĠRobots": 3595,
      "Ġimport": 3596,
      "ĠIncre": 3597,
      "Ġlooking": 3598,
      "ĠAlgorithms": 3599,
      "Ġreveal": 3600,
      "ĠEthereum": 3601,
      "Ġmonths": 3602,
      "Ġsuccessful": 3603,
      "cy": 3604,
      "ray": 3605,
      "script": 3606,
      "ufact": 3607,
      "ÙĪ": 3608,
      "atically": 3609,
      "ĠDes": 3610,
      "Ġoptim": 3611,
      "Ġmass": 3612,
      "ently": 3613,
      "iday": 3614,
      "amples": 3615,
      "osp": 3616,
      "Ġvers": 3617,
      "ĠKind": 3618,
      "ĠKick": 3619,
      "ĠTracking": 3620,
      "reads": 3621,
      "epend": 3622,
      "ĠStrategy": 3623,
      "Ġaddress": 3624,
      "Ġlaws": 3625,
      "ĠScala": 3626,
      "Ġstorage": 3627,
      "Ġfeature": 3628,
      "bedd": 3629,
      "ĠAfrica": 3630,
      "lines": 3631,
      "put": 3632,
      "Ġel": 3633,
      "ĠSO": 3634,
      "ĠSex": 3635,
      "ĠTow": 3636,
      "Ġfake": 3637,
      "Ġfirm": 3638,
      "ĠHP": 3639,
      "ĠMong": 3640,
      "Ġdi": 3641,
      "Ġdomain": 3642,
      "used": 3643,
      "thers": 3644,
      "Ġvideos": 3645,
      "ĠBeyond": 3646,
      "ĠImm": 3647,
      "Ġgoes": 3648,
      "Ġneeds": 3649,
      "ĠPolice": 3650,
      "ĠPatterns": 3651,
      "pression": 3652,
      "Ġeditor": 3653,
      "Ġprotect": 3654,
      "ĠIdeas": 3655,
      "ĠDNA": 3656,
      "ĠSurvey": 3657,
      "Ġtraffic": 3658,
      "ĠInnovation": 3659,
      "ĠGalaxy": 3660,
      "ĠLinkedIn": 3661,
      "GL": 3662,
      "PL": 3663,
      "ein": 3664,
      "ios": 3665,
      "esis": 3666,
      "ored": 3667,
      "ĠPers": 3668,
      "icing": 3669,
      "iling": 3670,
      "Ġdel": 3671,
      "ĠEC": 3672,
      "Ġmight": 3673,
      "ecraft": 3674,
      "pper": 3675,
      "adem": 3676,
      "ĠJournal": 3677,
      "plate": 3678,
      "Ġcharg": 3679,
      "ientist": 3680,
      "Ġscientists": 3681,
      "ĠMany": 3682,
      "ĠCommand": 3683,
      "Ġcrash": 3684,
      "Ġbiggest": 3685,
      "wards": 3686,
      "Ġmanager": 3687,
      "Ġextension": 3688,
      "ĠLatest": 3689,
      "Ġissues": 3690,
      "Ġquestions": 3691,
      "ĠChallenge": 3692,
      "ĠCanada": 3693,
      "22": 3694,
      "PG": 3695,
      "ww": 3696,
      "ĠTen": 3697,
      "ĠCell": 3698,
      "ĠCulture": 3699,
      "ĠPublish": 3700,
      "ĠMyth": 3701,
      "ĠWars": 3702,
      "ĠIoT": 3703,
      "Ġsale": 3704,
      "ĠBased": 3705,
      "ĠBattle": 3706,
      "isions": 3707,
      "ĠFaster": 3708,
      "Ġbillion": 3709,
      "Ġpredict": 3710,
      "ĠLarge": 3711,
      "ĠUX": 3712,
      "ector": 3713,
      "2010": 3714,
      "ugging": 3715,
      "ync": 3716,
      "ployee": 3717,
      "ĠDoesn": 3718,
      "ĠHardware": 3719,
      "ĠStorage": 3720,
      "ĠClean": 3721,
      "ĠBootst": 3722,
      "BSD": 3723,
      "IP": 3724,
      "eets": 3725,
      "Ġ=": 3726,
      "onents": 3727,
      "ĠTex": 3728,
      "ĠCredit": 3729,
      "ĠPip": 3730,
      "âĢĬ": 3731,
      "Ġbill": 3732,
      "ourcing": 3733,
      "Ġline": 3734,
      "Ġhad": 3735,
      "Ġhiring": 3736,
      "Ġgive": 3737,
      "ĠVideos": 3738,
      "abilities": 3739,
      "even": 3740,
      "ĠCongress": 3741,
      "ĠWebsites": 3742,
      "issions": 3743,
      "coming": 3744,
      "ĠSwitch": 3745,
      "ĠSurv": 3746,
      "ĠEdition": 3747,
      "Ġpolit": 3748,
      "onomous": 3749,
      "Ġcoronavirus": 3750,
      "ĠMovie": 3751,
      "Ġchanges": 3752,
      "ĠRaises": 3753,
      "ĠARM": 3754,
      "ĠDropbox": 3755,
      "99": 3756,
      "Pro": 3757,
      "ead": 3758,
      "key": 3759,
      "ãĥ": 3760,
      "ĠSem": 3761,
      "rem": 3762,
      "reens": 3763,
      "ĠPlease": 3764,
      "Ġage": 3765,
      "icense": 3766,
      "ĠMust": 3767,
      "ĠWal": 3768,
      "ĠIE": 3769,
      "ĠBug": 3770,
      "Ġways": 3771,
      "Ġinformation": 3772,
      "etch": 3773,
      "oos": 3774,
      "imer": 3775,
      "ĠProv": 3776,
      "aining": 3777,
      "izz": 3778,
      "Ġdoing": 3779,
      "aches": 3780,
      "Ġintelligence": 3781,
      "ifications": 3782,
      "Ġsecure": 3783,
      "Ġofficial": 3784,
      "2009": 3785,
      "Ġcommun": 3786,
      "ribution": 3787,
      "ĠFoundation": 3788,
      "ĠLaws": 3789,
      "ĠJapanese": 3790,
      "ĠEconomy": 3791,
      "ĠPresident": 3792,
      "Ġcustomers": 3793,
      "enefits": 3794,
      "ĠmacOS": 3795,
      "utrality": 3796,
      "16": 3797,
      "work": 3798,
      "ined": 3799,
      "ĠCod": 3800,
      "ĠHell": 3801,
      "ĠHiring": 3802,
      "ĠPopular": 3803,
      "ĠMail": 3804,
      "ĠMeta": 3805,
      "ĠIC": 3806,
      "ĠDI": 3807,
      "Ġsex": 3808,
      "Ġcity": 3809,
      "ĠBer": 3810,
      "ĠBan": 3811,
      "Ġwatch": 3812,
      "Ġmajor": 3813,
      "igation": 3814,
      "ĠUlt": 3815,
      "opt": 3816,
      "ĠVP": 3817,
      "ĠProgress": 3818,
      "grade": 3819,
      "ively": 3820,
      "ĠSpeech": 3821,
      "phones": 3822,
      "oku": 3823,
      "Ġphys": 3824,
      "ĠCrisis": 3825,
      "Ġfinds": 3826,
      "Ġcomputing": 3827,
      "Ġminutes": 3828,
      "Ġclaims": 3829,
      "allel": 3830,
      "hood": 3831,
      "ores": 3832,
      "ĠTravel": 3833,
      "Ġfocus": 3834,
      "ĠHumans": 3835,
      "ĠPodcast": 3836,
      "ĠDav": 3837,
      "ĠDomain": 3838,
      "Ġsell": 3839,
      "Ġsomething": 3840,
      "Ġwind": 3841,
      "Ġwater": 3842,
      "ĠFact": 3843,
      "ĠReb": 3844,
      "oming": 3845,
      "ĠNY": 3846,
      "ola": 3847,
      "pens": 3848,
      "ĠUnix": 3849,
      "ugg": 3850,
      "ĠFlight": 3851,
      "cont": 3852,
      "ĠStarted": 3853,
      "eliver": 3854,
      "ĠAvoid": 3855,
      "ĠUniversity": 3856,
      "ĠDistributed": 3857,
      "Ġdocument": 3858,
      "OL": 3859,
      "Ø¨": 3860,
      "onst": 3861,
      "Ġtips": 3862,
      "ories": 3863,
      "ĠSym": 3864,
      "enger": 3865,
      "Ġfriends": 3866,
      "Ġfavorite": 3867,
      "ĠMajor": 3868,
      "ĠDays": 3869,
      "Ġcome": 3870,
      "Ġwriting": 3871,
      "isition": 3872,
      "usp": 3873,
      "ĠJack": 3874,
      "istakes": 3875,
      "ĠProblems": 3876,
      "inder": 3877,
      "ishing": 3878,
      "ĠIndex": 3879,
      "Ġresults": 3880,
      "ibraries": 3881,
      "ĠCollege": 3882,
      "ĠEdge": 3883,
      "ĠDevOps": 3884,
      "Ġacross": 3885,
      "Ġmarketing": 3886,
      "ĠAngel": 3887,
      "ĠCenter": 3888,
      "ĠMagic": 3889,
      "ĠEnglish": 3890,
      "Ġswitch": 3891,
      "bnb": 3892,
      "17": 3893,
      "IC": 3894,
      "LS": 3895,
      "Tech": 3896,
      "US": 3897,
      "bs": 3898,
      "do": 3899,
      "Ø©": 3900,
      "Ø¯": 3901,
      "Ġtype": 3902,
      "atory": 3903,
      "ĠSell": 3904,
      "iti": 3905,
      "itable": 3906,
      "Ġcard": 3907,
      "Ġcrit": 3908,
      "ĠGreen": 3909,
      "ĠLetter": 3910,
      "asc": 3911,
      "ĠUr": 3912,
      "otion": 3913,
      "imin": 3914,
      "Ġlab": 3915,
      "Ġhot": 3916,
      "aged": 3917,
      "artment": 3918,
      "Ġkids": 3919,
      "Ġorgan": 3920,
      "Ġscreen": 3921,
      "ĠWorks": 3922,
      "Ġcontain": 3923,
      "Ġmean": 3924,
      "posed": 3925,
      "Ġstudents": 3926,
      "annel": 3927,
      "Ġadvice": 3928,
      "ĠTypeScript": 3929,
      "aire": 3930,
      "ban": 3931,
      "free": 3932,
      "pin": 3933,
      "side": 3934,
      "Ùħ": 3935,
      "itting": 3936,
      "rel": 3937,
      "ĠPal": 3938,
      "ĠMethod": 3939,
      "Ġcalls": 3940,
      "ĠLand": 3941,
      "ĠLittle": 3942,
      "entication": 3943,
      "ĠNight": 3944,
      "veils": 3945,
      "urance": 3946,
      "Ġlat": 3947,
      "Ġlay": 3948,
      "arts": 3949,
      "ĠRequest": 3950,
      "ĠAnonymous": 3951,
      "Ġchar": 3952,
      "Ġdeploy": 3953,
      "ĠMySQL": 3954,
      "ancing": 3955,
      "Ġ60": 3956,
      "Ġoffers": 3957,
      "ĠAirbnb": 3958,
      "Ġengineering": 3959,
      "Ġbring": 3960,
      "Ġpolice": 3961,
      "500": 3962,
      "Ex": 3963,
      "Up": 3964,
      "ding": 3965,
      "ks": 3966,
      "lang": 3967,
      "ining": 3968,
      "ĠPR": 3969,
      "ĠPut": 3970,
      "ĠDen": 3971,
      "ĠDom": 3972,
      "Ġsame": 3973,
      "Ġmag": 3974,
      "Ġmust": 3975,
      "ention": 3976,
      "ests": 3977,
      "Ġrequ": 3978,
      "aks": 3979,
      "ĠShut": 3980,
      "istant": 3981,
      "osition": 3982,
      "ĠConvers": 3983,
      "ĠClient": 3984,
      "Ġwhile": 3985,
      "Ġ500": 3986,
      "ĠResults": 3987,
      "pective": 3988,
      "asks": 3989,
      "Ġphotos": 3990,
      "havior": 3991,
      "EA": 3992,
      "FS": 3993,
      "OR": 3994,
      "tor": 3995,
      "ĠTarget": 3996,
      "ĠCash": 3997,
      "ĠMis": 3998,
      "ĠDiff": 3999
    },
    "merges": [
      [
        "i",
        "n"
      ],
      [
        "e",
        "r"
      ],
      [
        "o",
        "n"
      ],
      [
        "Ġ",
        "t"
      ],
      [
        "a",
        "n"
      ],
      [
        "e",
        "s"
      ],
      [
        "o",
        "r"
      ],
      [
        "a",
        "t"
      ],
      [
        "Ġ",
        "S"
      ],
      [
        "Ġ",
        "A"
      ],
      [
        "in",
        "g"
      ],
      [
        "e",
        "n"
      ],
      [
        "a",
        "r"
      ],
      [
        "i",
        "t"
      ],
      [
        "Ġ",
        "T"
      ],
      [
        "h",
        "e"
      ],
      [
        "Ġ",
        "C"
      ],
      [
        "a",
        "l"
      ],
      [
        "o",
        "u"
      ],
      [
        "s",
        "t"
      ],
      [
        "r",
        "e"
      ],
      [
        "Ġ",
        "f"
      ],
      [
        "Ġ",
        "H"
      ],
      [
        "l",
        "e"
      ],
      [
        "Ġ",
        "P"
      ],
      [
        "Ġ",
        "a"
      ],
      [
        "i",
        "c"
      ],
      [
        "Ġ",
        "M"
      ],
      [
        "r",
        "o"
      ],
      [
        "Ġ",
        "W"
      ],
      [
        "Ġ",
        "I"
      ],
      [
        "Ġt",
        "o"
      ],
      [
        "e",
        "d"
      ],
      [
        "Ġ",
        "D"
      ],
      [
        "Ġ",
        "s"
      ],
      [
        "Ġ",
        "c"
      ],
      [
        "Ġ",
        "B"
      ],
      [
        "Ġ",
        "w"
      ],
      [
        "Ġ",
        "o"
      ],
      [
        "i",
        "on"
      ],
      [
        "a",
        "c"
      ],
      [
        "o",
        "w"
      ],
      [
        "i",
        "s"
      ],
      [
        "Ġ",
        "F"
      ],
      [
        "Ġ",
        "R"
      ],
      [
        "Ġt",
        "he"
      ],
      [
        "Ġ",
        "in"
      ],
      [
        "â",
        "Ģ"
      ],
      [
        "an",
        "d"
      ],
      [
        "Ġ",
        "b"
      ],
      [
        "Ġ",
        "p"
      ],
      [
        "e",
        "t"
      ],
      [
        "o",
        "m"
      ],
      [
        "Ġ",
        "G"
      ],
      [
        "Ġo",
        "f"
      ],
      [
        "i",
        "l"
      ],
      [
        "Ġ",
        "d"
      ],
      [
        "Ġ",
        "L"
      ],
      [
        "Ġ",
        "E"
      ],
      [
        "Ġ",
        "m"
      ],
      [
        "en",
        "t"
      ],
      [
        "e",
        "c"
      ],
      [
        "e",
        "l"
      ],
      [
        "a",
        "s"
      ],
      [
        "Ġf",
        "or"
      ],
      [
        "Ġ",
        "N"
      ],
      [
        "Ġ",
        "and"
      ],
      [
        "o",
        "o"
      ],
      [
        "i",
        "d"
      ],
      [
        "er",
        "s"
      ],
      [
        "a",
        "m"
      ],
      [
        "Ġ",
        "O"
      ],
      [
        "i",
        "g"
      ],
      [
        "ĠT",
        "he"
      ],
      [
        "u",
        "t"
      ],
      [
        "v",
        "e"
      ],
      [
        "Ġ",
        "U"
      ],
      [
        "o",
        "l"
      ],
      [
        "u",
        "s"
      ],
      [
        "o",
        "t"
      ],
      [
        "p",
        "p"
      ],
      [
        "ou",
        "r"
      ],
      [
        "t",
        "er"
      ],
      [
        "ĠI",
        "n"
      ],
      [
        "u",
        "r"
      ],
      [
        "it",
        "h"
      ],
      [
        "a",
        "d"
      ],
      [
        "Ġ",
        "âĢ"
      ],
      [
        "i",
        "m"
      ],
      [
        "a",
        "y"
      ],
      [
        "c",
        "h"
      ],
      [
        "ĠH",
        "N"
      ],
      [
        "at",
        "ion"
      ],
      [
        "Ġ",
        "on"
      ],
      [
        "ĠS",
        "t"
      ],
      [
        "ĠW",
        "h"
      ],
      [
        "Ġ",
        "l"
      ],
      [
        "u",
        "n"
      ],
      [
        "Ġ",
        "h"
      ],
      [
        "e",
        "w"
      ],
      [
        "Ġ",
        "n"
      ],
      [
        "i",
        "r"
      ],
      [
        "a",
        "g"
      ],
      [
        "Ġ",
        "y"
      ],
      [
        "c",
        "e"
      ],
      [
        "es",
        "t"
      ],
      [
        "Ġw",
        "ith"
      ],
      [
        "es",
        "s"
      ],
      [
        "e",
        "m"
      ],
      [
        "âĢ",
        "Ļ"
      ],
      [
        "r",
        "i"
      ],
      [
        "o",
        "p"
      ],
      [
        "Ġ",
        "g"
      ],
      [
        "ar",
        "t"
      ],
      [
        "v",
        "er"
      ],
      [
        "Ġ",
        "("
      ],
      [
        "u",
        "l"
      ],
      [
        "Ġ",
        "re"
      ],
      [
        "2",
        "0"
      ],
      [
        "ac",
        "k"
      ],
      [
        "e",
        "b"
      ],
      [
        "a",
        "k"
      ],
      [
        "o",
        "d"
      ],
      [
        "'",
        "s"
      ],
      [
        "Ġ",
        "V"
      ],
      [
        "r",
        "a"
      ],
      [
        "ĠH",
        "ow"
      ],
      [
        "ĠS",
        "h"
      ],
      [
        "Ġ",
        "Y"
      ],
      [
        "ĠâĢ",
        "ĵ"
      ],
      [
        "o",
        "c"
      ],
      [
        "e",
        "ar"
      ],
      [
        "ĠA",
        "s"
      ],
      [
        "a",
        "b"
      ],
      [
        "Ġ",
        "J"
      ],
      [
        "ĠR",
        "e"
      ],
      [
        "Ġ",
        "st"
      ],
      [
        "u",
        "p"
      ],
      [
        "c",
        "t"
      ],
      [
        "l",
        "y"
      ],
      [
        "ĠA",
        "n"
      ],
      [
        "t",
        "h"
      ],
      [
        "ar",
        "e"
      ],
      [
        "t",
        "s"
      ],
      [
        "ro",
        "m"
      ],
      [
        "Ġ",
        "e"
      ],
      [
        "it",
        "y"
      ],
      [
        "at",
        "e"
      ],
      [
        "Ġ",
        "is"
      ],
      [
        "u",
        "m"
      ],
      [
        "i",
        "st"
      ],
      [
        "ĠAs",
        "k"
      ],
      [
        "i",
        "f"
      ],
      [
        "il",
        "l"
      ],
      [
        "l",
        "d"
      ],
      [
        "o",
        "s"
      ],
      [
        "Ġt",
        "h"
      ],
      [
        "om",
        "p"
      ],
      [
        "in",
        "e"
      ],
      [
        "ĠP",
        "ro"
      ],
      [
        "i",
        "ve"
      ],
      [
        "p",
        "t"
      ],
      [
        "Ġ",
        "1"
      ],
      [
        "ĠC",
        "h"
      ],
      [
        "Ġ",
        "v"
      ],
      [
        "oo",
        "k"
      ],
      [
        "or",
        "k"
      ],
      [
        "ec",
        "t"
      ],
      [
        "id",
        "e"
      ],
      [
        "ĠT",
        "h"
      ],
      [
        "Ġ",
        "K"
      ],
      [
        "u",
        "b"
      ],
      [
        "ou",
        "n"
      ],
      [
        "ou",
        "t"
      ],
      [
        "ig",
        "h"
      ],
      [
        "o",
        "g"
      ],
      [
        "ĠA",
        "pp"
      ],
      [
        "Ġ",
        "an"
      ],
      [
        "a",
        "p"
      ],
      [
        "u",
        "re"
      ],
      [
        "Ġp",
        "ro"
      ],
      [
        "Ġ",
        "r"
      ],
      [
        "ĠSh",
        "ow"
      ],
      [
        "e",
        "v"
      ],
      [
        "m",
        "ent"
      ],
      [
        "ĠI",
        "s"
      ],
      [
        "20",
        "1"
      ],
      [
        "u",
        "st"
      ],
      [
        "o",
        "b"
      ],
      [
        "i",
        "es"
      ],
      [
        "al",
        "l"
      ],
      [
        "on",
        "e"
      ],
      [
        "ĠG",
        "oo"
      ],
      [
        "p",
        "l"
      ],
      [
        "an",
        "g"
      ],
      [
        "Ġf",
        "rom"
      ],
      [
        "ĠWh",
        "at"
      ],
      [
        "or",
        "e"
      ],
      [
        "a",
        "in"
      ],
      [
        "i",
        "a"
      ],
      [
        "g",
        "le"
      ],
      [
        "i",
        "al"
      ],
      [
        "a",
        "v"
      ],
      [
        "ag",
        "e"
      ],
      [
        "Ġy",
        "ou"
      ],
      [
        "en",
        "d"
      ],
      [
        "Ġy",
        "our"
      ],
      [
        "o",
        "st"
      ],
      [
        "o",
        "f"
      ],
      [
        "a",
        "st"
      ],
      [
        "ĠGoo",
        "gle"
      ],
      [
        "in",
        "d"
      ],
      [
        "ar",
        "d"
      ],
      [
        "q",
        "u"
      ],
      [
        "ĠC",
        "on"
      ],
      [
        "ĠN",
        "ew"
      ],
      [
        "g",
        "r"
      ],
      [
        "i",
        "v"
      ],
      [
        "ec",
        "h"
      ],
      [
        "or",
        "t"
      ],
      [
        "i",
        "p"
      ],
      [
        "ĠWh",
        "y"
      ],
      [
        "a",
        "il"
      ],
      [
        "el",
        "l"
      ],
      [
        "e",
        "e"
      ],
      [
        "Ġ",
        "us"
      ],
      [
        "r",
        "y"
      ],
      [
        "Ġ",
        "at"
      ],
      [
        "i",
        "z"
      ],
      [
        "an",
        "t"
      ],
      [
        "ac",
        "t"
      ],
      [
        "ig",
        "n"
      ],
      [
        "ĠE",
        "n"
      ],
      [
        "f",
        "f"
      ],
      [
        "ic",
        "e"
      ],
      [
        "ĠE",
        "x"
      ],
      [
        "s",
        "e"
      ],
      [
        "Ġb",
        "e"
      ],
      [
        "igh",
        "t"
      ],
      [
        "Ġ",
        "it"
      ],
      [
        "Ġ",
        "-"
      ],
      [
        "ou",
        "ld"
      ],
      [
        "or",
        "m"
      ],
      [
        "it",
        "e"
      ],
      [
        "Ġb",
        "y"
      ],
      [
        "an",
        "s"
      ],
      [
        "ĠS",
        "p"
      ],
      [
        "oc",
        "k"
      ],
      [
        "at",
        "a"
      ],
      [
        "d",
        "u"
      ],
      [
        "p",
        "en"
      ],
      [
        "of",
        "t"
      ],
      [
        "ab",
        "le"
      ],
      [
        "ĠC",
        "omp"
      ],
      [
        "ar",
        "k"
      ],
      [
        "ĠS",
        "c"
      ],
      [
        "e",
        "x"
      ],
      [
        "Ġc",
        "on"
      ],
      [
        "u",
        "il"
      ],
      [
        "ĠO",
        "n"
      ],
      [
        "Ġa",
        "s"
      ],
      [
        "ion",
        "s"
      ],
      [
        "0",
        "0"
      ],
      [
        "od",
        "e"
      ],
      [
        "ĠU",
        "n"
      ],
      [
        "ĠC",
        "l"
      ],
      [
        "ak",
        "e"
      ],
      [
        "Ġw",
        "h"
      ],
      [
        "u",
        "d"
      ],
      [
        "i",
        "le"
      ],
      [
        "en",
        "ce"
      ],
      [
        "i",
        "k"
      ],
      [
        "o",
        "v"
      ],
      [
        "ev",
        "el"
      ],
      [
        "ĠB",
        "e"
      ],
      [
        "Ġe",
        "x"
      ],
      [
        "ac",
        "e"
      ],
      [
        "i",
        "re"
      ],
      [
        "om",
        "e"
      ],
      [
        "Ġs",
        "h"
      ],
      [
        "ĠT",
        "r"
      ],
      [
        "as",
        "s"
      ],
      [
        "n",
        "ing"
      ],
      [
        "i",
        "b"
      ],
      [
        "Ġ",
        "["
      ],
      [
        "or",
        "d"
      ],
      [
        "ter",
        "n"
      ],
      [
        "art",
        "up"
      ],
      [
        "oun",
        "d"
      ],
      [
        "evel",
        "op"
      ],
      [
        "re",
        "e"
      ],
      [
        "ĠA",
        "m"
      ],
      [
        "er",
        "e"
      ],
      [
        "Ġd",
        "o"
      ],
      [
        "Ġ",
        "le"
      ],
      [
        "ĠA",
        "l"
      ],
      [
        "Ġ",
        "2"
      ],
      [
        "Ġa",
        "pp"
      ],
      [
        "ĠW",
        "eb"
      ],
      [
        "Ġ",
        "$"
      ],
      [
        "p",
        "h"
      ],
      [
        "ac",
        "h"
      ],
      [
        "Ġc",
        "h"
      ],
      [
        "Ġ",
        "3"
      ],
      [
        "ĠY",
        "ou"
      ],
      [
        "g",
        "e"
      ],
      [
        "p",
        "er"
      ],
      [
        "Ġc",
        "omp"
      ],
      [
        "a",
        "ve"
      ],
      [
        "w",
        "are"
      ],
      [
        "ic",
        "s"
      ],
      [
        "Ġn",
        "ew"
      ],
      [
        "im",
        "e"
      ],
      [
        "ic",
        "al"
      ],
      [
        "Ġ",
        "i"
      ],
      [
        "re",
        "at"
      ],
      [
        "Ġ",
        "are"
      ],
      [
        "ĠY",
        "our"
      ],
      [
        "as",
        "e"
      ],
      [
        "gr",
        "am"
      ],
      [
        "e",
        "ed"
      ],
      [
        "i",
        "ew"
      ],
      [
        "b",
        "out"
      ],
      [
        "c",
        "c"
      ],
      [
        "uil",
        "d"
      ],
      [
        "ĠP",
        "l"
      ],
      [
        "u",
        "g"
      ],
      [
        "f",
        "orm"
      ],
      [
        "or",
        "y"
      ],
      [
        "am",
        "e"
      ],
      [
        "b",
        "er"
      ],
      [
        "om",
        "m"
      ],
      [
        "an",
        "ce"
      ],
      [
        "en",
        "s"
      ],
      [
        "Ġ",
        "k"
      ],
      [
        "ĠA",
        "r"
      ],
      [
        "ĠApp",
        "le"
      ],
      [
        "ĠU",
        "s"
      ],
      [
        "ow",
        "n"
      ],
      [
        "ear",
        "ch"
      ],
      [
        "er",
        "v"
      ],
      [
        "ĠA",
        "d"
      ],
      [
        "or",
        "ld"
      ],
      [
        "Ġ",
        "201"
      ],
      [
        "y",
        "st"
      ],
      [
        "eb",
        "ook"
      ],
      [
        "ro",
        "s"
      ],
      [
        "u",
        "al"
      ],
      [
        "ĠF",
        "ac"
      ],
      [
        "ro",
        "w"
      ],
      [
        "es",
        "ign"
      ],
      [
        "Ġp",
        "l"
      ],
      [
        "Ġ",
        "Q"
      ],
      [
        "ĠB",
        "l"
      ],
      [
        "ou",
        "s"
      ],
      [
        "t",
        "ing"
      ],
      [
        "âĢ",
        "Ŀ"
      ],
      [
        "ĠâĢ",
        "ľ"
      ],
      [
        "Ġ",
        "'"
      ],
      [
        "ide",
        "o"
      ],
      [
        "ĠIn",
        "t"
      ],
      [
        "ay",
        "s"
      ],
      [
        "c",
        "o"
      ],
      [
        "or",
        "s"
      ],
      [
        "ĠT",
        "w"
      ],
      [
        "en",
        "c"
      ],
      [
        "ar",
        "y"
      ],
      [
        "Ġ",
        "j"
      ],
      [
        "ic",
        "k"
      ],
      [
        "ation",
        "s"
      ],
      [
        "c",
        "ri"
      ],
      [
        "in",
        "k"
      ],
      [
        "r",
        "on"
      ],
      [
        "Ġth",
        "at"
      ],
      [
        "du",
        "ct"
      ],
      [
        "ri",
        "v"
      ],
      [
        "Ġc",
        "l"
      ],
      [
        "ĠC",
        "an"
      ],
      [
        "ĠFac",
        "ebook"
      ],
      [
        "p",
        "r"
      ],
      [
        "y",
        "th"
      ],
      [
        "ĠD",
        "e"
      ],
      [
        "u",
        "e"
      ],
      [
        "v",
        "iew"
      ],
      [
        "Ġin",
        "t"
      ],
      [
        "ir",
        "st"
      ],
      [
        "ĠD",
        "o"
      ],
      [
        "Ġ",
        "un"
      ],
      [
        "Ġs",
        "p"
      ],
      [
        "as",
        "ed"
      ],
      [
        "ĠO",
        "pen"
      ],
      [
        "ĠT",
        "ech"
      ],
      [
        "ĠP",
        "r"
      ],
      [
        "et",
        "s"
      ],
      [
        "i",
        "ent"
      ],
      [
        "im",
        "p"
      ],
      [
        "i",
        "an"
      ],
      [
        "Ġ",
        "or"
      ],
      [
        "ĠAn",
        "d"
      ],
      [
        "Ġt",
        "r"
      ],
      [
        "a",
        "z"
      ],
      [
        "i",
        "x"
      ],
      [
        "y",
        "s"
      ],
      [
        "ex",
        "t"
      ],
      [
        "ul",
        "t"
      ],
      [
        "ik",
        "e"
      ],
      [
        "Ġ",
        "5"
      ],
      [
        "cri",
        "pt"
      ],
      [
        "ĠM",
        "ic"
      ],
      [
        "Ġs",
        "c"
      ],
      [
        "Ġ",
        "he"
      ],
      [
        "gram",
        "m"
      ],
      [
        "ĠT",
        "o"
      ],
      [
        "yst",
        "em"
      ],
      [
        "ĠI",
        "m"
      ],
      [
        "l",
        "ine"
      ],
      [
        "our",
        "ce"
      ],
      [
        "ĠI",
        "t"
      ],
      [
        "l",
        "ic"
      ],
      [
        "oft",
        "ware"
      ],
      [
        "Ġn",
        "ot"
      ],
      [
        "as",
        "h"
      ],
      [
        "g",
        "h"
      ],
      [
        "Ġc",
        "an"
      ],
      [
        "'",
        "t"
      ],
      [
        "ĠA",
        "re"
      ],
      [
        "c",
        "k"
      ],
      [
        "oo",
        "l"
      ],
      [
        "j",
        "ect"
      ],
      [
        "at",
        "h"
      ],
      [
        "p",
        "d"
      ],
      [
        "Ġ",
        "20"
      ],
      [
        "h",
        "one"
      ],
      [
        "on",
        "s"
      ],
      [
        "ow",
        "s"
      ],
      [
        "Ġw",
        "eb"
      ],
      [
        "in",
        "ess"
      ],
      [
        "Ġd",
        "e"
      ],
      [
        "le",
        "ct"
      ],
      [
        "ĠD",
        "ata"
      ],
      [
        "ĠF",
        "or"
      ],
      [
        "et",
        "w"
      ],
      [
        "b",
        "le"
      ],
      [
        "ou",
        "gh"
      ],
      [
        "ĠL",
        "e"
      ],
      [
        "Ġa",
        "d"
      ],
      [
        "at",
        "ed"
      ],
      [
        "r",
        "it"
      ],
      [
        "i",
        "o"
      ],
      [
        "i",
        "e"
      ],
      [
        "Ġ",
        "up"
      ],
      [
        "ĠJ",
        "av"
      ],
      [
        "a",
        "w"
      ],
      [
        "g",
        "ine"
      ],
      [
        "ĠW",
        "e"
      ],
      [
        "oo",
        "d"
      ],
      [
        "ĠM",
        "an"
      ],
      [
        "ing",
        "s"
      ],
      [
        "ĠN",
        "ot"
      ],
      [
        "o",
        "x"
      ],
      [
        "Ġw",
        "ork"
      ],
      [
        "Ġa",
        "bout"
      ],
      [
        "d",
        "er"
      ],
      [
        "ĠR",
        "es"
      ],
      [
        "en",
        "er"
      ],
      [
        "ĠSt",
        "artup"
      ],
      [
        "ol",
        "og"
      ],
      [
        "ĠG",
        "o"
      ],
      [
        "at",
        "ing"
      ],
      [
        "p",
        "e"
      ],
      [
        "a",
        "un"
      ],
      [
        "us",
        "iness"
      ],
      [
        "ĠU",
        "S"
      ],
      [
        "ĠL",
        "ear"
      ],
      [
        "ĠJav",
        "a"
      ],
      [
        "e",
        "y"
      ],
      [
        "ĠS",
        "ec"
      ],
      [
        "ow",
        "er"
      ],
      [
        "is",
        "h"
      ],
      [
        "er",
        "n"
      ],
      [
        "ic",
        "es"
      ],
      [
        "Ġ",
        "4"
      ],
      [
        "ĠQ",
        "u"
      ],
      [
        "ĠA",
        "I"
      ],
      [
        "ĠD",
        "evelop"
      ],
      [
        "ad",
        "e"
      ],
      [
        "o",
        "y"
      ],
      [
        "ou",
        "d"
      ],
      [
        "ĠCh",
        "in"
      ],
      [
        "an",
        "y"
      ],
      [
        "f",
        "er"
      ],
      [
        "ol",
        "l"
      ],
      [
        "ĠE",
        "m"
      ],
      [
        "tern",
        "et"
      ],
      [
        "p",
        "s"
      ],
      [
        "O",
        "S"
      ],
      [
        "ĠB",
        "uild"
      ],
      [
        "is",
        "e"
      ],
      [
        "Ġi",
        "P"
      ],
      [
        "it",
        "ter"
      ],
      [
        "Ġ",
        "Z"
      ],
      [
        "on",
        "g"
      ],
      [
        "Ġd",
        "ata"
      ],
      [
        "ĠMic",
        "ros"
      ],
      [
        "ent",
        "s"
      ],
      [
        "ĠâĢ",
        "ĺ"
      ],
      [
        "ĠW",
        "ork"
      ],
      [
        "ĠIn",
        "d"
      ],
      [
        "ĠH",
        "ack"
      ],
      [
        "u",
        "x"
      ],
      [
        "ver",
        "y"
      ],
      [
        "ak",
        "ing"
      ],
      [
        "Ġs",
        "u"
      ],
      [
        "ra",
        "in"
      ],
      [
        "ry",
        "pt"
      ],
      [
        "Ġint",
        "o"
      ],
      [
        "ra",
        "ph"
      ],
      [
        "a",
        "pp"
      ],
      [
        "ĠP",
        "h"
      ],
      [
        "at",
        "ive"
      ],
      [
        "i",
        "ence"
      ],
      [
        "ro",
        "id"
      ],
      [
        "ĠD",
        "is"
      ],
      [
        "ĠCon",
        "t"
      ],
      [
        "ar",
        "s"
      ],
      [
        "an",
        "k"
      ],
      [
        "at",
        "es"
      ],
      [
        "ĠM",
        "y"
      ],
      [
        "ĠF",
        "l"
      ],
      [
        "e",
        "op"
      ],
      [
        "at",
        "ch"
      ],
      [
        "Ġ",
        "em"
      ],
      [
        "a",
        "x"
      ],
      [
        "ĠTw",
        "itter"
      ],
      [
        "S",
        "cript"
      ],
      [
        "Ġo",
        "ver"
      ],
      [
        "Ġ",
        "al"
      ],
      [
        "etw",
        "ork"
      ],
      [
        "p",
        "ort"
      ],
      [
        "it",
        "al"
      ],
      [
        "ur",
        "ity"
      ],
      [
        "yth",
        "on"
      ],
      [
        "aun",
        "ch"
      ],
      [
        "l",
        "l"
      ],
      [
        "ang",
        "u"
      ],
      [
        "P",
        "I"
      ],
      [
        "r",
        "am"
      ],
      [
        "Ġ",
        "en"
      ],
      [
        "n",
        "ow"
      ],
      [
        "eop",
        "le"
      ],
      [
        "ĠMicros",
        "oft"
      ],
      [
        "oc",
        "ial"
      ],
      [
        "it",
        "ion"
      ],
      [
        "ĠW",
        "orld"
      ],
      [
        "Ġw",
        "e"
      ],
      [
        "Ġd",
        "evelop"
      ],
      [
        "f",
        "ter"
      ],
      [
        "pd",
        "f"
      ],
      [
        "r",
        "ic"
      ],
      [
        "if",
        "e"
      ],
      [
        "on",
        "d"
      ],
      [
        "an",
        "c"
      ],
      [
        "ut",
        "ion"
      ],
      [
        "ĠD",
        "esign"
      ],
      [
        "r",
        "u"
      ],
      [
        "it",
        "s"
      ],
      [
        "Ġr",
        "es"
      ],
      [
        "ark",
        "et"
      ],
      [
        "gramm",
        "ing"
      ],
      [
        "ĠAm",
        "az"
      ],
      [
        "at",
        "or"
      ],
      [
        "y",
        "n"
      ],
      [
        "in",
        "t"
      ],
      [
        "ĠAnd",
        "roid"
      ],
      [
        "l",
        "es"
      ],
      [
        "Ġt",
        "ech"
      ],
      [
        "ĠS",
        "u"
      ],
      [
        "ob",
        "ile"
      ],
      [
        "ee",
        "k"
      ],
      [
        "un",
        "d"
      ],
      [
        "Ġst",
        "artup"
      ],
      [
        "Ġ",
        "X"
      ],
      [
        "if",
        "ic"
      ],
      [
        "Ġb",
        "l"
      ],
      [
        "f",
        "l"
      ],
      [
        "Ġ",
        "out"
      ],
      [
        "ee",
        "p"
      ],
      [
        "m",
        "s"
      ],
      [
        "Ġcon",
        "t"
      ],
      [
        "ol",
        "d"
      ],
      [
        "ĠL",
        "in"
      ],
      [
        "ag",
        "es"
      ],
      [
        "ac",
        "y"
      ],
      [
        "is",
        "s"
      ],
      [
        "al",
        "e"
      ],
      [
        "c",
        "om"
      ],
      [
        "ĠM",
        "e"
      ],
      [
        "1",
        "9"
      ],
      [
        "Ġ1",
        "0"
      ],
      [
        "et",
        "ter"
      ],
      [
        "Ġp",
        "r"
      ],
      [
        "ĠIn",
        "ternet"
      ],
      [
        "ĠAmaz",
        "on"
      ],
      [
        "ur",
        "es"
      ],
      [
        "al",
        "s"
      ],
      [
        "ĠIn",
        "ter"
      ],
      [
        "re",
        "d"
      ],
      [
        "ist",
        "s"
      ],
      [
        "Ġv",
        "s"
      ],
      [
        "el",
        "f"
      ],
      [
        "cc",
        "ess"
      ],
      [
        "ear",
        "s"
      ],
      [
        "ĠA",
        "PI"
      ],
      [
        "en",
        "e"
      ],
      [
        "ak",
        "es"
      ],
      [
        "Ġw",
        "ill"
      ],
      [
        "ĠG",
        "et"
      ],
      [
        "ĠP",
        "ython"
      ],
      [
        "ar",
        "g"
      ],
      [
        "ĠF",
        "ree"
      ],
      [
        "Ġus",
        "ing"
      ],
      [
        "ĠW",
        "ind"
      ],
      [
        "ĠN",
        "o"
      ],
      [
        "f",
        "ul"
      ],
      [
        "Ġ",
        "qu"
      ],
      [
        "Ġo",
        "pen"
      ],
      [
        "ĠB",
        "it"
      ],
      [
        "ĠR",
        "ec"
      ],
      [
        "ut",
        "ure"
      ],
      [
        "ĠM",
        "od"
      ],
      [
        "Ġit",
        "s"
      ],
      [
        "Ġm",
        "y"
      ],
      [
        "ur",
        "n"
      ],
      [
        "Ġus",
        "e"
      ],
      [
        "ang",
        "e"
      ],
      [
        "Ġ",
        "all"
      ],
      [
        "Ġh",
        "as"
      ],
      [
        "Ġh",
        "ave"
      ],
      [
        "ĠRe",
        "al"
      ],
      [
        "il",
        "ity"
      ],
      [
        "ĠChin",
        "a"
      ],
      [
        "er",
        "m"
      ],
      [
        "ĠC",
        "omm"
      ],
      [
        "ĠComp",
        "ut"
      ],
      [
        "ĠO",
        "r"
      ],
      [
        "Ġs",
        "ec"
      ],
      [
        "Ġd",
        "is"
      ],
      [
        "ĠT",
        "e"
      ],
      [
        "le",
        "t"
      ],
      [
        "Ġm",
        "e"
      ],
      [
        "ĠN",
        "e"
      ],
      [
        "ĠG",
        "u"
      ],
      [
        "imp",
        "le"
      ],
      [
        "le",
        "d"
      ],
      [
        "ĠW",
        "ith"
      ],
      [
        "olog",
        "y"
      ],
      [
        "ĠUs",
        "ing"
      ],
      [
        "ĠA",
        "ut"
      ],
      [
        "er",
        "ic"
      ],
      [
        "Ġm",
        "ore"
      ],
      [
        "oun",
        "t"
      ],
      [
        "ĠG",
        "it"
      ],
      [
        "Ġn",
        "ow"
      ],
      [
        "ĠH",
        "e"
      ],
      [
        "ĠO",
        "ff"
      ],
      [
        "ĠA",
        "t"
      ],
      [
        "Ġ",
        "\""
      ],
      [
        "Ġle",
        "ar"
      ],
      [
        "w",
        "n"
      ],
      [
        "Ġ",
        "7"
      ],
      [
        "Ġa",
        "g"
      ],
      [
        "ĠS",
        "m"
      ],
      [
        "ĠJava",
        "Script"
      ],
      [
        "enc",
        "y"
      ],
      [
        "ĠLin",
        "ux"
      ],
      [
        "in",
        "s"
      ],
      [
        "al",
        "k"
      ],
      [
        "ic",
        "t"
      ],
      [
        "ĠWind",
        "ows"
      ],
      [
        "Ġ",
        "ro"
      ],
      [
        "ed",
        "ia"
      ],
      [
        "re",
        "am"
      ],
      [
        "ĠTh",
        "at"
      ],
      [
        "angu",
        "age"
      ],
      [
        "Ġg",
        "et"
      ],
      [
        "j",
        "s"
      ],
      [
        "el",
        "s"
      ],
      [
        "ĠS",
        "oftware"
      ],
      [
        "o",
        "ad"
      ],
      [
        "ct",
        "ion"
      ],
      [
        "ĠAm",
        "eric"
      ],
      [
        "Ġg",
        "o"
      ],
      [
        "n",
        "er"
      ],
      [
        "ĠV",
        "al"
      ],
      [
        "em",
        "ent"
      ],
      [
        "et",
        "h"
      ],
      [
        "v",
        "est"
      ],
      [
        "Ġf",
        "irst"
      ],
      [
        "Ġh",
        "ow"
      ],
      [
        "erv",
        "ice"
      ],
      [
        "c",
        "es"
      ],
      [
        "ĠO",
        "ut"
      ],
      [
        "v",
        "ent"
      ],
      [
        "Ġ",
        "6"
      ],
      [
        "ail",
        "s"
      ],
      [
        "e",
        "at"
      ],
      [
        "ĠC",
        "ode"
      ],
      [
        "Ġof",
        "f"
      ],
      [
        ".",
        "."
      ],
      [
        "o",
        "ard"
      ],
      [
        "ic",
        "h"
      ],
      [
        "ĠW",
        "ill"
      ],
      [
        "ĠS",
        "w"
      ],
      [
        "Ġm",
        "an"
      ],
      [
        "ĠCl",
        "oud"
      ],
      [
        "ĠF",
        "irst"
      ],
      [
        "v",
        "ideo"
      ],
      [
        "at",
        "form"
      ],
      [
        "Ġre",
        "c"
      ],
      [
        "ĠR",
        "ed"
      ],
      [
        "ĠOn",
        "e"
      ],
      [
        "am",
        "es"
      ],
      [
        "ĠEn",
        "gine"
      ],
      [
        "he",
        "d"
      ],
      [
        "ment",
        "s"
      ],
      [
        "ĠLear",
        "ning"
      ],
      [
        "Ġb",
        "uild"
      ],
      [
        "ĠU",
        "p"
      ],
      [
        "co",
        "in"
      ],
      [
        "ĠA",
        "g"
      ],
      [
        "ĠM",
        "us"
      ],
      [
        "ach",
        "ine"
      ],
      [
        "pl",
        "oy"
      ],
      [
        "us",
        "s"
      ],
      [
        "ĠiP",
        "hone"
      ],
      [
        "c",
        "on"
      ],
      [
        "pp",
        "ort"
      ],
      [
        "in",
        "es"
      ],
      [
        "am",
        "p"
      ],
      [
        "ip",
        "s"
      ],
      [
        "c",
        "l"
      ],
      [
        "al",
        "ly"
      ],
      [
        "o",
        "ve"
      ],
      [
        "ĠP",
        "art"
      ],
      [
        "ĠAl",
        "l"
      ],
      [
        "er",
        "ing"
      ],
      [
        "ĠB",
        "usiness"
      ],
      [
        "Ġ",
        "8"
      ],
      [
        "or",
        "n"
      ],
      [
        "Ġw",
        "orld"
      ],
      [
        "E",
        "O"
      ],
      [
        "ĠA",
        "bout"
      ],
      [
        "ĠH",
        "T"
      ],
      [
        "ec",
        "ts"
      ],
      [
        "f",
        "t"
      ],
      [
        "ĠP",
        "er"
      ],
      [
        "ĠB",
        "ig"
      ],
      [
        "o",
        "k"
      ],
      [
        "ol",
        "ution"
      ],
      [
        "ĠSt",
        "e"
      ],
      [
        "S",
        "S"
      ],
      [
        "ĠM",
        "on"
      ],
      [
        "is",
        "m"
      ],
      [
        "ill",
        "ion"
      ],
      [
        "ĠB",
        "est"
      ],
      [
        "ul",
        "ar"
      ],
      [
        "ĠC",
        "om"
      ],
      [
        "ust",
        "om"
      ],
      [
        "ĠS",
        "ystem"
      ],
      [
        "os",
        "s"
      ],
      [
        "Q",
        "L"
      ],
      [
        "Ġm",
        "od"
      ],
      [
        "ot",
        "e"
      ],
      [
        "S",
        "A"
      ],
      [
        "ĠA",
        "ir"
      ],
      [
        "Ġto",
        "ol"
      ],
      [
        "ĠBit",
        "coin"
      ],
      [
        "ĠM",
        "ore"
      ],
      [
        "ĠG",
        "r"
      ],
      [
        "a",
        "f"
      ],
      [
        "it",
        "ies"
      ],
      [
        "ib",
        "le"
      ],
      [
        "it",
        "es"
      ],
      [
        "iv",
        "ers"
      ],
      [
        "i",
        "ous"
      ],
      [
        "row",
        "s"
      ],
      [
        "ĠB",
        "r"
      ],
      [
        "Ġc",
        "ode"
      ],
      [
        "ĠE",
        "l"
      ],
      [
        "ĠD",
        "on"
      ],
      [
        "ers",
        "on"
      ],
      [
        "ĠOn",
        "line"
      ],
      [
        "c",
        "ing"
      ],
      [
        "er",
        "y"
      ],
      [
        "er",
        "ver"
      ],
      [
        "ĠF",
        "r"
      ],
      [
        "ĠTh",
        "is"
      ],
      [
        "ĠTech",
        "n"
      ],
      [
        "Ġ",
        "ar"
      ],
      [
        "Ġin",
        "ter"
      ],
      [
        "Ġwh",
        "at"
      ],
      [
        "ĠIn",
        "s"
      ],
      [
        "ib",
        "r"
      ],
      [
        "el",
        "y"
      ],
      [
        "ĠH",
        "as"
      ],
      [
        "20",
        "0"
      ],
      [
        "os",
        "e"
      ],
      [
        "Ġt",
        "est"
      ],
      [
        "at",
        "er"
      ],
      [
        "Ġh",
        "ack"
      ],
      [
        "ul",
        "l"
      ],
      [
        "ĠAn",
        "al"
      ],
      [
        "Ġm",
        "ake"
      ],
      [
        "ĠT",
        "est"
      ],
      [
        "Ġre",
        "le"
      ],
      [
        "ĠNew",
        "s"
      ],
      [
        "es",
        "e"
      ],
      [
        "al",
        "th"
      ],
      [
        "Ġd",
        "own"
      ],
      [
        "Ġth",
        "an"
      ],
      [
        "ĠS",
        "e"
      ],
      [
        "Ġb",
        "ut"
      ],
      [
        "ĠSt",
        "ud"
      ],
      [
        "ĠC",
        "ol"
      ],
      [
        "ĠS",
        "ur"
      ],
      [
        "ĠV",
        "is"
      ],
      [
        "l",
        "ess"
      ],
      [
        "Ġ",
        "&"
      ],
      [
        "t",
        "ack"
      ],
      [
        "Ġt",
        "ime"
      ],
      [
        "ĠPro",
        "duct"
      ],
      [
        "Ġhe",
        "l"
      ],
      [
        "Ø",
        "§"
      ],
      [
        "ĠP",
        "re"
      ],
      [
        "r",
        "al"
      ],
      [
        "ĠM",
        "ac"
      ],
      [
        "Ġi",
        "OS"
      ],
      [
        "ĠAr",
        "t"
      ],
      [
        "g",
        "y"
      ],
      [
        "s",
        "ite"
      ],
      [
        "u",
        "y"
      ],
      [
        "Ġs",
        "oftware"
      ],
      [
        "iz",
        "ation"
      ],
      [
        "r",
        "ough"
      ],
      [
        "it",
        "or"
      ],
      [
        "Ġc",
        "omm"
      ],
      [
        "Ġa",
        "fter"
      ],
      [
        "er",
        "t"
      ],
      [
        "ĠD",
        "ec"
      ],
      [
        "ri",
        "b"
      ],
      [
        "ov",
        "id"
      ],
      [
        "ĠInt",
        "ro"
      ],
      [
        "ĠIm",
        "p"
      ],
      [
        "y",
        "p"
      ],
      [
        "ĠS",
        "ocial"
      ],
      [
        "Ġon",
        "e"
      ],
      [
        "ĠT",
        "ime"
      ],
      [
        "um",
        "an"
      ],
      [
        "ig",
        "ital"
      ],
      [
        "ĠBuild",
        "ing"
      ],
      [
        "oo",
        "t"
      ],
      [
        "ĠIn",
        "st"
      ],
      [
        "an",
        "ts"
      ],
      [
        "ĠN",
        "ow"
      ],
      [
        "Ġsh",
        "ould"
      ],
      [
        "ĠPro",
        "gramming"
      ],
      [
        "r",
        "ess"
      ],
      [
        "Ġp",
        "h"
      ],
      [
        "ĠO",
        "b"
      ],
      [
        "ĠWh",
        "o"
      ],
      [
        "ĠT",
        "op"
      ],
      [
        "Ġp",
        "eople"
      ],
      [
        "one",
        "y"
      ],
      [
        "ĠM",
        "ake"
      ],
      [
        "Ġs",
        "ystem"
      ],
      [
        "00",
        "0"
      ],
      [
        "t",
        "le"
      ],
      [
        "ot",
        "s"
      ],
      [
        "c",
        "ess"
      ],
      [
        "le",
        "y"
      ],
      [
        "end",
        "s"
      ],
      [
        "h",
        "ip"
      ],
      [
        "ĠC",
        "ovid"
      ],
      [
        "Ġs",
        "m"
      ],
      [
        "ĠN",
        "etwork"
      ],
      [
        "ĠSh",
        "ould"
      ],
      [
        "y",
        "pe"
      ],
      [
        "ĠS",
        "earch"
      ],
      [
        "re",
        "t"
      ],
      [
        "ast",
        "er"
      ],
      [
        "ĠG",
        "l"
      ],
      [
        "ur",
        "r"
      ],
      [
        "Ġd",
        "esign"
      ],
      [
        "n",
        "oun"
      ],
      [
        "ar",
        "m"
      ],
      [
        "ĠC",
        "he"
      ],
      [
        "ĠM",
        "arket"
      ],
      [
        "Ġl",
        "ike"
      ],
      [
        "u",
        "ck"
      ],
      [
        "ĠH",
        "el"
      ],
      [
        "Ġth",
        "is"
      ],
      [
        "ook",
        "s"
      ],
      [
        "re",
        "ate"
      ],
      [
        "Ġan",
        "y"
      ],
      [
        "Ġpro",
        "duct"
      ],
      [
        "Ġn",
        "eed"
      ],
      [
        "ĠRe",
        "le"
      ],
      [
        "it",
        "ch"
      ],
      [
        "ĠC",
        "r"
      ],
      [
        "rom",
        "e"
      ],
      [
        "l",
        "a"
      ],
      [
        "ĠM",
        "in"
      ],
      [
        "ĠWh",
        "en"
      ],
      [
        "and",
        "s"
      ],
      [
        "ĠS",
        "il"
      ],
      [
        "ĠO",
        "ver"
      ],
      [
        "ĠTr",
        "ans"
      ],
      [
        "ĠT",
        "ool"
      ],
      [
        "v",
        "ers"
      ],
      [
        "M",
        "L"
      ],
      [
        "re",
        "ad"
      ],
      [
        "up",
        "er"
      ],
      [
        "iv",
        "es"
      ],
      [
        "iz",
        "e"
      ],
      [
        "Ġt",
        "e"
      ],
      [
        "ĠE",
        "v"
      ],
      [
        "Ġ",
        "|"
      ],
      [
        "Ġp",
        "er"
      ],
      [
        "g",
        "er"
      ],
      [
        "as",
        "es"
      ],
      [
        "ĠJ",
        "ob"
      ],
      [
        "ĠMan",
        "ag"
      ],
      [
        "ĠS",
        "l"
      ],
      [
        "ro",
        "l"
      ],
      [
        "ation",
        "al"
      ],
      [
        "ĠDo",
        "es"
      ],
      [
        "H",
        "ub"
      ],
      [
        "Ġ",
        "9"
      ],
      [
        "Ġb",
        "ack"
      ],
      [
        "ot",
        "h"
      ],
      [
        "Ġdo",
        "es"
      ],
      [
        "Ġf",
        "l"
      ],
      [
        "Ġf",
        "ree"
      ],
      [
        "am",
        "s"
      ],
      [
        "Ġ",
        "im"
      ],
      [
        "ĠC",
        "al"
      ],
      [
        "ĠP",
        "ost"
      ],
      [
        "ĠG",
        "ame"
      ],
      [
        "ub",
        "lic"
      ],
      [
        "ĠR",
        "ob"
      ],
      [
        "ĠRe",
        "act"
      ],
      [
        "p",
        "os"
      ],
      [
        "Ġa",
        "ut"
      ],
      [
        "Ġc",
        "ould"
      ],
      [
        "ain",
        "st"
      ],
      [
        "ĠE",
        "d"
      ],
      [
        "ĠSec",
        "urity"
      ],
      [
        "ĠD",
        "ev"
      ],
      [
        "Ġc",
        "om"
      ],
      [
        "ur",
        "ing"
      ],
      [
        "Ġa",
        "cc"
      ],
      [
        "ĠM",
        "obile"
      ],
      [
        "riv",
        "acy"
      ],
      [
        "i",
        "er"
      ],
      [
        "ic",
        "on"
      ],
      [
        "ĠH",
        "igh"
      ],
      [
        "if",
        "y"
      ],
      [
        "ĠCon",
        "s"
      ],
      [
        "an",
        "ies"
      ],
      [
        "Ġs",
        "o"
      ],
      [
        "ĠR",
        "uss"
      ],
      [
        "Ġ",
        "imp"
      ],
      [
        "Ġs",
        "ource"
      ],
      [
        "ur",
        "al"
      ],
      [
        "ĠB",
        "ack"
      ],
      [
        "Ġb",
        "usiness"
      ],
      [
        "iz",
        "ed"
      ],
      [
        "uil",
        "t"
      ],
      [
        "ĠS",
        "ol"
      ],
      [
        "ĠV",
        "ideo"
      ],
      [
        "ĠEx",
        "pl"
      ],
      [
        "ĠG",
        "ener"
      ],
      [
        "id",
        "ent"
      ],
      [
        "y",
        "m"
      ],
      [
        "erv",
        "ices"
      ],
      [
        "ĠF",
        "uture"
      ],
      [
        "n",
        "ed"
      ],
      [
        "ĠD",
        "own"
      ],
      [
        "ĠF",
        "ire"
      ],
      [
        "ĠF",
        "ound"
      ],
      [
        "et",
        "a"
      ],
      [
        "a",
        "ir"
      ],
      [
        "ĠS",
        "o"
      ],
      [
        "re",
        "ak"
      ],
      [
        "Ġw",
        "ay"
      ],
      [
        "Ġl",
        "aunch"
      ],
      [
        "ĠP",
        "ol"
      ],
      [
        "ub",
        "e"
      ],
      [
        "ĠR",
        "em"
      ],
      [
        "ir",
        "t"
      ],
      [
        "ĠF",
        "rom"
      ],
      [
        "u",
        "ro"
      ],
      [
        "at",
        "ter"
      ],
      [
        "ru",
        "ct"
      ],
      [
        "i",
        "ed"
      ],
      [
        "ĠU",
        "se"
      ],
      [
        "un",
        "t"
      ],
      [
        "ĠC",
        "ar"
      ],
      [
        "Ġre",
        "al"
      ],
      [
        "Ġst",
        "art"
      ],
      [
        "ĠSt",
        "art"
      ],
      [
        "ab",
        "ility"
      ],
      [
        "g",
        "or"
      ],
      [
        "ĠP",
        "at"
      ],
      [
        "ew",
        "ork"
      ],
      [
        "ĠRe",
        "view"
      ],
      [
        "th",
        "er"
      ],
      [
        "ble",
        "m"
      ],
      [
        "e",
        "p"
      ],
      [
        "Ġhel",
        "p"
      ],
      [
        "o",
        "in"
      ],
      [
        "on",
        "es"
      ],
      [
        "ĠP",
        "ower"
      ],
      [
        "ĠL",
        "aunch"
      ],
      [
        "ist",
        "ory"
      ],
      [
        "ĠGit",
        "Hub"
      ],
      [
        "Ġm",
        "on"
      ],
      [
        "Ġen",
        "gine"
      ],
      [
        "ĠC",
        "reat"
      ],
      [
        "ĠI",
        "P"
      ],
      [
        "Ġf",
        "ind"
      ],
      [
        "Ġcomp",
        "ut"
      ],
      [
        "p",
        "ect"
      ],
      [
        "Ġthe",
        "ir"
      ],
      [
        "ĠL",
        "ife"
      ],
      [
        "ad",
        "ing"
      ],
      [
        "if",
        "t"
      ],
      [
        "o",
        "le"
      ],
      [
        "Ġd",
        "ec"
      ],
      [
        "ur",
        "s"
      ],
      [
        "ĠP",
        "ar"
      ],
      [
        "Ġre",
        "m"
      ],
      [
        "ĠI",
        "ts"
      ],
      [
        "um",
        "p"
      ],
      [
        "form",
        "ance"
      ],
      [
        "Ġn",
        "o"
      ],
      [
        "ĠSp",
        "ace"
      ],
      [
        "is",
        "ing"
      ],
      [
        "ĠEx",
        "per"
      ],
      [
        "Ġy",
        "ears"
      ],
      [
        "ram",
        "ework"
      ],
      [
        "ibr",
        "ary"
      ],
      [
        "ĠT",
        "es"
      ],
      [
        "ĠH",
        "ave"
      ],
      [
        "il",
        "d"
      ],
      [
        "ĠI",
        "d"
      ],
      [
        "ĠS",
        "k"
      ],
      [
        "ĠC",
        "EO"
      ],
      [
        "ĠM",
        "achine"
      ],
      [
        "ĠW",
        "ar"
      ],
      [
        "ĠCh",
        "rome"
      ],
      [
        "Ġp",
        "re"
      ],
      [
        "ĠGu",
        "ide"
      ],
      [
        "b",
        "oard"
      ],
      [
        "u",
        "es"
      ],
      [
        "at",
        "ic"
      ],
      [
        "ro",
        "p"
      ],
      [
        "a",
        "h"
      ],
      [
        "at",
        "ab"
      ],
      [
        "Ġc",
        "r"
      ],
      [
        "y",
        "t"
      ],
      [
        "ou",
        "se"
      ],
      [
        "il",
        "es"
      ],
      [
        "m",
        "an"
      ],
      [
        "ĠA",
        "c"
      ],
      [
        "Ġe",
        "v"
      ],
      [
        "og",
        "raph"
      ],
      [
        "Ġapp",
        "s"
      ],
      [
        "ron",
        "g"
      ],
      [
        "he",
        "m"
      ],
      [
        "le",
        "x"
      ],
      [
        "ff",
        "ect"
      ],
      [
        "ĠJ",
        "ust"
      ],
      [
        "Ġj",
        "ob"
      ],
      [
        "er",
        "o"
      ],
      [
        "re",
        "en"
      ],
      [
        "Ġon",
        "line"
      ],
      [
        "Ġg",
        "ame"
      ],
      [
        "I",
        "n"
      ],
      [
        "d",
        "ay"
      ],
      [
        "Ġm",
        "ost"
      ],
      [
        "ĠN",
        "eed"
      ],
      [
        "im",
        "ate"
      ],
      [
        "Ġg",
        "ener"
      ],
      [
        "W",
        "S"
      ],
      [
        "c",
        "le"
      ],
      [
        "ĠS",
        "ource"
      ],
      [
        "ub",
        "y"
      ],
      [
        "rows",
        "er"
      ],
      [
        "a",
        "pt"
      ],
      [
        "ĠF",
        "in"
      ],
      [
        "gor",
        "ith"
      ],
      [
        "ff",
        "ic"
      ],
      [
        "ĠN",
        "ext"
      ],
      [
        "ĠD",
        "r"
      ],
      [
        "ĠPro",
        "ject"
      ],
      [
        "ĠTes",
        "la"
      ],
      [
        "g",
        "ing"
      ],
      [
        "l",
        "ing"
      ],
      [
        "at",
        "s"
      ],
      [
        "S",
        "t"
      ],
      [
        "is",
        "es"
      ],
      [
        "j",
        "ects"
      ],
      [
        "d",
        "s"
      ],
      [
        "Ġ",
        "our"
      ],
      [
        "Ġo",
        "wn"
      ],
      [
        "Ġn",
        "etwork"
      ],
      [
        "ord",
        "s"
      ],
      [
        "i",
        "um"
      ],
      [
        "w",
        "ay"
      ],
      [
        "or",
        "ts"
      ],
      [
        "Ġf",
        "ound"
      ],
      [
        "ĠUn",
        "der"
      ],
      [
        "ĠComput",
        "er"
      ],
      [
        "ĠM",
        "ost"
      ],
      [
        "ĠSc",
        "ience"
      ],
      [
        "or",
        "th"
      ],
      [
        "ĠA",
        "cc"
      ],
      [
        "ĠApp",
        "s"
      ],
      [
        "Ġex",
        "per"
      ],
      [
        "Ġ20",
        "2"
      ],
      [
        "u",
        "ch"
      ],
      [
        "al",
        "es"
      ],
      [
        "Ġin",
        "d"
      ],
      [
        "Ġb",
        "ig"
      ],
      [
        "Ġst",
        "ud"
      ],
      [
        "Ġ1",
        "9"
      ],
      [
        "Ġj",
        "ust"
      ],
      [
        "ĠRes",
        "earch"
      ],
      [
        "ĠDevelop",
        "ment"
      ],
      [
        "Ġd",
        "ev"
      ],
      [
        "ĠN",
        "ode"
      ],
      [
        "ĠSt",
        "r"
      ],
      [
        "ar",
        "ing"
      ],
      [
        "Ġa",
        "c"
      ],
      [
        "Ġs",
        "earch"
      ],
      [
        "pr",
        "ene"
      ],
      [
        "Ġtech",
        "n"
      ],
      [
        "ĠC",
        "rypt"
      ],
      [
        "Ġw",
        "as"
      ],
      [
        "ver",
        "t"
      ],
      [
        "a",
        "us"
      ],
      [
        "r",
        "act"
      ],
      [
        "ĠIn",
        "vest"
      ],
      [
        "Ġcomp",
        "any"
      ],
      [
        "ĠPl",
        "ay"
      ],
      [
        "s",
        "h"
      ],
      [
        "ĠD",
        "ay"
      ],
      [
        "ĠO",
        "f"
      ],
      [
        "l",
        "oad"
      ],
      [
        "n",
        "ess"
      ],
      [
        "ĠA",
        "WS"
      ],
      [
        "re",
        "prene"
      ],
      [
        "Ġc",
        "ol"
      ],
      [
        "ĠHel",
        "p"
      ],
      [
        "Ġn",
        "e"
      ],
      [
        "ver",
        "n"
      ],
      [
        "Ġwh",
        "en"
      ],
      [
        "ĠP",
        "eople"
      ],
      [
        "Ġb",
        "ec"
      ],
      [
        "ros",
        "s"
      ],
      [
        "ĠSil",
        "icon"
      ],
      [
        "ĠVal",
        "ley"
      ],
      [
        "b",
        "ox"
      ],
      [
        "en",
        "se"
      ],
      [
        "ĠM",
        "ay"
      ],
      [
        "iv",
        "ity"
      ],
      [
        "Ġk",
        "now"
      ],
      [
        "pr",
        "ess"
      ],
      [
        "Ġtr",
        "ans"
      ],
      [
        "w",
        "ard"
      ],
      [
        "ĠF",
        "ind"
      ],
      [
        "us",
        "h"
      ],
      [
        "Ġd",
        "on"
      ],
      [
        "ĠGoo",
        "d"
      ],
      [
        "Ġcon",
        "s"
      ],
      [
        "Ġs",
        "ays"
      ],
      [
        "Ġb",
        "etter"
      ],
      [
        "ir",
        "us"
      ],
      [
        "t",
        "en"
      ],
      [
        "ĠA",
        "ct"
      ],
      [
        "Ġg",
        "ood"
      ],
      [
        "ĠPro",
        "t"
      ],
      [
        "ĠInd",
        "ia"
      ],
      [
        "ĠP",
        "ay"
      ],
      [
        "erson",
        "al"
      ],
      [
        "ĠC",
        "or"
      ],
      [
        "ĠD",
        "eb"
      ],
      [
        "Ġb",
        "est"
      ],
      [
        "as",
        "y"
      ],
      [
        "ch",
        "ool"
      ],
      [
        "art",
        "h"
      ],
      [
        "Ġp",
        "ay"
      ],
      [
        "Ġv",
        "ideo"
      ],
      [
        "Ġwh",
        "o"
      ],
      [
        "ou",
        "p"
      ],
      [
        "ĠU",
        "ber"
      ],
      [
        "ys",
        "is"
      ],
      [
        "ĠVis",
        "ual"
      ],
      [
        "ĠN",
        "et"
      ],
      [
        "igh",
        "ts"
      ],
      [
        "n",
        "ect"
      ],
      [
        "Ġs",
        "ur"
      ],
      [
        "Ġp",
        "art"
      ],
      [
        "ĠEn",
        "t"
      ],
      [
        "ĠE",
        "uro"
      ],
      [
        "ra",
        "v"
      ],
      [
        "of",
        "f"
      ],
      [
        "ell",
        "ig"
      ],
      [
        "Ġus",
        "ers"
      ],
      [
        "ĠPl",
        "an"
      ],
      [
        "ĠF",
        "un"
      ],
      [
        "ce",
        "pt"
      ],
      [
        "ĠO",
        "S"
      ],
      [
        "ĠHT",
        "ML"
      ],
      [
        "ĠC",
        "ustom"
      ],
      [
        "g",
        "est"
      ],
      [
        "ĠC",
        "ould"
      ],
      [
        "ĠR",
        "un"
      ],
      [
        "um",
        "b"
      ],
      [
        "ob",
        "al"
      ],
      [
        "Ġex",
        "pl"
      ],
      [
        "ĠE",
        "very"
      ],
      [
        "Ġl",
        "anguage"
      ],
      [
        "ĠPh",
        "ot"
      ],
      [
        "ĠE",
        "lect"
      ],
      [
        "e",
        "en"
      ],
      [
        "ĠB",
        "etter"
      ],
      [
        "as",
        "k"
      ],
      [
        "o",
        "om"
      ],
      [
        "el",
        "i"
      ],
      [
        "ĠC",
        "o"
      ],
      [
        "ĠC",
        "y"
      ],
      [
        "ĠA",
        "fter"
      ],
      [
        "ĠR",
        "uby"
      ],
      [
        "ĠL",
        "aw"
      ],
      [
        "rit",
        "ing"
      ],
      [
        "ĠD",
        "igital"
      ],
      [
        "Ġm",
        "ay"
      ],
      [
        "ĠD",
        "eep"
      ],
      [
        "Ġm",
        "obile"
      ],
      [
        "Ġpl",
        "an"
      ],
      [
        "l",
        "ish"
      ],
      [
        "ack",
        "ing"
      ],
      [
        "P",
        "U"
      ],
      [
        "ĠS",
        "ub"
      ],
      [
        "Ġg",
        "r"
      ],
      [
        "ĠInt",
        "el"
      ],
      [
        "t",
        "o"
      ],
      [
        "Ġs",
        "ome"
      ],
      [
        "ap",
        "s"
      ],
      [
        "rib",
        "ut"
      ],
      [
        "ĠM",
        "ult"
      ],
      [
        "ĠL",
        "anguage"
      ],
      [
        "ĠAn",
        "y"
      ],
      [
        "i",
        "qu"
      ],
      [
        "ac",
        "es"
      ],
      [
        "Ġm",
        "in"
      ],
      [
        "if",
        "fer"
      ],
      [
        "Ġpro",
        "ject"
      ],
      [
        "ĠBl",
        "ock"
      ],
      [
        "Ġwith",
        "out"
      ],
      [
        "i",
        "et"
      ],
      [
        "ĠL",
        "ike"
      ],
      [
        "Ġv",
        "is"
      ],
      [
        "ĠC",
        "SS"
      ],
      [
        "ĠM",
        "aking"
      ],
      [
        "Ġh",
        "igh"
      ],
      [
        "ĠAn",
        "noun"
      ],
      [
        "ĠEx",
        "t"
      ],
      [
        "c",
        "ed"
      ],
      [
        "Ġ",
        "if"
      ],
      [
        "Ġt",
        "w"
      ],
      [
        "ĠL",
        "ook"
      ],
      [
        "Ġm",
        "ade"
      ],
      [
        "Ġun",
        "der"
      ],
      [
        "ient",
        "ists"
      ],
      [
        "Ġ",
        "ent"
      ],
      [
        "Ġ",
        "art"
      ],
      [
        "ĠStartup",
        "s"
      ],
      [
        "b",
        "r"
      ],
      [
        "Ġ",
        "ra"
      ],
      [
        "ĠM",
        "ar"
      ],
      [
        "ĠR",
        "ust"
      ],
      [
        "Ġb",
        "r"
      ],
      [
        "ut",
        "s"
      ],
      [
        "Ġwh",
        "y"
      ],
      [
        "ĠBl",
        "og"
      ],
      [
        "yth",
        "ing"
      ],
      [
        "ĠAs",
        "s"
      ],
      [
        "Ġlear",
        "ning"
      ],
      [
        "ĠT",
        "im"
      ],
      [
        "ĠG",
        "reat"
      ],
      [
        "Ġr",
        "un"
      ],
      [
        "d",
        "own"
      ],
      [
        "h",
        "ind"
      ],
      [
        "ĠW",
        "atch"
      ],
      [
        "id",
        "s"
      ],
      [
        "ĠAd",
        "d"
      ],
      [
        "Ġ",
        "ed"
      ],
      [
        "and",
        "ing"
      ],
      [
        "ĠRe",
        "ad"
      ],
      [
        "ĠSm",
        "art"
      ],
      [
        "ĠAmeric",
        "a"
      ],
      [
        "e",
        "es"
      ],
      [
        "Ġp",
        "ol"
      ],
      [
        "our",
        "s"
      ],
      [
        "ĠWh",
        "ere"
      ],
      [
        "Ġy",
        "ear"
      ],
      [
        "all",
        "s"
      ],
      [
        "t",
        "on"
      ],
      [
        "Ġf",
        "uture"
      ],
      [
        "ĠO",
        "ur"
      ],
      [
        "Ġpro",
        "gramming"
      ],
      [
        "ire",
        "d"
      ],
      [
        "co",
        "ver"
      ],
      [
        "Ġsu",
        "pport"
      ],
      [
        "f",
        "ore"
      ],
      [
        "Ġ",
        "#"
      ],
      [
        "Ġm",
        "arket"
      ],
      [
        "ĠK",
        "now"
      ],
      [
        "ock",
        "er"
      ],
      [
        "5",
        "0"
      ],
      [
        "T",
        "ube"
      ],
      [
        "on",
        "om"
      ],
      [
        "ĠD",
        "oc"
      ],
      [
        "Ġs",
        "ocial"
      ],
      [
        "Ġin",
        "s"
      ],
      [
        "id",
        "er"
      ],
      [
        "un",
        "g"
      ],
      [
        "um",
        "m"
      ],
      [
        "um",
        "ent"
      ],
      [
        "ĠApp",
        "lic"
      ],
      [
        "ĠAd",
        "v"
      ],
      [
        "Ġsec",
        "urity"
      ],
      [
        "Ġman",
        "ag"
      ],
      [
        "ĠS",
        "uper"
      ],
      [
        "ĠG",
        "raph"
      ],
      [
        "ĠIn",
        "c"
      ],
      [
        "ĠI",
        "f"
      ],
      [
        "Ġc",
        "reat"
      ],
      [
        "ĠB",
        "ook"
      ],
      [
        "Ġp",
        "ower"
      ],
      [
        "ĠU",
        "K"
      ],
      [
        "ul",
        "es"
      ],
      [
        "Ġl",
        "ife"
      ],
      [
        "irt",
        "ual"
      ],
      [
        "ĠEuro",
        "pe"
      ],
      [
        "+",
        "+"
      ],
      [
        "ĠS",
        "erver"
      ],
      [
        "ĠL",
        "ess"
      ],
      [
        "Ġl",
        "ook"
      ],
      [
        "od",
        "ing"
      ],
      [
        "ust",
        "ry"
      ],
      [
        "atab",
        "ase"
      ],
      [
        "o",
        "j"
      ],
      [
        "in",
        "al"
      ],
      [
        "ĠM",
        "at"
      ],
      [
        "Ġp",
        "at"
      ],
      [
        "Ġpro",
        "t"
      ],
      [
        "gr",
        "ess"
      ],
      [
        "iz",
        "ing"
      ],
      [
        "ant",
        "um"
      ],
      [
        "Ġex",
        "t"
      ],
      [
        "D",
        "B"
      ],
      [
        "ĠS",
        "imple"
      ],
      [
        "Ġp",
        "ass"
      ],
      [
        "iv",
        "ing"
      ],
      [
        "ĠEn",
        "d"
      ],
      [
        "Ù",
        "Ħ"
      ],
      [
        "es",
        "k"
      ],
      [
        "ĠS",
        "ervice"
      ],
      [
        "is",
        "k"
      ],
      [
        "all",
        "en"
      ],
      [
        "ĠComp",
        "any"
      ],
      [
        "ap",
        "er"
      ],
      [
        "ĠL",
        "ist"
      ],
      [
        "ĠS",
        "a"
      ],
      [
        "ir",
        "d"
      ],
      [
        "ĠLear",
        "n"
      ],
      [
        "i",
        "el"
      ],
      [
        "r",
        "ite"
      ],
      [
        "ĠM",
        "ark"
      ],
      [
        "ĠR",
        "et"
      ],
      [
        "ĠL",
        "ive"
      ],
      [
        "Ġre",
        "ad"
      ],
      [
        "1",
        "0"
      ],
      [
        "m",
        "e"
      ],
      [
        "ĠW",
        "ay"
      ],
      [
        "un",
        "ity"
      ],
      [
        "pt",
        "im"
      ],
      [
        "ĠAr",
        "ch"
      ],
      [
        "b",
        "ack"
      ],
      [
        "g",
        "in"
      ],
      [
        "Ġ",
        "ide"
      ],
      [
        "Ġf",
        "un"
      ],
      [
        "ĠA",
        "v"
      ],
      [
        "ĠB",
        "ec"
      ],
      [
        "our",
        "n"
      ],
      [
        "ĠIn",
        "f"
      ],
      [
        "ĠSt",
        "ore"
      ],
      [
        "ĠTh",
        "ings"
      ],
      [
        "et",
        "ect"
      ],
      [
        "om",
        "en"
      ],
      [
        "ĠAn",
        "t"
      ],
      [
        "ĠPro",
        "f"
      ],
      [
        "ĠD",
        "em"
      ],
      [
        "ent",
        "ial"
      ],
      [
        "ĠN",
        "A"
      ],
      [
        "form",
        "ation"
      ],
      [
        "ĠDe",
        "f"
      ],
      [
        "ĠE",
        "ver"
      ],
      [
        "ĠYou",
        "Tube"
      ],
      [
        "Ġc",
        "ar"
      ],
      [
        "ĠK",
        "ey"
      ],
      [
        "Ġa",
        "v"
      ],
      [
        "ĠM",
        "et"
      ],
      [
        "Ġs",
        "ol"
      ],
      [
        "ĠR",
        "ails"
      ],
      [
        "Ġpl",
        "atform"
      ],
      [
        "ĠInter",
        "view"
      ],
      [
        "l",
        "and"
      ],
      [
        "pp",
        "ing"
      ],
      [
        "Ġ1",
        "00"
      ],
      [
        "Ġad",
        "d"
      ],
      [
        "ĠA",
        "p"
      ],
      [
        "g",
        "es"
      ],
      [
        "Ġin",
        "c"
      ],
      [
        "Ġdevelop",
        "ment"
      ],
      [
        "g",
        "an"
      ],
      [
        "r",
        "up"
      ],
      [
        "s",
        "c"
      ],
      [
        "ĠM",
        "edia"
      ],
      [
        "ĠJ",
        "o"
      ],
      [
        "er",
        "ies"
      ],
      [
        "ĠRe",
        "v"
      ],
      [
        "ellig",
        "ence"
      ],
      [
        "it",
        "ed"
      ],
      [
        "ĠH",
        "ome"
      ],
      [
        "is",
        "on"
      ],
      [
        "ĠBl",
        "ack"
      ],
      [
        "e",
        "ak"
      ],
      [
        "ĠC",
        "ap"
      ],
      [
        "ĠM",
        "o"
      ],
      [
        "Ġe",
        "lect"
      ],
      [
        "ain",
        "s"
      ],
      [
        "end",
        "ing"
      ],
      [
        "ĠPl",
        "atform"
      ],
      [
        "T",
        "P"
      ],
      [
        "im",
        "s"
      ],
      [
        "ir",
        "ing"
      ],
      [
        "ĠDevelop",
        "er"
      ],
      [
        "a",
        "i"
      ],
      [
        "Ġs",
        "ite"
      ],
      [
        "z",
        "z"
      ],
      [
        "Ġs",
        "ervice"
      ],
      [
        "ac",
        "c"
      ],
      [
        "ical",
        "ly"
      ],
      [
        "ĠMod",
        "el"
      ],
      [
        "ĠJob",
        "s"
      ],
      [
        "ro",
        "ll"
      ],
      [
        "od",
        "y"
      ],
      [
        "Ġweb",
        "site"
      ],
      [
        "..",
        "."
      ],
      [
        "I",
        "T"
      ],
      [
        "an",
        "n"
      ],
      [
        "ĠH",
        "ard"
      ],
      [
        "Ġw",
        "ar"
      ],
      [
        "ĠF",
        "orm"
      ],
      [
        "ire",
        "ct"
      ],
      [
        "ĠTechn",
        "ology"
      ],
      [
        "Ġrele",
        "ased"
      ],
      [
        "Ġc",
        "he"
      ],
      [
        "Ġw",
        "ant"
      ],
      [
        "ĠF",
        "und"
      ],
      [
        "id",
        "d"
      ],
      [
        "oth",
        "er"
      ],
      [
        "vern",
        "ment"
      ],
      [
        "S",
        "QL"
      ],
      [
        "or",
        "ing"
      ],
      [
        "ĠM",
        "em"
      ],
      [
        "Ġw",
        "ould"
      ],
      [
        "ĠSt",
        "ate"
      ],
      [
        "ĠLe",
        "g"
      ],
      [
        "ĠH",
        "ere"
      ],
      [
        "Ġn",
        "ext"
      ],
      [
        "ir",
        "es"
      ],
      [
        "f",
        "or"
      ],
      [
        "ro",
        "v"
      ],
      [
        "ro",
        "ve"
      ],
      [
        "ĠAut",
        "om"
      ],
      [
        "ĠS",
        "n"
      ],
      [
        "ĠIntro",
        "du"
      ],
      [
        "Ġg",
        "u"
      ],
      [
        "ĠTh",
        "an"
      ],
      [
        "it",
        "ing"
      ],
      [
        "ĠP",
        "ass"
      ],
      [
        "ĠL",
        "og"
      ],
      [
        "ers",
        "ion"
      ],
      [
        "ĠRe",
        "port"
      ],
      [
        "ĠChin",
        "ese"
      ],
      [
        "Ġs",
        "imple"
      ],
      [
        "Ġthe",
        "y"
      ],
      [
        "et",
        "es"
      ],
      [
        "ĠE",
        "arth"
      ],
      [
        "ĠU",
        "pd"
      ],
      [
        "Ġin",
        "st"
      ],
      [
        "ra",
        "ft"
      ],
      [
        "oc",
        "al"
      ],
      [
        "ap",
        "an"
      ],
      [
        "ĠUn",
        "ivers"
      ],
      [
        "it",
        "ect"
      ],
      [
        "Ġa",
        "m"
      ],
      [
        "ĠF",
        "ast"
      ],
      [
        "as",
        "on"
      ],
      [
        "Ġth",
        "ere"
      ],
      [
        "yt",
        "ics"
      ],
      [
        "âĢ",
        "ĵ"
      ],
      [
        "Ġb",
        "uilt"
      ],
      [
        "Ġapp",
        "lic"
      ],
      [
        "Ġnew",
        "s"
      ],
      [
        "ar",
        "ge"
      ],
      [
        "Ġc",
        "or"
      ],
      [
        "ion",
        "al"
      ],
      [
        "ell",
        "ing"
      ],
      [
        "duct",
        "ion"
      ],
      [
        "ĠMus",
        "k"
      ],
      [
        "ĠS",
        "et"
      ],
      [
        "ĠE",
        "con"
      ],
      [
        "Ġg",
        "l"
      ],
      [
        "ĠY",
        "ear"
      ],
      [
        "Ġbl",
        "ock"
      ],
      [
        "f",
        "ox"
      ],
      [
        "er",
        "a"
      ],
      [
        "en",
        "ch"
      ],
      [
        "ar",
        "i"
      ],
      [
        "ĠM",
        "ov"
      ],
      [
        "ĠG",
        "row"
      ],
      [
        "ĠAn",
        "g"
      ],
      [
        "ĠMus",
        "ic"
      ],
      [
        "m",
        "ark"
      ],
      [
        "im",
        "ent"
      ],
      [
        "ĠJ",
        "apan"
      ],
      [
        "Ġth",
        "ink"
      ],
      [
        "ĠTh",
        "ink"
      ],
      [
        "Ġk",
        "ey"
      ],
      [
        "Ġs",
        "ub"
      ],
      [
        "ĠGet",
        "ting"
      ],
      [
        "ĠEcon",
        "om"
      ],
      [
        "n",
        "ov"
      ],
      [
        "ĠD",
        "ist"
      ],
      [
        "t",
        "y"
      ],
      [
        "ic",
        "ation"
      ],
      [
        "ul",
        "ts"
      ],
      [
        "Ġch",
        "ange"
      ],
      [
        "urr",
        "ency"
      ],
      [
        "ĠT",
        "V"
      ],
      [
        "Ġc",
        "o"
      ],
      [
        "ĠO",
        "wn"
      ],
      [
        "P",
        "T"
      ],
      [
        "ĠA",
        "b"
      ],
      [
        "ing",
        "le"
      ],
      [
        "ĠT",
        "ips"
      ],
      [
        "Ġst",
        "r"
      ],
      [
        "ĠTw",
        "o"
      ],
      [
        "ĠiP",
        "ad"
      ],
      [
        "Y",
        "C"
      ],
      [
        "a",
        "j"
      ],
      [
        "b",
        "it"
      ],
      [
        "c",
        "ast"
      ],
      [
        "o",
        "ice"
      ],
      [
        "ĠH",
        "uman"
      ],
      [
        "ĠH",
        "istory"
      ],
      [
        "ĠD",
        "ocker"
      ],
      [
        "Ġd",
        "r"
      ],
      [
        "ĠL",
        "ink"
      ],
      [
        "ch",
        "ain"
      ],
      [
        "Ġl",
        "aw"
      ],
      [
        "Ġl",
        "ibrary"
      ],
      [
        "og",
        "n"
      ],
      [
        "ron",
        "t"
      ],
      [
        "Ġem",
        "ail"
      ],
      [
        "ĠP",
        "rivacy"
      ],
      [
        "ro",
        "k"
      ],
      [
        "Ġe",
        "very"
      ],
      [
        "ail",
        "able"
      ],
      [
        "ĠHack",
        "er"
      ],
      [
        "c",
        "hed"
      ],
      [
        "t",
        "op"
      ],
      [
        "u",
        "zz"
      ],
      [
        "Ġin",
        "vest"
      ],
      [
        "ri",
        "ve"
      ],
      [
        "act",
        "ive"
      ],
      [
        "a",
        "S"
      ],
      [
        "ĠS",
        "elf"
      ],
      [
        "ĠT",
        "ext"
      ],
      [
        "ĠC",
        "ent"
      ],
      [
        "ĠW",
        "eek"
      ],
      [
        "b",
        "ased"
      ],
      [
        "o",
        "int"
      ],
      [
        "t",
        "ime"
      ],
      [
        "Ġp",
        "ost"
      ],
      [
        "ir",
        "m"
      ],
      [
        "Ġcl",
        "oud"
      ],
      [
        "etw",
        "een"
      ],
      [
        "ĠM",
        "oney"
      ],
      [
        "Ġcomp",
        "anies"
      ],
      [
        "Ġsm",
        "art"
      ],
      [
        "O",
        "N"
      ],
      [
        "f",
        "ace"
      ],
      [
        "at",
        "ors"
      ],
      [
        "ĠC",
        "reate"
      ],
      [
        "Ġb",
        "ased"
      ],
      [
        "ut",
        "or"
      ],
      [
        "ĠK",
        "ub"
      ],
      [
        "ard",
        "s"
      ],
      [
        "ĠPr",
        "es"
      ],
      [
        "Ġlear",
        "n"
      ],
      [
        "S",
        "D"
      ],
      [
        "y",
        "le"
      ],
      [
        "Ġc",
        "rypt"
      ],
      [
        "ĠL",
        "ab"
      ],
      [
        "ĠY",
        "ears"
      ],
      [
        "ĠSc",
        "al"
      ],
      [
        "ph",
        "one"
      ],
      [
        "riv",
        "ate"
      ],
      [
        "fer",
        "ence"
      ],
      [
        "Ġres",
        "earch"
      ],
      [
        "Ġro",
        "b"
      ],
      [
        "e",
        "gr"
      ],
      [
        "ĠS",
        "ome"
      ],
      [
        "ou",
        "ch"
      ],
      [
        "ĠB",
        "ill"
      ],
      [
        "r",
        "or"
      ],
      [
        "ĠP",
        "ublic"
      ],
      [
        "ic",
        "ial"
      ],
      [
        "ĠB",
        "ank"
      ],
      [
        "our",
        "ces"
      ],
      [
        "ĠSt",
        "ar"
      ],
      [
        "ul",
        "ation"
      ],
      [
        "ĠCh",
        "at"
      ],
      [
        "ĠFire",
        "fox"
      ],
      [
        "E",
        "S"
      ],
      [
        "ĠCl",
        "ass"
      ],
      [
        "ĠQu",
        "est"
      ],
      [
        "ĠId",
        "e"
      ],
      [
        "Ġ",
        "end"
      ],
      [
        "ĠH",
        "app"
      ],
      [
        "ĠM",
        "ag"
      ],
      [
        "ĠW",
        "ord"
      ],
      [
        "Ġc",
        "ustom"
      ],
      [
        "is",
        "ion"
      ],
      [
        "Ġl",
        "ist"
      ],
      [
        "Ġre",
        "g"
      ],
      [
        "p",
        "or"
      ],
      [
        "s",
        "ites"
      ],
      [
        "al",
        "ity"
      ],
      [
        "Ġs",
        "et"
      ],
      [
        "Ġan",
        "al"
      ],
      [
        "av",
        "ing"
      ],
      [
        "ĠHe",
        "alth"
      ],
      [
        "Ġag",
        "ainst"
      ],
      [
        "ĠNA",
        "SA"
      ],
      [
        "p",
        "ro"
      ],
      [
        "Ġs",
        "l"
      ],
      [
        "Ġin",
        "f"
      ],
      [
        "ĠSt",
        "op"
      ],
      [
        "op",
        "y"
      ],
      [
        "Ġre",
        "view"
      ],
      [
        "ĠEnt",
        "reprene"
      ],
      [
        "Ġ",
        "0"
      ],
      [
        "ĠM",
        "ed"
      ],
      [
        "Ġat",
        "tack"
      ],
      [
        "ern",
        "etes"
      ],
      [
        "ĠW",
        "ik"
      ],
      [
        "Ġm",
        "ult"
      ],
      [
        "Ġm",
        "uch"
      ],
      [
        "pl",
        "ace"
      ],
      [
        "ĠAl",
        "gorith"
      ],
      [
        "ĠLe",
        "ad"
      ],
      [
        "ĠRe",
        "g"
      ],
      [
        "Ġpl",
        "ay"
      ],
      [
        "ĠStud",
        "y"
      ],
      [
        "H",
        "P"
      ],
      [
        "it",
        "ive"
      ],
      [
        "ac",
        "he"
      ],
      [
        "il",
        "y"
      ],
      [
        "Ġre",
        "t"
      ],
      [
        "ĠJ",
        "S"
      ],
      [
        "Ġe",
        "ver"
      ],
      [
        "a",
        "id"
      ],
      [
        "a",
        "ut"
      ],
      [
        "ĠD",
        "N"
      ],
      [
        "ĠL",
        "et"
      ],
      [
        "Ġup",
        "d"
      ],
      [
        "ĠDevelop",
        "ers"
      ],
      [
        "Ġdevelop",
        "ers"
      ],
      [
        "I",
        "S"
      ],
      [
        "t",
        "ers"
      ],
      [
        "ĠS",
        "im"
      ],
      [
        "ĠS",
        "ign"
      ],
      [
        "Ġw",
        "eek"
      ],
      [
        "red",
        "ict"
      ],
      [
        "Ø§",
        "Ø"
      ],
      [
        "ĠIntrodu",
        "cing"
      ],
      [
        "g",
        "et"
      ],
      [
        "Ġ",
        "ec"
      ],
      [
        "ĠM",
        "ess"
      ],
      [
        "Ġto",
        "p"
      ],
      [
        "ĠF",
        "eat"
      ],
      [
        "em",
        "ic"
      ],
      [
        "Ġv",
        "al"
      ],
      [
        "ud",
        "io"
      ],
      [
        "ĠMe",
        "et"
      ],
      [
        "o",
        "id"
      ],
      [
        "Ġs",
        "e"
      ],
      [
        "Ġc",
        "reate"
      ],
      [
        "ul",
        "ner"
      ],
      [
        "Ġ1",
        "1"
      ],
      [
        "ĠSt",
        "ory"
      ],
      [
        "ĠY",
        "ork"
      ],
      [
        "ĠPro",
        "cess"
      ],
      [
        "Ġ3",
        "0"
      ],
      [
        "riv",
        "ing"
      ],
      [
        "ĠPr",
        "in"
      ],
      [
        "rup",
        "t"
      ],
      [
        "ĠKub",
        "ernetes"
      ],
      [
        "r",
        "ation"
      ],
      [
        "v",
        "id"
      ],
      [
        "Ġh",
        "app"
      ],
      [
        "Ġth",
        "rough"
      ],
      [
        "ap",
        "e"
      ],
      [
        "ĠPer",
        "formance"
      ],
      [
        "af",
        "e"
      ],
      [
        "ĠC",
        "our"
      ],
      [
        "ĠP",
        "i"
      ],
      [
        "Ġd",
        "oc"
      ],
      [
        "Ġfor",
        "m"
      ],
      [
        "ĠU",
        "I"
      ],
      [
        "ra",
        "p"
      ],
      [
        "ell",
        "s"
      ],
      [
        "ĠR",
        "el"
      ],
      [
        "ot",
        "t"
      ],
      [
        "enc",
        "es"
      ],
      [
        "Ġ20",
        "0"
      ],
      [
        "ific",
        "ation"
      ],
      [
        "ĠCal",
        "if"
      ],
      [
        "ĠS",
        "an"
      ],
      [
        "ĠG",
        "e"
      ],
      [
        "as",
        "p"
      ],
      [
        "Ġl",
        "ong"
      ],
      [
        "Ġh",
        "ard"
      ],
      [
        "Ġst",
        "ill"
      ],
      [
        "Ġv",
        "ia"
      ],
      [
        "ĠMarket",
        "ing"
      ],
      [
        "ĠRele",
        "ased"
      ],
      [
        "ruct",
        "ure"
      ],
      [
        "b",
        "l"
      ],
      [
        "s",
        "s"
      ],
      [
        "u",
        "le"
      ],
      [
        "ĠP",
        "hone"
      ],
      [
        "ĠB",
        "re"
      ],
      [
        "ĠB",
        "uy"
      ],
      [
        "Ġd",
        "id"
      ],
      [
        "Ġst",
        "or"
      ],
      [
        "ill",
        "s"
      ],
      [
        "tern",
        "ative"
      ],
      [
        "'",
        "re"
      ],
      [
        "d",
        "it"
      ],
      [
        "Ġf",
        "und"
      ],
      [
        "Ġa",
        "ct"
      ],
      [
        "Ġm",
        "em"
      ],
      [
        "am",
        "ing"
      ],
      [
        "Ġon",
        "ly"
      ],
      [
        "ri",
        "es"
      ],
      [
        "ear",
        "ly"
      ],
      [
        "ĠCon",
        "f"
      ],
      [
        "ĠUs",
        "ers"
      ],
      [
        "Ġf",
        "eat"
      ],
      [
        "ĠD",
        "id"
      ],
      [
        "is",
        "ed"
      ],
      [
        "Ġd",
        "eb"
      ],
      [
        "ĠSt",
        "or"
      ],
      [
        "ĠPro",
        "gramm"
      ],
      [
        "201",
        "6"
      ],
      [
        "Ġch",
        "ang"
      ],
      [
        "Ġsp",
        "ace"
      ],
      [
        "ĠIns",
        "ide"
      ],
      [
        "ĠTest",
        "ing"
      ],
      [
        "ĠRuss",
        "ia"
      ],
      [
        "utor",
        "ial"
      ],
      [
        "Ġ",
        "Ù"
      ],
      [
        "ĠP",
        "C"
      ],
      [
        "ĠB",
        "rain"
      ],
      [
        "Ġp",
        "hone"
      ],
      [
        "ĠAnal",
        "ysis"
      ],
      [
        "Ġcomput",
        "er"
      ],
      [
        "b",
        "e"
      ],
      [
        "c",
        "er"
      ],
      [
        "on",
        "av"
      ],
      [
        "le",
        "ment"
      ],
      [
        "ĠE",
        "r"
      ],
      [
        "Ġl",
        "ive"
      ],
      [
        "Ġbe",
        "en"
      ],
      [
        "ĠSc",
        "ientists"
      ],
      [
        "ĠWeb",
        "site"
      ],
      [
        "Ġ20",
        "20"
      ],
      [
        "Ġre",
        "port"
      ],
      [
        "ile",
        "d"
      ],
      [
        "ĠCalif",
        "orn"
      ],
      [
        "onav",
        "irus"
      ],
      [
        "ĠS",
        "QL"
      ],
      [
        "Ġo",
        "ld"
      ],
      [
        "ĠG",
        "en"
      ],
      [
        "Ġd",
        "ay"
      ],
      [
        "ĠTr",
        "ump"
      ],
      [
        "iss",
        "ion"
      ],
      [
        "s",
        "ource"
      ],
      [
        "Ġt",
        "ake"
      ],
      [
        "ĠW",
        "in"
      ],
      [
        "Ġs",
        "ign"
      ],
      [
        "ra",
        "w"
      ],
      [
        "ĠCh",
        "ang"
      ],
      [
        "fl",
        "ow"
      ],
      [
        "r",
        "en"
      ],
      [
        "Ġt",
        "alk"
      ],
      [
        "Ġs",
        "elf"
      ],
      [
        "Ġh",
        "uman"
      ],
      [
        "Ġre",
        "ve"
      ],
      [
        "ĠPro",
        "blem"
      ],
      [
        "Ġpro",
        "f"
      ],
      [
        "ĠEl",
        "on"
      ],
      [
        "Ġ",
        "/"
      ],
      [
        "ĠP",
        "HP"
      ],
      [
        "Ġh",
        "ome"
      ],
      [
        "E",
        "T"
      ],
      [
        "k",
        "y"
      ],
      [
        "w",
        "ord"
      ],
      [
        "ĠH",
        "y"
      ],
      [
        "Ġd",
        "em"
      ],
      [
        "Ġ201",
        "2"
      ],
      [
        "ough",
        "t"
      ],
      [
        "ific",
        "ial"
      ],
      [
        "ĠManag",
        "ement"
      ],
      [
        "esk",
        "top"
      ],
      [
        "u",
        "ff"
      ],
      [
        "on",
        "y"
      ],
      [
        "Ġf",
        "in"
      ],
      [
        "Ġb",
        "uy"
      ],
      [
        "Ġb",
        "rowser"
      ],
      [
        "il",
        "s"
      ],
      [
        "ut",
        "e"
      ],
      [
        "ĠSt",
        "at"
      ],
      [
        "Ġre",
        "v"
      ],
      [
        "201",
        "5"
      ],
      [
        "Ġad",
        "v"
      ],
      [
        "ĠCaliforn",
        "ia"
      ],
      [
        "er",
        "c"
      ],
      [
        "Ġa",
        "b"
      ],
      [
        "Ġa",
        "ccess"
      ],
      [
        "ĠF",
        "re"
      ],
      [
        "om",
        "ain"
      ],
      [
        "Ġd",
        "ist"
      ],
      [
        "Ġm",
        "oney"
      ],
      [
        "el",
        "er"
      ],
      [
        "pl",
        "ay"
      ],
      [
        "arg",
        "et"
      ],
      [
        "ĠAmeric",
        "an"
      ],
      [
        "ĠHT",
        "TP"
      ],
      [
        "ĠTool",
        "s"
      ],
      [
        "l",
        "i"
      ],
      [
        "ĠW",
        "as"
      ],
      [
        "oo",
        "p"
      ],
      [
        "ĠSm",
        "all"
      ],
      [
        "ams",
        "ung"
      ],
      [
        "Ġt",
        "urn"
      ],
      [
        "ĠT",
        "ype"
      ],
      [
        "Ġf",
        "ast"
      ],
      [
        "ĠG",
        "ames"
      ],
      [
        "ĠE",
        "p"
      ],
      [
        "ĠSt",
        "ream"
      ],
      [
        "Ġl",
        "ess"
      ],
      [
        "op",
        "ular"
      ],
      [
        "ber",
        "ry"
      ],
      [
        "ĠUs",
        "er"
      ],
      [
        "ĠGl",
        "obal"
      ],
      [
        "ĠRob",
        "ot"
      ],
      [
        "Ġlaunch",
        "es"
      ],
      [
        "l",
        "in"
      ],
      [
        "ĠW",
        "ant"
      ],
      [
        "ĠB",
        "ad"
      ],
      [
        "ag",
        "ram"
      ],
      [
        "ĠY",
        "C"
      ],
      [
        "ĠPro",
        "gram"
      ],
      [
        "Ġr",
        "ight"
      ],
      [
        "ip",
        "le"
      ],
      [
        "ens",
        "ion"
      ],
      [
        "ĠS",
        "amsung"
      ],
      [
        "ĠH",
        "and"
      ],
      [
        "Ġb",
        "ook"
      ],
      [
        "ĠE",
        "th"
      ],
      [
        "Ġ1",
        "2"
      ],
      [
        "yn",
        "am"
      ],
      [
        "Ġstartup",
        "s"
      ],
      [
        "Ġmon",
        "th"
      ],
      [
        "es",
        "h"
      ],
      [
        "ĠS",
        "chool"
      ],
      [
        "Ġf",
        "ramework"
      ],
      [
        "ĠW",
        "riting"
      ],
      [
        "Ġthe",
        "m"
      ],
      [
        "ĠL",
        "ong"
      ],
      [
        "ur",
        "y"
      ],
      [
        "ĠEn",
        "g"
      ],
      [
        "ath",
        "er"
      ],
      [
        "ploy",
        "ees"
      ],
      [
        "ĠSt",
        "ack"
      ],
      [
        "ide",
        "os"
      ],
      [
        "Ġpro",
        "blem"
      ],
      [
        "C",
        "on"
      ],
      [
        "en",
        "n"
      ],
      [
        "ar",
        "ter"
      ],
      [
        "ĠC",
        "ity"
      ],
      [
        "re",
        "et"
      ],
      [
        "Ġp",
        "ar"
      ],
      [
        "Ġm",
        "ov"
      ],
      [
        "Ġm",
        "akes"
      ],
      [
        "Ġm",
        "edia"
      ],
      [
        "Ġl",
        "og"
      ],
      [
        "qu",
        "est"
      ],
      [
        "ble",
        "ms"
      ],
      [
        "oll",
        "ow"
      ],
      [
        "ĠEngine",
        "ering"
      ],
      [
        "Ġph",
        "ot"
      ],
      [
        "c",
        "ul"
      ],
      [
        "ĠA",
        "f"
      ],
      [
        "Ġs",
        "erver"
      ],
      [
        "ag",
        "ing"
      ],
      [
        "Ġas",
        "s"
      ],
      [
        "let",
        "e"
      ],
      [
        "Ġtool",
        "s"
      ],
      [
        "b",
        "y"
      ],
      [
        "e",
        "f"
      ],
      [
        "ĠT",
        "ra"
      ],
      [
        "Ġc",
        "y"
      ],
      [
        "il",
        "er"
      ],
      [
        "ut",
        "es"
      ],
      [
        "ri",
        "end"
      ],
      [
        "ĠRe",
        "p"
      ],
      [
        "Ġth",
        "ings"
      ],
      [
        "Ġpro",
        "gram"
      ],
      [
        "Ġ5",
        "0"
      ],
      [
        "ĠSte",
        "ve"
      ],
      [
        "c",
        "ation"
      ],
      [
        "m",
        "ail"
      ],
      [
        "n",
        "et"
      ],
      [
        "w",
        "e"
      ],
      [
        "Ġt",
        "ext"
      ],
      [
        "ĠS",
        "yn"
      ],
      [
        "ĠT",
        "alk"
      ],
      [
        "ic",
        "le"
      ],
      [
        "ĠE",
        "U"
      ],
      [
        "Ġm",
        "us"
      ],
      [
        "if",
        "f"
      ],
      [
        "Ġdevelop",
        "er"
      ],
      [
        "aus",
        "e"
      ],
      [
        "b",
        "ook"
      ],
      [
        "Ġ",
        "."
      ],
      [
        "ĠC",
        "ase"
      ],
      [
        "ĠR",
        "a"
      ],
      [
        "ĠTh",
        "ere"
      ],
      [
        "ĠEn",
        "c"
      ],
      [
        "lect",
        "ion"
      ],
      [
        "Ġtechn",
        "ology"
      ],
      [
        "b",
        "in"
      ],
      [
        "u",
        "it"
      ],
      [
        "ĠA",
        "ust"
      ],
      [
        "ĠC",
        "ur"
      ],
      [
        "le",
        "g"
      ],
      [
        "Ġo",
        "b"
      ],
      [
        "ĠF",
        "ail"
      ],
      [
        "pl",
        "es"
      ],
      [
        "fl",
        "ix"
      ],
      [
        "ĠSur",
        "ve"
      ],
      [
        "t",
        "e"
      ],
      [
        "Ġp",
        "age"
      ],
      [
        "ir",
        "on"
      ],
      [
        "if",
        "ied"
      ],
      [
        "ĠSu",
        "ccess"
      ],
      [
        "ĠCrypt",
        "o"
      ],
      [
        "g",
        "re"
      ],
      [
        "o",
        "or"
      ],
      [
        "s",
        "w"
      ],
      [
        "Ġo",
        "ther"
      ],
      [
        "201",
        "4"
      ],
      [
        "ber",
        "g"
      ],
      [
        "rit",
        "ten"
      ],
      [
        "ĠSu",
        "pport"
      ],
      [
        "oss",
        "ible"
      ],
      [
        "unt",
        "u"
      ],
      [
        "ĠC",
        "le"
      ],
      [
        "ĠE",
        "ar"
      ],
      [
        "op",
        "e"
      ],
      [
        "n",
        "ers"
      ],
      [
        "ĠA",
        "M"
      ],
      [
        "ĠThe",
        "y"
      ],
      [
        "Ġl",
        "ink"
      ],
      [
        "Ġus",
        "ed"
      ],
      [
        "ĠSystem",
        "s"
      ],
      [
        "ĠM",
        "ot"
      ],
      [
        "Ġm",
        "any"
      ],
      [
        "Ġm",
        "achine"
      ],
      [
        "ĠThe",
        "ir"
      ],
      [
        "oc",
        "us"
      ],
      [
        "um",
        "ber"
      ],
      [
        "ĠComp",
        "anies"
      ],
      [
        "ĠTe",
        "am"
      ],
      [
        "ĠRuss",
        "ian"
      ],
      [
        "ĠNet",
        "flix"
      ],
      [
        "ribut",
        "ed"
      ],
      [
        "iel",
        "d"
      ],
      [
        "i",
        "or"
      ],
      [
        "y",
        "ing"
      ],
      [
        "an",
        "e"
      ],
      [
        "Ġs",
        "k"
      ],
      [
        "ĠN",
        "SA"
      ],
      [
        "ĠU",
        "b"
      ],
      [
        "201",
        "7"
      ],
      [
        "ug",
        "s"
      ],
      [
        "ĠIntro",
        "duction"
      ],
      [
        "ĠLaunch",
        "es"
      ],
      [
        "ograph",
        "y"
      ],
      [
        "iffer",
        "ent"
      ],
      [
        "A",
        "R"
      ],
      [
        "Ġa",
        "ir"
      ],
      [
        "ro",
        "ach"
      ],
      [
        "ĠF",
        "ramework"
      ],
      [
        "ist",
        "ic"
      ],
      [
        "Ġcon",
        "f"
      ],
      [
        "Ġsc",
        "ience"
      ],
      [
        "ĠIm",
        "age"
      ],
      [
        "Ġde",
        "f"
      ],
      [
        "ĠQu",
        "antum"
      ],
      [
        "ĠAt",
        "tack"
      ],
      [
        "ĠUnder",
        "st"
      ],
      [
        "itect",
        "ure"
      ],
      [
        "b",
        "ed"
      ],
      [
        "u",
        "cle"
      ],
      [
        "ĠF",
        "ed"
      ],
      [
        "us",
        "ion"
      ],
      [
        "ub",
        "lish"
      ],
      [
        "201",
        "3"
      ],
      [
        "ough",
        "ts"
      ],
      [
        "ĠSec",
        "ret"
      ],
      [
        "angu",
        "ages"
      ],
      [
        "aj",
        "or"
      ],
      [
        "ĠP",
        "ort"
      ],
      [
        "Ġp",
        "rivacy"
      ],
      [
        "Ġpro",
        "cess"
      ],
      [
        "tern",
        "s"
      ],
      [
        "pr",
        "ise"
      ],
      [
        "ĠCont",
        "rol"
      ],
      [
        "ĠT",
        "ake"
      ],
      [
        "ĠR",
        "ight"
      ],
      [
        "am",
        "a"
      ],
      [
        "ĠO",
        "ptim"
      ],
      [
        "ad",
        "s"
      ],
      [
        "ĠWh",
        "ich"
      ],
      [
        "ĠAnal",
        "ytics"
      ],
      [
        "M",
        "S"
      ],
      [
        "ĠT",
        "ell"
      ],
      [
        "ic",
        "les"
      ],
      [
        "is",
        "co"
      ],
      [
        "Ġm",
        "aking"
      ],
      [
        "Ġg",
        "reat"
      ],
      [
        "Ġg",
        "row"
      ],
      [
        "ĠCh",
        "ange"
      ],
      [
        "ick",
        "s"
      ],
      [
        "ĠDe",
        "ad"
      ],
      [
        "Ġbuild",
        "ing"
      ],
      [
        "ah",
        "oo"
      ],
      [
        "ĠA",
        "R"
      ],
      [
        "ar",
        "ies"
      ],
      [
        "ĠC",
        "oll"
      ],
      [
        "Ġs",
        "w"
      ],
      [
        "ĠL",
        "ight"
      ],
      [
        "ut",
        "h"
      ],
      [
        "ĠPr",
        "act"
      ],
      [
        "rav",
        "el"
      ],
      [
        "oj",
        "ure"
      ],
      [
        "ĠH",
        "ol"
      ],
      [
        "Ġin",
        "ternet"
      ],
      [
        "am",
        "b"
      ],
      [
        "Ġh",
        "is"
      ],
      [
        "ab",
        "or"
      ],
      [
        "um",
        "ans"
      ],
      [
        "Ġ1",
        "5"
      ],
      [
        "ĠK",
        "ill"
      ],
      [
        "ĠDe",
        "p"
      ],
      [
        "Ġbl",
        "og"
      ],
      [
        "ĠComput",
        "ing"
      ],
      [
        "ĠAg",
        "ainst"
      ],
      [
        "Ġmod",
        "el"
      ],
      [
        "J",
        "S"
      ],
      [
        "s",
        "y"
      ],
      [
        "in",
        "y"
      ],
      [
        "ĠS",
        "ays"
      ],
      [
        "ĠA",
        "ccess"
      ],
      [
        "ĠM",
        "ade"
      ],
      [
        "ĠB",
        "as"
      ],
      [
        "ĠB",
        "ut"
      ],
      [
        "Ġb",
        "rain"
      ],
      [
        "Ġbe",
        "ing"
      ],
      [
        "ord",
        "er"
      ],
      [
        "Ġde",
        "al"
      ],
      [
        "ĠWork",
        "ing"
      ],
      [
        "Ġsu",
        "ccess"
      ],
      [
        "1",
        "1"
      ],
      [
        "ou",
        "th"
      ],
      [
        "is",
        "is"
      ],
      [
        "Ġb",
        "ank"
      ],
      [
        "ĠG",
        "erm"
      ],
      [
        "end",
        "er"
      ],
      [
        "Ġaut",
        "om"
      ],
      [
        "ĠLess",
        "ons"
      ],
      [
        "ĠS",
        "ervices"
      ],
      [
        "Ġc",
        "ost"
      ],
      [
        "Ġp",
        "ublic"
      ],
      [
        "pp",
        "ed"
      ],
      [
        "ĠInt",
        "elligence"
      ],
      [
        "ĠHack",
        "ers"
      ],
      [
        "T",
        "he"
      ],
      [
        "v",
        "iron"
      ],
      [
        "ĠI",
        "T"
      ],
      [
        "ĠR",
        "ad"
      ],
      [
        "Ġp",
        "ersonal"
      ],
      [
        "ĠV",
        "er"
      ],
      [
        "ĠV",
        "irtual"
      ],
      [
        "ab",
        "les"
      ],
      [
        "ĠEm",
        "ail"
      ],
      [
        "B",
        "M"
      ],
      [
        "P",
        "A"
      ],
      [
        "p",
        "ar"
      ],
      [
        "ĠR",
        "asp"
      ],
      [
        "om",
        "b"
      ],
      [
        "201",
        "8"
      ],
      [
        "ang",
        "o"
      ],
      [
        "Ġcont",
        "rol"
      ],
      [
        "it",
        "tle"
      ],
      [
        "ĠT",
        "urn"
      ],
      [
        "ĠP",
        "rom"
      ],
      [
        "Ġto",
        "o"
      ],
      [
        "Ġb",
        "ad"
      ],
      [
        "et",
        "er"
      ],
      [
        "ĠL",
        "at"
      ],
      [
        "Ġl",
        "ight"
      ],
      [
        "ak",
        "er"
      ],
      [
        "Ġis",
        "s"
      ],
      [
        "av",
        "or"
      ],
      [
        "Ġcl",
        "ass"
      ],
      [
        "Ġwork",
        "ing"
      ],
      [
        "Ġqu",
        "est"
      ],
      [
        "f",
        "act"
      ],
      [
        "s",
        "p"
      ],
      [
        "Ù",
        "Ĭ"
      ],
      [
        "ĠS",
        "umm"
      ],
      [
        "Ġf",
        "il"
      ],
      [
        "ĠH",
        "ar"
      ],
      [
        "ĠY",
        "ahoo"
      ],
      [
        "Ġpro",
        "jects"
      ],
      [
        "Ġstud",
        "y"
      ],
      [
        "ucle",
        "ar"
      ],
      [
        "1",
        "2"
      ],
      [
        "ĠW",
        "ould"
      ],
      [
        "ac",
        "ing"
      ],
      [
        "ate",
        "gy"
      ],
      [
        "201",
        "9"
      ],
      [
        "ĠSp",
        "ot"
      ],
      [
        "ĠWith",
        "out"
      ],
      [
        "ĠRasp",
        "berry"
      ],
      [
        "E",
        "R"
      ],
      [
        "ic",
        "y"
      ],
      [
        "Ġh",
        "and"
      ],
      [
        "ra",
        "st"
      ],
      [
        "eed",
        "back"
      ],
      [
        "Ġ201",
        "8"
      ],
      [
        "ĠSw",
        "ift"
      ],
      [
        "C",
        "h"
      ],
      [
        "ĠC",
        "ost"
      ],
      [
        "le",
        "ge"
      ],
      [
        "ĠB",
        "y"
      ],
      [
        "ĠE",
        "ffect"
      ],
      [
        "Ġm",
        "ic"
      ],
      [
        "oo",
        "st"
      ],
      [
        "ĠO",
        "per"
      ],
      [
        "un",
        "k"
      ],
      [
        "ĠRes",
        "p"
      ],
      [
        "19",
        "9"
      ],
      [
        "amp",
        "a"
      ],
      [
        "ĠGr",
        "oup"
      ],
      [
        "ĠSa",
        "aS"
      ],
      [
        "ĠI",
        "D"
      ],
      [
        "ĠD",
        "rop"
      ],
      [
        "ĠCh",
        "allen"
      ],
      [
        "ĠK",
        "n"
      ],
      [
        "Ġan",
        "t"
      ],
      [
        "Ġle",
        "t"
      ],
      [
        "Ġtr",
        "ack"
      ],
      [
        "ult",
        "ure"
      ],
      [
        "ĠChe",
        "ck"
      ],
      [
        "Ġmus",
        "ic"
      ],
      [
        "o",
        "ver"
      ],
      [
        "w",
        "h"
      ],
      [
        "ĠS",
        "he"
      ],
      [
        "ĠT",
        "ri"
      ],
      [
        "Ġm",
        "ess"
      ],
      [
        "ent",
        "al"
      ],
      [
        "ri",
        "ends"
      ],
      [
        "ĠV",
        "C"
      ],
      [
        "ect",
        "ion"
      ],
      [
        "Ġus",
        "er"
      ],
      [
        "Ġ201",
        "6"
      ],
      [
        "atter",
        "y"
      ],
      [
        "ĠCap",
        "ital"
      ],
      [
        "a",
        "ult"
      ],
      [
        "l",
        "ock"
      ],
      [
        "Ġt",
        "ra"
      ],
      [
        "at",
        "ure"
      ],
      [
        "ĠT",
        "er"
      ],
      [
        "Ġf",
        "iles"
      ],
      [
        "im",
        "es"
      ],
      [
        "Ġg",
        "ames"
      ],
      [
        "ĠSp",
        "ec"
      ],
      [
        "Ġhe",
        "alth"
      ],
      [
        "ĠCont",
        "ent"
      ],
      [
        "h",
        "n"
      ],
      [
        "ĠT",
        "ur"
      ],
      [
        "ĠC",
        "am"
      ],
      [
        "Ġw",
        "rong"
      ],
      [
        "ĠF",
        "ull"
      ],
      [
        "ill",
        "ance"
      ],
      [
        "ĠDis",
        "c"
      ],
      [
        "ourn",
        "al"
      ],
      [
        "ĠUb",
        "untu"
      ],
      [
        "ampa",
        "ign"
      ],
      [
        "A",
        "N"
      ],
      [
        "b",
        "ers"
      ],
      [
        "w",
        "es"
      ],
      [
        "ĠS",
        "ales"
      ],
      [
        "ĠP",
        "ersonal"
      ],
      [
        "Ġh",
        "istory"
      ],
      [
        "ĠV",
        "ent"
      ],
      [
        "Ġ1",
        "3"
      ],
      [
        "Ġan",
        "noun"
      ],
      [
        "Ġ201",
        "9"
      ],
      [
        "in",
        "ation"
      ],
      [
        "ĠT",
        "ax"
      ],
      [
        "ĠCy",
        "ber"
      ],
      [
        "ĠM",
        "ars"
      ],
      [
        "Ġs",
        "im"
      ],
      [
        "ĠB",
        "oot"
      ],
      [
        "ĠO",
        "ld"
      ],
      [
        "op",
        "h"
      ],
      [
        "Ġre",
        "l"
      ],
      [
        "oun",
        "ts"
      ],
      [
        "ĠBe",
        "hind"
      ],
      [
        "Ġ201",
        "7"
      ],
      [
        "eth",
        "od"
      ],
      [
        "Ġtw",
        "o"
      ],
      [
        "F",
        "i"
      ],
      [
        "I",
        "D"
      ],
      [
        "l",
        "er"
      ],
      [
        "m",
        "in"
      ],
      [
        "t",
        "r"
      ],
      [
        "ĠH",
        "er"
      ],
      [
        "ĠB",
        "reak"
      ],
      [
        "Ġp",
        "rom"
      ],
      [
        "om",
        "es"
      ],
      [
        "ill",
        "a"
      ],
      [
        "ang",
        "er"
      ],
      [
        "ĠCl",
        "ojure"
      ],
      [
        "Ġsh",
        "ow"
      ],
      [
        "ĠCan",
        "ad"
      ],
      [
        "red",
        "it"
      ],
      [
        "umb",
        "ers"
      ],
      [
        "Ġvis",
        "ual"
      ],
      [
        "C",
        "l"
      ],
      [
        "t",
        "he"
      ],
      [
        "Ġ",
        ":"
      ],
      [
        "Ġt",
        "ri"
      ],
      [
        "ĠS",
        "S"
      ],
      [
        "re",
        "w"
      ],
      [
        "Ġs",
        "ee"
      ],
      [
        "ĠR",
        "ich"
      ],
      [
        "ĠE",
        "asy"
      ],
      [
        "Ġst",
        "ory"
      ],
      [
        "Ġcont",
        "ent"
      ],
      [
        "ĠApplic",
        "ation"
      ],
      [
        "z",
        "e"
      ],
      [
        "Ġc",
        "ase"
      ],
      [
        "ĠB",
        "i"
      ],
      [
        "ĠE",
        "du"
      ],
      [
        "as",
        "ons"
      ],
      [
        "ĠPh",
        "ys"
      ],
      [
        "ĠMod",
        "ern"
      ],
      [
        "ĠRele",
        "ase"
      ],
      [
        "ĠUpd",
        "ate"
      ],
      [
        "A",
        "pp"
      ],
      [
        "P",
        "S"
      ],
      [
        "i",
        "ans"
      ],
      [
        "v",
        "es"
      ],
      [
        "er",
        "ious"
      ],
      [
        "Ġt",
        "ax"
      ],
      [
        "ĠD",
        "i"
      ],
      [
        "ĠF",
        "ix"
      ],
      [
        "am",
        "m"
      ],
      [
        "ri",
        "st"
      ],
      [
        "Ġg",
        "ets"
      ],
      [
        "ĠSh",
        "ort"
      ],
      [
        "ĠOff",
        "ice"
      ],
      [
        "i",
        "ant"
      ],
      [
        "ĠM",
        "al"
      ],
      [
        "ĠM",
        "ass"
      ],
      [
        "ĠD",
        "ark"
      ],
      [
        "Ġs",
        "ervices"
      ],
      [
        "Ġb",
        "etween"
      ],
      [
        "Ġd",
        "igital"
      ],
      [
        "ĠIn",
        "nov"
      ],
      [
        "ĠSt",
        "ock"
      ],
      [
        "Ġg",
        "ot"
      ],
      [
        "ĠRem",
        "ote"
      ],
      [
        "ĠPhot",
        "os"
      ],
      [
        "n",
        "d"
      ],
      [
        "on",
        "ym"
      ],
      [
        "at",
        "tle"
      ],
      [
        "en",
        "ed"
      ],
      [
        "ĠM",
        "illion"
      ],
      [
        "om",
        "eth"
      ],
      [
        "Ø§",
        "ÙĦ"
      ],
      [
        "Ġte",
        "am"
      ],
      [
        "Ġjob",
        "s"
      ],
      [
        "ar",
        "es"
      ],
      [
        "Ġs",
        "ay"
      ],
      [
        "ut",
        "ting"
      ],
      [
        "op",
        "s"
      ],
      [
        "Ġ201",
        "1"
      ],
      [
        "ĠHack",
        "ing"
      ],
      [
        "Ġres",
        "p"
      ],
      [
        "Ġav",
        "ailable"
      ],
      [
        "'",
        "m"
      ],
      [
        "c",
        "i"
      ],
      [
        "c",
        "ent"
      ],
      [
        "v",
        "ing"
      ],
      [
        "ĠT",
        "rain"
      ],
      [
        "Ġw",
        "on"
      ],
      [
        "ac",
        "le"
      ],
      [
        "ĠV",
        "iew"
      ],
      [
        "ill",
        "ions"
      ],
      [
        "ĠTe",
        "ach"
      ],
      [
        "ction",
        "al"
      ],
      [
        "ĠArt",
        "ificial"
      ],
      [
        "ĠAust",
        "ral"
      ],
      [
        "ometh",
        "ing"
      ],
      [
        "r",
        "ing"
      ],
      [
        "r",
        "ight"
      ],
      [
        "er",
        "al"
      ],
      [
        "Ġt",
        "rain"
      ],
      [
        "or",
        "g"
      ],
      [
        "Ġf",
        "ail"
      ],
      [
        "ĠH",
        "ouse"
      ],
      [
        "le",
        "ase"
      ],
      [
        "ĠP",
        "y"
      ],
      [
        "Ġw",
        "ants"
      ],
      [
        "ĠR",
        "est"
      ],
      [
        "od",
        "cast"
      ],
      [
        "oc",
        "ation"
      ],
      [
        "ap",
        "ers"
      ],
      [
        "201",
        "1"
      ],
      [
        "Ġsh",
        "ows"
      ],
      [
        "Ġk",
        "ill"
      ],
      [
        "anc",
        "ed"
      ],
      [
        "ĠNetwork",
        "s"
      ],
      [
        "iqu",
        "e"
      ],
      [
        "for",
        "ce"
      ],
      [
        "y",
        "ond"
      ],
      [
        "in",
        "o"
      ],
      [
        "ĠW",
        "all"
      ],
      [
        "Ġc",
        "ent"
      ],
      [
        "ĠG",
        "old"
      ],
      [
        "ct",
        "ions"
      ],
      [
        "ĠTh",
        "ree"
      ],
      [
        "ain",
        "t"
      ],
      [
        "ain",
        "ed"
      ],
      [
        "Ġbe",
        "fore"
      ],
      [
        "ond",
        "on"
      ],
      [
        "ĠInst",
        "agram"
      ],
      [
        "1",
        "00"
      ],
      [
        "E",
        "D"
      ],
      [
        "S",
        "P"
      ],
      [
        "S",
        "p"
      ],
      [
        "e",
        "ech"
      ],
      [
        "k",
        "e"
      ],
      [
        "m",
        "ost"
      ],
      [
        "ĠW",
        "i"
      ],
      [
        "ĠB",
        "ar"
      ],
      [
        "ĠWh",
        "ite"
      ],
      [
        "ĠCon",
        "nect"
      ],
      [
        "ĠSp",
        "eed"
      ],
      [
        "yp",
        "es"
      ],
      [
        "Ġide",
        "a"
      ],
      [
        "c",
        "omp"
      ],
      [
        "p",
        "ts"
      ],
      [
        "ĠS",
        "EO"
      ],
      [
        "ĠT",
        "oo"
      ],
      [
        "ĠM",
        "akes"
      ],
      [
        "ĠI",
        "BM"
      ],
      [
        "ĠB",
        "ay"
      ],
      [
        "is",
        "p"
      ],
      [
        "Ġm",
        "et"
      ],
      [
        "ec",
        "ut"
      ],
      [
        "ĠSt",
        "and"
      ],
      [
        "Ġpro",
        "gramm"
      ],
      [
        "ĠInt",
        "egr"
      ],
      [
        "Ġcl",
        "ient"
      ],
      [
        "ĠAut",
        "h"
      ],
      [
        "Ġtest",
        "ing"
      ],
      [
        "ĠAc",
        "qu"
      ],
      [
        "Ġind",
        "ustry"
      ],
      [
        "ĠEntreprene",
        "urs"
      ],
      [
        "ĠB",
        "ro"
      ],
      [
        "Ġb",
        "reak"
      ],
      [
        "Ġd",
        "atabase"
      ],
      [
        "ĠN",
        "ative"
      ],
      [
        "ĠRe",
        "ve"
      ],
      [
        "ĠK",
        "eep"
      ],
      [
        "omm",
        "end"
      ],
      [
        "Ġmanag",
        "ement"
      ],
      [
        "Q",
        "u"
      ],
      [
        "f",
        "ect"
      ],
      [
        "j",
        "ango"
      ],
      [
        "ĠC",
        "are"
      ],
      [
        "ĠC",
        "ore"
      ],
      [
        "ĠH",
        "ot"
      ],
      [
        "Ġc",
        "ount"
      ],
      [
        "ĠF",
        "B"
      ],
      [
        "Ġb",
        "an"
      ],
      [
        "ĠL",
        "ondon"
      ],
      [
        "os",
        "es"
      ],
      [
        "ock",
        "et"
      ],
      [
        "Ġsp",
        "ec"
      ],
      [
        "Ġde",
        "ad"
      ],
      [
        "ĠInd",
        "ustry"
      ],
      [
        "rypt",
        "ion"
      ],
      [
        "Ġgo",
        "ing"
      ],
      [
        "Ġsm",
        "all"
      ],
      [
        "Ġper",
        "formance"
      ],
      [
        "ild",
        "ren"
      ],
      [
        "ĠMult",
        "i"
      ],
      [
        "ĠBlock",
        "chain"
      ],
      [
        "ĠEver",
        "ything"
      ],
      [
        "s",
        "on"
      ],
      [
        "Ġ",
        "enc"
      ],
      [
        "ĠS",
        "now"
      ],
      [
        "ĠA",
        "st"
      ],
      [
        "ĠP",
        "and"
      ],
      [
        "ĠM",
        "L"
      ],
      [
        "ĠG",
        "al"
      ],
      [
        "oc",
        "r"
      ],
      [
        "Ġle",
        "ad"
      ],
      [
        "ual",
        "ly"
      ],
      [
        "Ġcl",
        "a"
      ],
      [
        "ĠSl",
        "ack"
      ],
      [
        "Ġac",
        "qu"
      ],
      [
        "ĠJo",
        "hn"
      ],
      [
        "3",
        "0"
      ],
      [
        "B",
        "ook"
      ],
      [
        "Ġ",
        "+"
      ],
      [
        "es",
        "p"
      ],
      [
        "Ġf",
        "ix"
      ],
      [
        "ĠW",
        "omen"
      ],
      [
        "ĠD",
        "atabase"
      ],
      [
        "ĠL",
        "ast"
      ],
      [
        "ĠL",
        "ibrary"
      ],
      [
        "Ġst",
        "e"
      ],
      [
        "ĠTr",
        "ack"
      ],
      [
        "ie",
        "f"
      ],
      [
        "Ġal",
        "gorith"
      ],
      [
        "ĠNe",
        "ver"
      ],
      [
        "Ġec",
        "onom"
      ],
      [
        "er",
        "gy"
      ],
      [
        "ĠM",
        "IT"
      ],
      [
        "Ġc",
        "al"
      ],
      [
        "ĠB",
        "rowser"
      ],
      [
        "im",
        "al"
      ],
      [
        "ĠSt",
        "ill"
      ],
      [
        "Ġn",
        "on"
      ],
      [
        "Ġre",
        "ally"
      ],
      [
        "Ġv",
        "ersion"
      ],
      [
        "ĠEn",
        "ter"
      ],
      [
        "Ġbe",
        "hind"
      ],
      [
        "Ġas",
        "k"
      ],
      [
        "ĠRed",
        "dit"
      ],
      [
        "ĠFr",
        "anc"
      ],
      [
        "Ġinter",
        "view"
      ],
      [
        "ogn",
        "ition"
      ],
      [
        "ĠG",
        "PU"
      ],
      [
        "us",
        "e"
      ],
      [
        "un",
        "e"
      ],
      [
        "Ġh",
        "ost"
      ],
      [
        "av",
        "es"
      ],
      [
        "ĠMic",
        "ro"
      ],
      [
        "ĠDown",
        "load"
      ],
      [
        "ĠCreat",
        "ing"
      ],
      [
        "wes",
        "ome"
      ],
      [
        "R",
        "e"
      ],
      [
        "d",
        "en"
      ],
      [
        "h",
        "ost"
      ],
      [
        "ĠS",
        "up"
      ],
      [
        "ĠB",
        "rit"
      ],
      [
        "Ġp",
        "ack"
      ],
      [
        "em",
        "ber"
      ],
      [
        "ĠJ",
        "ul"
      ],
      [
        "ĠAPI",
        "s"
      ],
      [
        "C",
        "C"
      ],
      [
        "S",
        "h"
      ],
      [
        "Ġ",
        "Ø"
      ],
      [
        "at",
        "ell"
      ],
      [
        "ĠC",
        "all"
      ],
      [
        "ĠM",
        "ap"
      ],
      [
        "Ġst",
        "ate"
      ],
      [
        "Ġe",
        "asy"
      ],
      [
        "Ġ1",
        "6"
      ],
      [
        "ĠPh",
        "il"
      ],
      [
        "ĠComm",
        "un"
      ],
      [
        "ĠTe",
        "le"
      ],
      [
        "ĠChe",
        "ap"
      ],
      [
        "ĠIP",
        "O"
      ],
      [
        "Ġ202",
        "1"
      ],
      [
        "ĠAf",
        "ric"
      ],
      [
        "ĠS",
        "outh"
      ],
      [
        "ar",
        "ed"
      ],
      [
        "ou",
        "ts"
      ],
      [
        "Ġto",
        "day"
      ],
      [
        "Ġw",
        "ritten"
      ],
      [
        "as",
        "ing"
      ],
      [
        "ĠU",
        "k"
      ],
      [
        "Ġh",
        "ere"
      ],
      [
        "Ġg",
        "raph"
      ],
      [
        "ra",
        "z"
      ],
      [
        "201",
        "2"
      ],
      [
        "ob",
        "e"
      ],
      [
        "ry",
        "ing"
      ],
      [
        "ĠDe",
        "al"
      ],
      [
        "Ġcom",
        "ing"
      ],
      [
        "Ġrem",
        "ote"
      ],
      [
        "Ġche",
        "ck"
      ],
      [
        "ĠUnderst",
        "anding"
      ],
      [
        "B",
        "ased"
      ],
      [
        "I",
        "N"
      ],
      [
        "o",
        "es"
      ],
      [
        "v",
        "el"
      ],
      [
        "ĠS",
        "ite"
      ],
      [
        "ĠM",
        "ind"
      ],
      [
        "il",
        "ities"
      ],
      [
        "ir",
        "ms"
      ],
      [
        "od",
        "es"
      ],
      [
        "oc",
        "urrency"
      ],
      [
        "Ġ1",
        "4"
      ],
      [
        "Ġat",
        "t"
      ],
      [
        "Ġwh",
        "ere"
      ],
      [
        "ib",
        "ility"
      ],
      [
        "Ġk",
        "eep"
      ],
      [
        "ĠGo",
        "vernment"
      ],
      [
        "ond",
        "s"
      ],
      [
        "ict",
        "ion"
      ],
      [
        "Ġbec",
        "ome"
      ],
      [
        "Ġgu",
        "ide"
      ],
      [
        "a",
        "ff"
      ],
      [
        "g",
        "a"
      ],
      [
        "l",
        "ight"
      ],
      [
        "n",
        "e"
      ],
      [
        "o",
        "on"
      ],
      [
        "it",
        "er"
      ],
      [
        "un",
        "ch"
      ],
      [
        "Ġst",
        "at"
      ],
      [
        "ast",
        "ic"
      ],
      [
        "Ġ201",
        "3"
      ],
      [
        "ĠReal",
        "ity"
      ],
      [
        "ĠNe",
        "ural"
      ],
      [
        "ĠAt",
        "t"
      ],
      [
        "O",
        "ps"
      ],
      [
        "t",
        "t"
      ],
      [
        "Ġ",
        "z"
      ],
      [
        "or",
        "se"
      ],
      [
        "ĠT",
        "utorial"
      ],
      [
        "ou",
        "ble"
      ],
      [
        "ĠP",
        "ack"
      ],
      [
        "Ġc",
        "oll"
      ],
      [
        "ĠB",
        "illion"
      ],
      [
        "ĠF",
        "ive"
      ],
      [
        "ly",
        "ing"
      ],
      [
        "ens",
        "or"
      ],
      [
        "ĠAr",
        "m"
      ],
      [
        "ene",
        "f"
      ],
      [
        "Ġlear",
        "ned"
      ],
      [
        "ĠAng",
        "ular"
      ],
      [
        "e",
        "el"
      ],
      [
        "y",
        "ear"
      ],
      [
        "ĠC",
        "S"
      ],
      [
        "ĠD",
        "etect"
      ],
      [
        "ĠF",
        "ight"
      ],
      [
        "Ġd",
        "ays"
      ],
      [
        "ail",
        "y"
      ],
      [
        "ug",
        "h"
      ],
      [
        "Ġ201",
        "5"
      ],
      [
        "ffic",
        "ient"
      ],
      [
        "acc",
        "ine"
      ],
      [
        "Ġrob",
        "ot"
      ],
      [
        "ĠCour",
        "t"
      ],
      [
        "avor",
        "ite"
      ],
      [
        "2",
        "1"
      ],
      [
        "e",
        "et"
      ],
      [
        "n",
        "ot"
      ],
      [
        "r",
        "is"
      ],
      [
        "in",
        "ter"
      ],
      [
        "ĠS",
        "qu"
      ],
      [
        "ĠS",
        "ee"
      ],
      [
        "ĠT",
        "em"
      ],
      [
        "ĠC",
        "I"
      ],
      [
        "ĠC",
        "PU"
      ],
      [
        "Ġc",
        "our"
      ],
      [
        "ĠF",
        "il"
      ],
      [
        "ĠF",
        "all"
      ],
      [
        "Ġst",
        "op"
      ],
      [
        "ĠEn",
        "ergy"
[...]
