{
  "version": "1.0",
  "truncation": null,
  "padding": null,
  "added_tokens": [
    {
      "id": 0,
      "content": "<pad>",
      "single_word": false,
      "lstrip": false,
      "rstrip": false,
      "normalized": false,
      "special": true
    },
    {
      "id": 1,
      "content": "<eos>",
      "single_word": false,
      "lstrip": false,
      "rstrip": false,
      "normalized": false,
      "special": true
    },
    {
      "id": 2,
      "content": "<unk>",
      "single_word": false,
      "lstrip": false,
      "rstrip": false,
      "normalized": false,
      "special": true
    }
  ],
  "normalizer": null,
  "pre_tokenizer": {
    "type": "ByteLevel",
    "add_prefix_space": true,
    "trim_offsets": true,
    "use_regex": true
  },
  "post_processor": null,
  "decoder": {
    "type": "ByteLevel",
    "add_prefix_space": true,
    "trim_offsets": true,
    "use_regex": true
  },
  "model": {
    "type": "BPE",
    "dropout": null,
    "unk_token": "<unk>",
    "continuing_subword_prefix": null,
    "end_of_word_suffix": null,
    "fuse_unk": false,
    "byte_fallback": false,
    "ignore_merges": false,
    "vocab": {
      "<pad>": 0,
      "<eos>": 1,
      "<unk>": 2,
      "!": 3,
      "\"": 4,
      "#": 5,
      "$": 6,
      "%": 7,
      "&": 8,
      "'": 9,
      "(": 10,
      ")": 11,
      "*": 12,
      "+": 13,
      ",": 14,
      "-": 15,
      ".": 16,
      "/": 17,
      "0": 18,
      "1": 19,
      "2": 20,
      "3": 21,
      "4": 22,
      "5": 23,
      "6": 24,
      "7": 25,
      "8": 26,
      "9": 27,
      ":": 28,
      ";": 29,
      "<": 30,
      "=": 31,
      ">": 32,
      "?": 33,
      "@": 34,
      "A": 35,
      "B": 36,
      "C": 37,
      "D": 38,
      "E": 39,
      "F": 40,
      "G": 41,
      "H": 42,
      "I": 43,
      "J": 44,
      "K": 45,
      "L": 46,
      "M": 47,
      "N": 48,
      "O": 49,
      "P": 50,
      "Q": 51,
      "R": 52,
      "S": 53,
      "T": 54,
      "U": 55,
      "V": 56,
      "W": 57,
      "X": 58,
      "Y": 59,
      "Z": 60,
      "[": 61,
      "\\": 62,
      "]": 63,
      "^": 64,
      "_": 65,
      "`": 66,
      "a": 67,
      "b": 68,
      "c": 69,
      "d": 70,
      "e": 71,
      "f": 72,
      "g": 73,
      "h": 74,
      "i": 75,
      "j": 76,
      "k": 77,
      "l": 78,
      "m": 79,
      "n": 80,
      "o": 81,
      "p": 82,
      "q": 83,
      "r": 84,
      "s": 85,
      "t": 86,
      "u": 87,
      "v": 88,
      "w": 89,
      "x": 90,
      "y": 91,
      "z": 92,
      "{": 93,
      "|": 94,
      "}": 95,
      "~": 96,
      "¡": 97,
      "¢": 98,
      "£": 99,
      "¤": 100,
      "¥": 101,
      "¦": 102,
      "§": 103,
      "¨": 104,
      "©": 105,
      "ª": 106,
      "«": 107,
      "¬": 108,
      "®": 109,
      "¯": 110,
      "°": 111,
      "±": 112,
      "²": 113,
      "³": 114,
      "´": 115,
      "µ": 116,
      "¶": 117,
      "·": 118,
      "¸": 119,
      "¹": 120,
      "º": 121,
      "»": 122,
      "¼": 123,
      "½": 124,
      "¾": 125,
      "¿": 126,
      "Â": 127,
      "Ã": 128,
      "Ä": 129,
      "Å": 130,
      "Æ": 131,
      "É": 132,
      "Ê": 133,
      "Ì": 134,
      "Í": 135,
      "Î": 136,
      "Ï": 137,
      "Ð": 138,
      "Ñ": 139,
      "×": 140,
      "Ø": 141,
      "Ù": 142,
      "Ú": 143,
      "Û": 144,
      "à": 145,
      "á": 146,
      "â": 147,
      "ã": 148,
      "ä": 149,
      "å": 150,
      "æ": 151,
      "ç": 152,
      "è": 153,
      "é": 154,
      "ê": 155,
      "ë": 156,
      "ì": 157,
      "ï": 158,
      "ð": 159,
      "ĉ": 160,
      "Ġ": 161,
      "Ģ": 162,
      "ģ": 163,
      "Ĥ": 164,
      "ĥ": 165,
      "Ħ": 166,
      "ħ": 167,
      "Ĩ": 168,
      "ĩ": 169,
      "Ī": 170,
      "ī": 171,
      "Ĭ": 172,
      "ĭ": 173,
      "Į": 174,
      "į": 175,
      "İ": 176,
      "ı": 177,
      "Ĳ": 178,
      "ĳ": 179,
      "Ĵ": 180,
      "ĵ": 181,
      "Ķ": 182,
      "ķ": 183,
      "ĸ": 184,
      "Ĺ": 185,
      "ĺ": 186,
      "Ļ": 187,
      "ļ": 188,
      "Ľ": 189,
      "ľ": 190,
      "Ŀ": 191,
      "ŀ": 192,
      "Ł": 193,
      "ł": 194,
      "Ń": 195,
      "in": 196,
      "er": 197,
      "on": 198,
      "Ġt": 199,
      "an": 200,
      "es": 201,
      "or": 202,
      "at": 203,
      "ĠS": 204,
      "ĠA": 205,
      "ing": 206,
      "en": 207,
      "ar": 208,
      "it": 209,
      "ĠT": 210,
      "he": 211,
      "ĠC": 212,
      "al": 213,
      "ou": 214,
      "st": 215,
      "re": 216,
      "Ġf": 217,
      "ĠH": 218,
      "le": 219,
      "ĠP": 220,
      "Ġa": 221,
      "ic": 222,
      "ĠM": 223,
      "ro": 224,
      "ĠW": 225,
      "ĠI": 226,
      "Ġto": 227,
      "ed": 228,
      "ĠD": 229,
      "Ġs": 230,
      "Ġc": 231,
      "ĠB": 232,
      "Ġw": 233,
      "Ġo": 234,
      "ion": 235,
      "ac": 236,
      "ow": 237,
      "is": 238,
      "ĠF": 239,
      "ĠR": 240,
      "Ġthe": 241,
      "Ġin": 242,
      "âĢ": 243,
      "and": 244,
      "Ġb": 245,
      "Ġp": 246,
      "et": 247,
      "om": 248,
      "ĠG": 249,
      "Ġof": 250,
      "il": 251,
      "Ġd": 252,
      "ĠL": 253,
      "ĠE": 254,
      "Ġm": 255,
      "ent": 256,
      "ec": 257,
      "el": 258,
      "as": 259,
      "Ġfor": 260,
      "ĠN": 261,
      "Ġand": 262,
      "oo": 263,
      "id": 264,
      "ers": 265,
      "am": 266,
      "ĠO": 267,
      "ig": 268,
      "ĠThe": 269,
      "ut": 270,
      "ve": 271,
      "ĠU": 272,
      "ol": 273,
      "us": 274,
      "ot": 275,
      "pp": 276,
      "our": 277,
      "ter": 278,
      "ĠIn": 279,
      "ur": 280,
      "ith": 281,
      "ad": 282,
      "ĠâĢ": 283,
      "im": 284,
      "ay": 285,
      "ch": 286,
      "ĠHN": 287,
      "ation": 288,
      "Ġon": 289,
      "ĠSt": 290,
      "ĠWh": 291,
      "Ġl": 292,
      "un": 293,
      "Ġh": 294,
      "ew": 295,
      "Ġn": 296,
      "ir": 297,
      "ag": 298,
      "Ġy": 299,
      "ce": 300,
      "est": 301,
      "Ġwith": 302,
      "ess": 303,
      "em": 304,
      "âĢĻ": 305,
      "ri": 306,
      "op": 307,
      "Ġg": 308,
      "art": 309,
      "ver": 310,
      "Ġ(": 311,
      "ul": 312,
      "Ġre": 313,
      "20": 314,
      "ack": 315,
      "eb": 316,
      "ak": 317,
      "od": 318,
      "'s": 319,
      "ĠV": 320,
      "ra": 321,
      "ĠHow": 322,
      "ĠSh": 323,
      "ĠY": 324,
      "ĠâĢĵ": 325,
      "oc": 326,
      "ear": 327,
      "ĠAs": 328,
      "ab": 329,
      "ĠJ": 330,
      "ĠRe": 331,
      "Ġst": 332,
      "up": 333,
      "ct": 334,
      "ly": 335,
      "ĠAn": 336,
      "th": 337,
      "are": 338,
      "ts": 339,
      "rom": 340,
      "Ġe": 341,
      "ity": 342,
      "ate": 343,
      "Ġis": 344,
      "um": 345,
      "ist": 346,
      "ĠAsk": 347,
      "if": 348,
      "ill": 349,
      "ld": 350,
      "os": 351,
      "Ġth": 352,
      "omp": 353,
      "ine": 354,
      "ĠPro": 355,
      "ive": 356,
      "pt": 357,
      "Ġ1": 358,
      "ĠCh": 359,
      "Ġv": 360,
      "ook": 361,
      "ork": 362,
      "ect": 363,
      "ide": 364,
      "ĠTh": 365,
      "ĠK": 366,
      "ub": 367,
      "oun": 368,
      "out": 369,
      "igh": 370,
      "og": 371,
      "ĠApp": 372,
      "Ġan": 373,
      "ap": 374,
      "ure": 375,
      "Ġpro": 376,
      "Ġr": 377,
      "ĠShow": 378,
      "ev": 379,
      "ment": 380,
      "ĠIs": 381,
      "201": 382,
      "ust": 383,
      "ob": 384,
      "ies": 385,
      "all": 386,
      "one": 387,
      "ĠGoo": 388,
      "pl": 389,
      "ang": 390,
      "Ġfrom": 391,
      "ĠWhat": 392,
      "ore": 393,
      "ain": 394,
      "ia": 395,
      "gle": 396,
      "ial": 397,
      "av": 398,
      "age": 399,
      "Ġyou": 400,
      "end": 401,
      "Ġyour": 402,
      "ost": 403,
      "of": 404,
      "ast": 405,
      "ĠGoogle": 406,
      "ind": 407,
      "ard": 408,
      "qu": 409,
      "ĠCon": 410,
      "ĠNew": 411,
      "gr": 412,
      "iv": 413,
      "ech": 414,
      "ort": 415,
      "ip": 416,
      "ĠWhy": 417,
      "ail": 418,
      "ell": 419,
      "ee": 420,
      "Ġus": 421,
      "ry": 422,
      "Ġat": 423,
      "iz": 424,
      "ant": 425,
      "act": 426,
      "ign": 427,
      "ĠEn": 428,
      "ff": 429,
      "ice": 430,
      "ĠEx": 431,
      "se": 432,
      "Ġbe": 433,
      "ight": 434,
      "Ġit": 435,
      "Ġ-": 436,
      "ould": 437,
      "orm": 438,
      "ite": 439,
      "Ġby": 440,
      "ans": 441,
      "ĠSp": 442,
      "ock": 443,
      "ata": 444,
      "du": 445,
      "pen": 446,
      "oft": 447,
      "able": 448,
      "ĠComp": 449,
      "ark": 450,
      "ĠSc": 451,
      "ex": 452,
      "Ġcon": 453,
      "uil": 454,
      "ĠOn": 455,
      "Ġas": 456,
      "ions": 457,
      "00": 458,
      "ode": 459,
      "ĠUn": 460,
      "ĠCl": 461,
      "ake": 462,
      "Ġwh": 463,
      "ud": 464,
      "ile": 465,
      "ence": 466,
      "ik": 467,
      "ov": 468,
      "evel": 469,
      "ĠBe": 470,
      "Ġex": 471,
      "ace": 472,
      "ire": 473,
      "ome": 474,
      "Ġsh": 475,
      "ĠTr": 476,
      "ass": 477,
      "ning": 478,
      "ib": 479,
      "Ġ[": 480,
      "ord": 481,
      "tern": 482,
      "artup": 483,
      "ound": 484,
      "evelop": 485,
      "ree": 486,
      "ĠAm": 487,
      "ere": 488,
      "Ġdo": 489,
      "Ġle": 490,
      "ĠAl": 491,
      "Ġ2": 492,
      "Ġapp": 493,
      "ĠWeb": 494,
      "Ġ$": 495,
      "ph": 496,
      "ach": 497,
      "Ġch": 498,
      "Ġ3": 499,
      "ĠYou": 500,
      "ge": 501,
      "per": 502,
      "Ġcomp": 503,
      "ave": 504,
      "ware": 505,
      "ics": 506,
      "Ġnew": 507,
      "ime": 508,
      "ical": 509,
      "Ġi": 510,
      "reat": 511,
      "Ġare": 512,
      "ĠYour": 513,
      "ase": 514,
      "gram": 515,
      "eed": 516,
      "iew": 517,
      "bout": 518,
      "cc": 519,
      "uild": 520,
      "ĠPl": 521,
      "ug": 522,
      "form": 523,
      "ory": 524,
      "ame": 525,
      "ber": 526,
      "omm": 527,
      "ance": 528,
      "ens": 529,
      "Ġk": 530,
      "ĠAr": 531,
      "ĠApple": 532,
      "ĠUs": 533,
      "own": 534,
      "earch": 535,
      "erv": 536,
      "ĠAd": 537,
      "orld": 538,
      "Ġ201": 539,
      "yst": 540,
      "ebook": 541,
      "ros": 542,
      "ual": 543,
      "ĠFac": 544,
      "row": 545,
      "esign": 546,
      "Ġpl": 547,
      "ĠQ": 548,
      "ĠBl": 549,
      "ous": 550,
      "ting": 551,
      "âĢĿ": 552,
      "ĠâĢľ": 553,
      "Ġ'": 554,
      "ideo": 555,
      "ĠInt": 556,
      "ays": 557,
      "co": 558,
      "ors": 559,
      "ĠTw": 560,
      "enc": 561,
      "ary": 562,
      "Ġj": 563,
      "ick": 564,
      "ations": 565,
      "cri": 566,
      "ink": 567,
      "ron": 568,
      "Ġthat": 569,
      "duct": 570,
      "riv": 571,
      "Ġcl": 572,
      "ĠCan": 573,
      "ĠFacebook": 574,
      "pr": 575,
      "yth": 576,
      "ĠDe": 577,
      "ue": 578,
      "view": 579,
      "Ġint": 580,
      "irst": 581,
      "ĠDo": 582,
      "Ġun": 583,
      "Ġsp": 584,
      "ased": 585,
      "ĠOpen": 586,
      "ĠTech": 587,
      "ĠPr": 588,
      "ets": 589,
      "ient": 590,
      "imp": 591,
      "ian": 592,
      "Ġor": 593,
      "ĠAnd": 594,
      "Ġtr": 595,
      "az": 596,
      "ix": 597,
      "ys": 598,
      "ext": 599,
      "ult": 600,
      "ike": 601,
      "Ġ5": 602,
      "cript": 603,
      "ĠMic": 604,
      "Ġsc": 605,
      "Ġhe": 606,
      "gramm": 607,
      "ĠTo": 608,
      "ystem": 609,
      "ĠIm": 610,
      "line": 611,
      "ource": 612,
      "ĠIt": 613,
      "lic": 614,
      "oftware": 615,
      "Ġnot": 616,
      "ash": 617,
      "gh": 618,
      "Ġcan": 619,
      "'t": 620,
      "ĠAre": 621,
      "ck": 622,
      "ool": 623,
      "ject": 624,
      "ath": 625,
      "pd": 626,
      "Ġ20": 627,
      "hone": 628,
      "ons": 629,
      "ows": 630,
      "Ġweb": 631,
      "iness": 632,
      "Ġde": 633,
      "lect": 634,
      "ĠData": 635,
      "ĠFor": 636,
      "etw": 637,
      "ble": 638,
      "ough": 639,
      "ĠLe": 640,
      "Ġad": 641,
      "ated": 642,
      "rit": 643,
      "io": 644,
      "ie": 645,
      "Ġup": 646,
      "ĠJav": 647,
      "aw": 648,
      "gine": 649,
      "ĠWe": 650,
      "ood": 651,
      "ĠMan": 652,
      "ings": 653,
      "ĠNot": 654,
      "ox": 655,
      "Ġwork": 656,
      "Ġabout": 657,
      "der": 658,
      "ĠRes": 659,
      "ener": 660,
      "ĠStartup": 661,
      "olog": 662,
      "ĠGo": 663,
      "ating": 664,
      "pe": 665,
      "aun": 666,
      "usiness": 667,
      "ĠUS": 668,
      "ĠLear": 669,
      "ĠJava": 670,
      "ey": 671,
      "ĠSec": 672,
      "ower": 673,
      "ish": 674,
      "ern": 675,
      "ices": 676,
      "Ġ4": 677,
      "ĠQu": 678,
      "ĠAI": 679,
      "ĠDevelop": 680,
      "ade": 681,
      "oy": 682,
      "oud": 683,
      "ĠChin": 684,
      "any": 685,
      "fer": 686,
      "oll": 687,
      "ĠEm": 688,
      "ternet": 689,
      "ps": 690,
      "OS": 691,
      "ĠBuild": 692,
      "ise": 693,
      "ĠiP": 694,
      "itter": 695,
      "ĠZ": 696,
      "ong": 697,
      "Ġdata": 698,
      "ĠMicros": 699,
      "ents": 700,
      "ĠâĢĺ": 701,
      "ĠWork": 702,
      "ĠInd": 703,
      "ĠHack": 704,
      "ux": 705,
      "very": 706,
      "aking": 707,
      "Ġsu": 708,
      "rain": 709,
      "rypt": 710,
      "Ġinto": 711,
      "raph": 712,
      "app": 713,
      "ĠPh": 714,
      "ative": 715,
      "ience": 716,
      "roid": 717,
      "ĠDis": 718,
      "ĠCont": 719,
      "ars": 720,
      "ank": 721,
      "ates": 722,
      "ĠMy": 723,
      "ĠFl": 724,
      "eop": 725,
      "atch": 726,
      "Ġem": 727,
      "ax": 728,
      "ĠTwitter": 729,
      "Script": 730,
      "Ġover": 731,
      "Ġal": 732,
      "etwork": 733,
      "port": 734,
      "ital": 735,
      "urity": 736,
      "ython": 737,
      "aunch": 738,
      "ll": 739,
      "angu": 740,
      "PI": 741,
      "ram": 742,
      "Ġen": 743,
      "now": 744,
      "eople": 745,
      "ĠMicrosoft": 746,
      "ocial": 747,
      "ition": 748,
      "ĠWorld": 749,
      "Ġwe": 750,
      "Ġdevelop": 751,
      "fter": 752,
      "pdf": 753,
      "ric": 754,
      "ife": 755,
      "ond": 756,
      "anc": 757,
      "ution": 758,
      "ĠDesign": 759,
      "ru": 760,
      "its": 761,
      "Ġres": 762,
      "arket": 763,
      "gramming": 764,
      "ĠAmaz": 765,
      "ator": 766,
      "yn": 767,
      "int": 768,
      "ĠAndroid": 769,
      "les": 770,
      "Ġtech": 771,
      "ĠSu": 772,
      "obile": 773,
      "eek": 774,
      "und": 775,
      "Ġstartup": 776,
      "ĠX": 777,
      "ific": 778,
      "Ġbl": 779,
      "fl": 780,
      "Ġout": 781,
      "eep": 782,
      "ms": 783,
      "Ġcont": 784,
      "old": 785,
      "ĠLin": 786,
      "ages": 787,
      "acy": 788,
      "iss": 789,
      "ale": 790,
      "com": 791,
      "ĠMe": 792,
      "19": 793,
      "Ġ10": 794,
      "etter": 795,
      "Ġpr": 796,
      "ĠInternet": 797,
      "ĠAmazon": 798,
      "ures": 799,
      "als": 800,
      "ĠInter": 801,
      "red": 802,
      "ists": 803,
      "Ġvs": 804,
      "elf": 805,
      "ccess": 806,
      "ears": 807,
      "ĠAPI": 808,
      "ene": 809,
      "akes": 810,
      "Ġwill": 811,
      "ĠGet": 812,
      "ĠPython": 813,
      "arg": 814,
      "ĠFree": 815,
      "Ġusing": 816,
      "ĠWind": 817,
      "ĠNo": 818,
      "ful": 819,
      "Ġqu": 820,
      "Ġopen": 821,
      "ĠBit": 822,
      "ĠRec": 823,
      "uture": 824,
      "ĠMod": 825,
      "Ġits": 826,
      "Ġmy": 827,
      "urn": 828,
      "Ġuse": 829,
      "ange": 830,
      "Ġall": 831,
      "Ġhas": 832,
      "Ġhave": 833,
      "ĠReal": 834,
      "ility": 835,
      "ĠChina": 836,
      "erm": 837,
      "ĠComm": 838,
      "ĠComput": 839,
      "ĠOr": 840,
      "Ġsec": 841,
      "Ġdis": 842,
      "ĠTe": 843,
      "let": 844,
      "Ġme": 845,
      "ĠNe": 846,
      "ĠGu": 847,
      "imple": 848,
      "led": 849,
      "ĠWith": 850,
      "ology": 851,
      "ĠUsing": 852,
      "ĠAut": 853,
      "eric": 854,
      "Ġmore": 855,
      "ount": 856,
      "ĠGit": 857,
      "Ġnow": 858,
      "ĠHe": 859,
      "ĠOff": 860,
      "ĠAt": 861,
      "Ġ\"": 862,
      "Ġlear": 863,
      "wn": 864,
      "Ġ7": 865,
      "Ġag": 866,
      "ĠSm": 867,
      "ĠJavaScript": 868,
      "ency": 869,
      "ĠLinux": 870,
      "ins": 871,
      "alk": 872,
      "ict": 873,
      "ĠWindows": 874,
      "Ġro": 875,
      "edia": 876,
      "ream": 877,
      "ĠThat": 878,
      "anguage": 879,
      "Ġget": 880,
      "js": 881,
      "els": 882,
      "ĠSoftware": 883,
      "oad": 884,
      "ction": 885,
      "ĠAmeric": 886,
      "Ġgo": 887,
      "ner": 888,
      "ĠVal": 889,
      "ement": 890,
      "eth": 891,
      "vest": 892,
      "Ġfirst": 893,
      "Ġhow": 894,
      "ervice": 895,
      "ces": 896,
      "ĠOut": 897,
      "vent": 898,
      "Ġ6": 899,
      "ails": 900,
      "eat": 901,
      "ĠCode": 902,
      "Ġoff": 903,
      "..": 904,
      "oard": 905,
      "ich": 906,
      "ĠWill": 907,
      "ĠSw": 908,
      "Ġman": 909,
      "ĠCloud": 910,
      "ĠFirst": 911,
      "video": 912,
      "atform": 913,
      "Ġrec": 914,
      "ĠRed": 915,
      "ĠOne": 916,
      "ames": 917,
      "ĠEngine": 918,
      "hed": 919,
      "ments": 920,
      "ĠLearning": 921,
      "Ġbuild": 922,
      "ĠUp": 923,
      "coin": 924,
      "ĠAg": 925,
      "ĠMus": 926,
      "achine": 927,
      "ploy": 928,
      "uss": 929,
      "ĠiPhone": 930,
      "con": 931,
      "pport": 932,
      "ines": 933,
      "amp": 934,
      "ips": 935,
      "cl": 936,
      "ally": 937,
      "ove": 938,
      "ĠPart": 939,
      "ĠAll": 940,
      "ering": 941,
      "ĠBusiness": 942,
      "Ġ8": 943,
      "orn": 944,
      "Ġworld": 945,
      "EO": 946,
      "ĠAbout": 947,
      "ĠHT": 948,
      "ects": 949,
      "ft": 950,
      "ĠPer": 951,
      "ĠBig": 952,
      "ok": 953,
      "olution": 954,
      "ĠSte": 955,
      "SS": 956,
      "ĠMon": 957,
      "ism": 958,
      "illion": 959,
      "ĠBest": 960,
      "ular": 961,
      "ĠCom": 962,
      "ustom": 963,
      "ĠSystem": 964,
      "oss": 965,
      "QL": 966,
      "Ġmod": 967,
      "ote": 968,
      "SA": 969,
      "ĠAir": 970,
      "Ġtool": 971,
      "ĠBitcoin": 972,
      "ĠMore": 973,
      "ĠGr": 974,
      "af": 975,
      "ities": 976,
      "ible": 977,
      "ites": 978,
      "ivers": 979,
      "ious": 980,
      "rows": 981,
      "ĠBr": 982,
      "Ġcode": 983,
      "ĠEl": 984,
      "ĠDon": 985,
      "erson": 986,
      "ĠOnline": 987,
      "cing": 988,
      "ery": 989,
      "erver": 990,
      "ĠFr": 991,
      "ĠThis": 992,
      "ĠTechn": 993,
      "Ġar": 994,
      "Ġinter": 995,
      "Ġwhat": 996,
      "ĠIns": 997,
      "ibr": 998,
      "ely": 999,
      "ĠHas": 1000,
      "200": 1001,
      "ose": 1002,
      "Ġtest": 1003,
      "ater": 1004,
      "Ġhack": 1005,
      "ull": 1006,
      "ĠAnal": 1007,
      "Ġmake": 1008,
      "ĠTest": 1009,
      "Ġrele": 1010,
      "ĠNews": 1011,
      "ese": 1012,
      "alth": 1013,
      "Ġdown": 1014,
      "Ġthan": 1015,
      "ĠSe": 1016,
      "Ġbut": 1017,
      "ĠStud": 1018,
      "ĠCol": 1019,
      "ĠSur": 1020,
      "ĠVis": 1021,
      "less": 1022,
      "Ġ&": 1023,
      "tack": 1024,
      "Ġtime": 1025,
      "ĠProduct": 1026,
      "Ġhel": 1027,
      "Ø§": 1028,
      "ĠPre": 1029,
      "ral": 1030,
      "ĠMac": 1031,
      "ĠiOS": 1032,
      "ĠArt": 1033,
      "gy": 1034,
      "site": 1035,
      "uy": 1036,
      "Ġsoftware": 1037,
      "ization": 1038,
      "rough": 1039,
      "itor": 1040,
      "Ġcomm": 1041,
      "Ġafter": 1042,
      "ert": 1043,
      "ĠDec": 1044,
      "rib": 1045,
      "ovid": 1046,
      "ĠIntro": 1047,
      "ĠImp": 1048,
      "yp": 1049,
      "ĠSocial": 1050,
      "Ġone": 1051,
      "ĠTime": 1052,
      "uman": 1053,
      "igital": 1054,
      "ĠBuilding": 1055,
      "oot": 1056,
      "ĠInst": 1057,
      "ants": 1058,
      "ĠNow": 1059,
      "Ġshould": 1060,
      "ĠProgramming": 1061,
      "ress": 1062,
      "Ġph": 1063,
      "ĠOb": 1064,
      "ĠWho": 1065,
      "ĠTop": 1066,
      "Ġpeople": 1067,
      "oney": 1068,
      "ĠMake": 1069,
      "Ġsystem": 1070,
      "000": 1071,
      "tle": 1072,
      "ots": 1073,
      "cess": 1074,
      "ley": 1075,
      "ends": 1076,
      "hip": 1077,
      "ĠCovid": 1078,
      "Ġsm": 1079,
      "ĠNetwork": 1080,
      "ĠShould": 1081,
      "ype": 1082,
      "ĠSearch": 1083,
      "ret": 1084,
      "aster": 1085,
      "ĠGl": 1086,
      "urr": 1087,
      "Ġdesign": 1088,
      "noun": 1089,
      "arm": 1090,
      "ĠChe": 1091,
      "ĠMarket": 1092,
      "Ġlike": 1093,
      "uck": 1094,
      "ĠHel": 1095,
      "Ġthis": 1096,
      "ooks": 1097,
      "reate": 1098,
      "Ġany": 1099,
      "Ġproduct": 1100,
      "Ġneed": 1101,
      "ĠRele": 1102,
      "itch": 1103,
      "ĠCr": 1104,
      "rome": 1105,
      "la": 1106,
      "ĠMin": 1107,
      "ĠWhen": 1108,
      "ands": 1109,
      "ĠSil": 1110,
      "ĠOver": 1111,
      "ĠTrans": 1112,
      "ĠTool": 1113,
      "vers": 1114,
      "ML": 1115,
      "read": 1116,
      "uper": 1117,
      "ives": 1118,
      "ize": 1119,
      "Ġte": 1120,
      "ĠEv": 1121,
      "Ġ|": 1122,
      "Ġper": 1123,
      "ger": 1124,
      "ases": 1125,
      "ĠJob": 1126,
      "ĠManag": 1127,
      "ĠSl": 1128,
      "rol": 1129,
      "ational": 1130,
      "ĠDoes": 1131,
      "Hub": 1132,
      "Ġ9": 1133,
      "Ġback": 1134,
      "oth": 1135,
      "Ġdoes": 1136,
      "Ġfl": 1137,
      "Ġfree": 1138,
      "ams": 1139,
      "Ġim": 1140,
      "ĠCal": 1141,
      "ĠPost": 1142,
      "ĠGame": 1143,
      "ublic": 1144,
      "ĠRob": 1145,
      "ĠReact": 1146,
      "pos": 1147,
      "Ġaut": 1148,
      "Ġcould": 1149,
      "ainst": 1150,
      "ĠEd": 1151,
      "ĠSecurity": 1152,
      "ĠDev": 1153,
      "Ġcom": 1154,
      "uring": 1155,
      "Ġacc": 1156,
      "ĠMobile": 1157,
      "rivacy": 1158,
      "ier": 1159,
      "icon": 1160,
      "ĠHigh": 1161,
      "ify": 1162,
      "ĠCons": 1163,
      "anies": 1164,
      "Ġso": 1165,
      "ĠRuss": 1166,
      "Ġimp": 1167,
      "Ġsource": 1168,
      "ural": 1169,
      "ĠBack": 1170,
      "Ġbusiness": 1171,
      "ized": 1172,
      "uilt": 1173,
      "ĠSol": 1174,
      "ĠVideo": 1175,
      "ĠExpl": 1176,
      "ĠGener": 1177,
      "ident": 1178,
      "ym": 1179,
      "ervices": 1180,
      "ĠFuture": 1181,
      "ned": 1182,
      "ĠDown": 1183,
      "ĠFire": 1184,
      "ĠFound": 1185,
      "eta": 1186,
      "air": 1187,
      "ĠSo": 1188,
      "reak": 1189,
      "Ġway": 1190,
      "Ġlaunch": 1191,
      "ĠPol": 1192,
      "ube": 1193,
      "ĠRem": 1194,
      "irt": 1195,
      "ĠFrom": 1196,
      "uro": 1197,
      "atter": 1198,
      "ruct": 1199,
      "ied": 1200,
      "ĠUse": 1201,
      "unt": 1202,
      "ĠCar": 1203,
      "Ġreal": 1204,
      "Ġstart": 1205,
      "ĠStart": 1206,
      "ability": 1207,
      "gor": 1208,
      "ĠPat": 1209,
      "ework": 1210,
      "ĠReview": 1211,
      "ther": 1212,
      "blem": 1213,
      "ep": 1214,
      "Ġhelp": 1215,
      "oin": 1216,
      "ones": 1217,
      "ĠPower": 1218,
      "ĠLaunch": 1219,
      "istory": 1220,
      "ĠGitHub": 1221,
      "Ġmon": 1222,
      "Ġengine": 1223,
      "ĠCreat": 1224,
      "ĠIP": 1225,
      "Ġfind": 1226,
      "Ġcomput": 1227,
      "pect": 1228,
      "Ġtheir": 1229,
      "ĠLife": 1230,
      "ading": 1231,
      "ift": 1232,
      "ole": 1233,
      "Ġdec": 1234,
      "urs": 1235,
      "ĠPar": 1236,
      "Ġrem": 1237,
      "ĠIts": 1238,
      "ump": 1239,
      "formance": 1240,
      "Ġno": 1241,
      "ĠSpace": 1242,
      "ising": 1243,
      "ĠExper": 1244,
      "Ġyears": 1245,
      "ramework": 1246,
      "ibrary": 1247,
      "ĠTes": 1248,
      "ĠHave": 1249,
      "ild": 1250,
      "ĠId": 1251,
      "ĠSk": 1252,
      "ĠCEO": 1253,
      "ĠMachine": 1254,
      "ĠWar": 1255,
      "ĠChrome": 1256,
      "Ġpre": 1257,
      "ĠGuide": 1258,
      "board": 1259,
      "ues": 1260,
      "atic": 1261,
      "rop": 1262,
      "ah": 1263,
      "atab": 1264,
      "Ġcr": 1265,
      "yt": 1266,
      "ouse": 1267,
      "iles": 1268,
      "man": 1269,
      "ĠAc": 1270,
      "Ġev": 1271,
      "ograph": 1272,
      "Ġapps": 1273,
      "rong": 1274,
      "hem": 1275,
      "lex": 1276,
      "ffect": 1277,
      "ĠJust": 1278,
      "Ġjob": 1279,
      "ero": 1280,
      "reen": 1281,
      "Ġonline": 1282,
      "Ġgame": 1283,
      "In": 1284,
      "day": 1285,
      "Ġmost": 1286,
      "ĠNeed": 1287,
      "imate": 1288,
      "Ġgener": 1289,
      "WS": 1290,
      "cle": 1291,
      "ĠSource": 1292,
      "uby": 1293,
      "rowser": 1294,
      "apt": 1295,
      "ĠFin": 1296,
      "gorith": 1297,
      "ffic": 1298,
      "ĠNext": 1299,
      "ĠDr": 1300,
      "ĠProject": 1301,
      "ĠTesla": 1302,
      "ging": 1303,
      "ling": 1304,
      "ats": 1305,
      "St": 1306,
      "ises": 1307,
      "jects": 1308,
      "ds": 1309,
      "Ġour": 1310,
      "Ġown": 1311,
      "Ġnetwork": 1312,
      "ords": 1313,
      "ium": 1314,
      "way": 1315,
      "orts": 1316,
      "Ġfound": 1317,
      "ĠUnder": 1318,
      "ĠComputer": 1319,
      "ĠMost": 1320,
      "ĠScience": 1321,
      "orth": 1322,
      "ĠAcc": 1323,
      "ĠApps": 1324,
      "Ġexper": 1325,
      "Ġ202": 1326,
      "uch": 1327,
      "ales": 1328,
      "Ġind": 1329,
      "Ġbig": 1330,
      "Ġstud": 1331,
      "Ġ19": 1332,
      "Ġjust": 1333,
      "ĠResearch": 1334,
      "ĠDevelopment": 1335,
      "Ġdev": 1336,
      "ĠNode": 1337,
      "ĠStr": 1338,
      "aring": 1339,
      "Ġac": 1340,
      "Ġsearch": 1341,
      "prene": 1342,
      "Ġtechn": 1343,
      "ĠCrypt": 1344,
      "Ġwas": 1345,
      "vert": 1346,
      "aus": 1347,
      "ract": 1348,
      "ĠInvest": 1349,
      "Ġcompany": 1350,
      "ĠPlay": 1351,
      "sh": 1352,
      "ĠDay": 1353,
      "ĠOf": 1354,
      "load": 1355,
      "ness": 1356,
      "ĠAWS": 1357,
      "reprene": 1358,
      "Ġcol": 1359,
      "ĠHelp": 1360,
      "Ġne": 1361,
      "vern": 1362,
      "Ġwhen": 1363,
      "ĠPeople": 1364,
      "Ġbec": 1365,
      "ross": 1366,
      "ĠSilicon": 1367,
      "ĠValley": 1368,
      "box": 1369,
      "ense": 1370,
      "ĠMay": 1371,
      "ivity": 1372,
      "Ġknow": 1373,
      "press": 1374,
      "Ġtrans": 1375,
      "ward": 1376,
      "ĠFind": 1377,
      "ush": 1378,
      "Ġdon": 1379,
      "ĠGood": 1380,
      "Ġcons": 1381,
      "Ġsays": 1382,
      "Ġbetter": 1383,
      "irus": 1384,
      "ten": 1385,
      "ĠAct": 1386,
      "Ġgood": 1387,
      "ĠProt": 1388,
      "ĠIndia": 1389,
      "ĠPay": 1390,
      "ersonal": 1391,
      "ĠCor": 1392,
      "ĠDeb": 1393,
      "Ġbest": 1394,
      "asy": 1395,
      "chool": 1396,
      "arth": 1397,
      "Ġpay": 1398,
      "Ġvideo": 1399,
      "Ġwho": 1400,
      "oup": 1401,
      "ĠUber": 1402,
      "ysis": 1403,
      "ĠVisual": 1404,
      "ĠNet": 1405,
      "ights": 1406,
      "nect": 1407,
      "Ġsur": 1408,
      "Ġpart": 1409,
      "ĠEnt": 1410,
      "ĠEuro": 1411,
      "rav": 1412,
      "off": 1413,
      "ellig": 1414,
      "Ġusers": 1415,
      "ĠPlan": 1416,
      "ĠFun": 1417,
      "cept": 1418,
      "ĠOS": 1419,
      "ĠHTML": 1420,
      "ĠCustom": 1421,
      "gest": 1422,
      "ĠCould": 1423,
      "ĠRun": 1424,
      "umb": 1425,
      "obal": 1426,
      "Ġexpl": 1427,
      "ĠEvery": 1428,
      "Ġlanguage": 1429,
      "ĠPhot": 1430,
      "ĠElect": 1431,
      "een": 1432,
      "ĠBetter": 1433,
      "ask": 1434,
      "oom": 1435,
      "eli": 1436,
      "ĠCo": 1437,
      "ĠCy": 1438,
      "ĠAfter": 1439,
      "ĠRuby": 1440,
      "ĠLaw": 1441,
      "riting": 1442,
      "ĠDigital": 1443,
      "Ġmay": 1444,
      "ĠDeep": 1445,
      "Ġmobile": 1446,
      "Ġplan": 1447,
      "lish": 1448,
      "acking": 1449,
      "PU": 1450,
      "ĠSub": 1451,
      "Ġgr": 1452,
      "ĠIntel": 1453,
      "to": 1454,
      "Ġsome": 1455,
      "aps": 1456,
      "ribut": 1457,
      "ĠMult": 1458,
      "ĠLanguage": 1459,
      "ĠAny": 1460,
      "iqu": 1461,
      "aces": 1462,
      "Ġmin": 1463,
      "iffer": 1464,
      "Ġproject": 1465,
      "ĠBlock": 1466,
      "Ġwithout": 1467,
      "iet": 1468,
      "ĠLike": 1469,
      "Ġvis": 1470,
      "ĠCSS": 1471,
      "ĠMaking": 1472,
      "Ġhigh": 1473,
      "ĠAnnoun": 1474,
      "ĠExt": 1475,
      "ced": 1476,
      "Ġif": 1477,
      "Ġtw": 1478,
      "ĠLook": 1479,
      "Ġmade": 1480,
      "Ġunder": 1481,
      "ientists": 1482,
      "Ġent": 1483,
      "Ġart": 1484,
      "ĠStartups": 1485,
      "br": 1486,
      "Ġra": 1487,
      "ĠMar": 1488,
      "ĠRust": 1489,
      "Ġbr": 1490,
      "uts": 1491,
      "Ġwhy": 1492,
      "ĠBlog": 1493,
      "ything": 1494,
      "ĠAss": 1495,
      "Ġlearning": 1496,
      "ĠTim": 1497,
      "ĠGreat": 1498,
      "Ġrun": 1499,
      "down": 1500,
      "hind": 1501,
      "ĠWatch": 1502,
      "ids": 1503,
      "ĠAdd": 1504,
      "Ġed": 1505,
      "anding": 1506,
      "ĠRead": 1507,
      "ĠSmart": 1508,
      "ĠAmerica": 1509,
      "ees": 1510,
      "Ġpol": 1511,
      "ours": 1512,
      "ĠWhere": 1513,
      "Ġyear": 1514,
      "alls": 1515,
      "ton": 1516,
      "Ġfuture": 1517,
      "ĠOur": 1518,
      "Ġprogramming": 1519,
      "ired": 1520,
      "cover": 1521,
      "Ġsupport": 1522,
      "fore": 1523,
      "Ġ#": 1524,
      "Ġmarket": 1525,
      "ĠKnow": 1526,
      "ocker": 1527,
      "50": 1528,
      "Tube": 1529,
      "onom": 1530,
      "ĠDoc": 1531,
      "Ġsocial": 1532,
      "Ġins": 1533,
      "ider": 1534,
      "ung": 1535,
      "umm": 1536,
      "ument": 1537,
      "ĠApplic": 1538,
      "ĠAdv": 1539,
      "Ġsecurity": 1540,
      "Ġmanag": 1541,
      "ĠSuper": 1542,
      "ĠGraph": 1543,
      "ĠInc": 1544,
      "ĠIf": 1545,
      "Ġcreat": 1546,
      "ĠBook": 1547,
      "Ġpower": 1548,
      "ĠUK": 1549,
      "ules": 1550,
      "Ġlife": 1551,
      "irtual": 1552,
      "ĠEurope": 1553,
      "++": 1554,
      "ĠServer": 1555,
      "ĠLess": 1556,
      "Ġlook": 1557,
      "oding": 1558,
      "ustry": 1559,
      "atabase": 1560,
      "oj": 1561,
      "inal": 1562,
      "ĠMat": 1563,
      "Ġpat": 1564,
      "Ġprot": 1565,
      "gress": 1566,
      "izing": 1567,
      "antum": 1568,
      "Ġext": 1569,
      "DB": 1570,
      "ĠSimple": 1571,
      "Ġpass": 1572,
      "iving": 1573,
      "ĠEnd": 1574,
      "ÙĦ": 1575,
      "esk": 1576,
      "ĠService": 1577,
      "isk": 1578,
      "allen": 1579,
      "ĠCompany": 1580,
      "aper": 1581,
      "ĠList": 1582,
      "ĠSa": 1583,
      "ird": 1584,
      "ĠLearn": 1585,
      "iel": 1586,
      "rite": 1587,
      "ĠMark": 1588,
      "ĠRet": 1589,
      "ĠLive": 1590,
      "Ġread": 1591,
      "10": 1592,
      "me": 1593,
      "ĠWay": 1594,
      "unity": 1595,
      "ptim": 1596,
      "ĠArch": 1597,
      "back": 1598,
      "gin": 1599,
      "Ġide": 1600,
      "Ġfun": 1601,
      "ĠAv": 1602,
      "ĠBec": 1603,
      "ourn": 1604,
      "ĠInf": 1605,
      "ĠStore": 1606,
      "ĠThings": 1607,
      "etect": 1608,
      "omen": 1609,
      "ĠAnt": 1610,
      "ĠProf": 1611,
      "ĠDem": 1612,
      "ential": 1613,
      "ĠNA": 1614,
      "formation": 1615,
      "ĠDef": 1616,
      "ĠEver": 1617,
      "ĠYouTube": 1618,
      "Ġcar": 1619,
      "ĠKey": 1620,
      "Ġav": 1621,
      "ĠMet": 1622,
      "Ġsol": 1623,
      "ĠRails": 1624,
      "Ġplatform": 1625,
      "ĠInterview": 1626,
      "land": 1627,
      "pping": 1628,
      "Ġ100": 1629,
      "Ġadd": 1630,
      "ĠAp": 1631,
      "ges": 1632,
      "Ġinc": 1633,
      "Ġdevelopment": 1634,
      "gan": 1635,
      "rup": 1636,
      "sc": 1637,
      "ĠMedia": 1638,
      "ĠJo": 1639,
      "eries": 1640,
      "ĠRev": 1641,
      "elligence": 1642,
      "ited": 1643,
      "ĠHome": 1644,
      "ison": 1645,
      "ĠBlack": 1646,
      "eak": 1647,
      "ĠCap": 1648,
      "ĠMo": 1649,
      "Ġelect": 1650,
      "ains": 1651,
      "ending": 1652,
      "ĠPlatform": 1653,
      "TP": 1654,
      "ims": 1655,
      "iring": 1656,
      "ĠDeveloper": 1657,
      "ai": 1658,
      "Ġsite": 1659,
      "zz": 1660,
      "Ġservice": 1661,
      "acc": 1662,
      "ically": 1663,
      "ĠModel": 1664,
      "ĠJobs": 1665,
      "roll": 1666,
      "ody": 1667,
      "Ġwebsite": 1668,
      "...": 1669,
      "IT": 1670,
      "ann": 1671,
      "ĠHard": 1672,
      "Ġwar": 1673,
      "ĠForm": 1674,
      "irect": 1675,
      "ĠTechnology": 1676,
      "Ġreleased": 1677,
      "Ġche": 1678,
      "Ġwant": 1679,
      "ĠFund": 1680,
      "idd": 1681,
      "other": 1682,
      "vernment": 1683,
      "SQL": 1684,
      "oring": 1685,
      "ĠMem": 1686,
      "Ġwould": 1687,
      "ĠState": 1688,
      "ĠLeg": 1689,
      "ĠHere": 1690,
      "Ġnext": 1691,
      "ires": 1692,
      "for": 1693,
      "rov": 1694,
      "rove": 1695,
      "ĠAutom": 1696,
      "ĠSn": 1697,
      "ĠIntrodu": 1698,
      "Ġgu": 1699,
      "ĠThan": 1700,
      "iting": 1701,
      "ĠPass": 1702,
      "ĠLog": 1703,
      "ersion": 1704,
      "ĠReport": 1705,
      "ĠChinese": 1706,
      "Ġsimple": 1707,
      "Ġthey": 1708,
      "etes": 1709,
      "ĠEarth": 1710,
      "ĠUpd": 1711,
      "Ġinst": 1712,
      "raft": 1713,
      "ocal": 1714,
      "apan": 1715,
      "ĠUnivers": 1716,
      "itect": 1717,
      "Ġam": 1718,
      "ĠFast": 1719,
      "ason": 1720,
      "Ġthere": 1721,
      "ytics": 1722,
      "âĢĵ": 1723,
      "Ġbuilt": 1724,
      "Ġapplic": 1725,
      "Ġnews": 1726,
      "arge": 1727,
      "Ġcor": 1728,
      "ional": 1729,
      "elling": 1730,
      "duction": 1731,
      "ĠMusk": 1732,
      "ĠSet": 1733,
      "ĠEcon": 1734,
      "Ġgl": 1735,
      "ĠYear": 1736,
      "Ġblock": 1737,
      "fox": 1738,
      "era": 1739,
      "ench": 1740,
      "ari": 1741,
      "ĠMov": 1742,
      "ĠGrow": 1743,
      "ĠAng": 1744,
      "ĠMusic": 1745,
      "mark": 1746,
      "iment": 1747,
      "ĠJapan": 1748,
      "Ġthink": 1749,
      "ĠThink": 1750,
      "Ġkey": 1751,
      "Ġsub": 1752,
      "ĠGetting": 1753,
      "ĠEconom": 1754,
      "nov": 1755,
      "ĠDist": 1756,
      "ty": 1757,
      "ication": 1758,
      "ults": 1759,
      "Ġchange": 1760,
      "urrency": 1761,
      "ĠTV": 1762,
      "Ġco": 1763,
      "ĠOwn": 1764,
      "PT": 1765,
      "ĠAb": 1766,
      "ingle": 1767,
      "ĠTips": 1768,
      "Ġstr": 1769,
      "ĠTwo": 1770,
      "ĠiPad": 1771,
      "YC": 1772,
      "aj": 1773,
      "bit": 1774,
      "cast": 1775,
      "oice": 1776,
      "ĠHuman": 1777,
      "ĠHistory": 1778,
      "ĠDocker": 1779,
      "Ġdr": 1780,
      "ĠLink": 1781,
      "chain": 1782,
      "Ġlaw": 1783,
      "Ġlibrary": 1784,
      "ogn": 1785,
      "ront": 1786,
      "Ġemail": 1787,
      "ĠPrivacy": 1788,
      "rok": 1789,
      "Ġevery": 1790,
      "ailable": 1791,
      "ĠHacker": 1792,
      "ched": 1793,
      "top": 1794,
      "uzz": 1795,
      "Ġinvest": 1796,
      "rive": 1797,
      "active": 1798,
      "aS": 1799,
      "ĠSelf": 1800,
      "ĠText": 1801,
      "ĠCent": 1802,
      "ĠWeek": 1803,
      "based": 1804,
      "oint": 1805,
      "time": 1806,
      "Ġpost": 1807,
      "irm": 1808,
      "Ġcloud": 1809,
      "etween": 1810,
      "ĠMoney": 1811,
      "Ġcompanies": 1812,
      "Ġsmart": 1813,
      "ON": 1814,
      "face": 1815,
      "ators": 1816,
      "ĠCreate": 1817,
      "Ġbased": 1818,
      "utor": 1819,
      "ĠKub": 1820,
      "ards": 1821,
      "ĠPres": 1822,
      "Ġlearn": 1823,
      "SD": 1824,
      "yle": 1825,
      "Ġcrypt": 1826,
      "ĠLab": 1827,
      "ĠYears": 1828,
      "ĠScal": 1829,
      "phone": 1830,
      "rivate": 1831,
      "ference": 1832,
      "Ġresearch": 1833,
      "Ġrob": 1834,
      "egr": 1835,
      "ĠSome": 1836,
      "ouch": 1837,
      "ĠBill": 1838,
      "ror": 1839,
      "ĠPublic": 1840,
      "icial": 1841,
      "ĠBank": 1842,
      "ources": 1843,
      "ĠStar": 1844,
      "ulation": 1845,
      "ĠChat": 1846,
      "ĠFirefox": 1847,
      "ES": 1848,
      "ĠClass": 1849,
      "ĠQuest": 1850,
      "ĠIde": 1851,
      "Ġend": 1852,
      "ĠHapp": 1853,
      "ĠMag": 1854,
      "ĠWord": 1855,
      "Ġcustom": 1856,
      "ision": 1857,
      "Ġlist": 1858,
      "Ġreg": 1859,
      "por": 1860,
      "sites": 1861,
      "ality": 1862,
      "Ġset": 1863,
      "Ġanal": 1864,
      "aving": 1865,
      "ĠHealth": 1866,
      "Ġagainst": 1867,
      "ĠNASA": 1868,
      "pro": 1869,
      "Ġsl": 1870,
      "Ġinf": 1871,
      "ĠStop": 1872,
      "opy": 1873,
      "Ġreview": 1874,
      "ĠEntreprene": 1875,
      "Ġ0": 1876,
      "ĠMed": 1877,
      "Ġattack": 1878,
      "ernetes": 1879,
      "ĠWik": 1880,
      "Ġmult": 1881,
      "Ġmuch": 1882,
      "place": 1883,
      "ĠAlgorith": 1884,
      "ĠLead": 1885,
      "ĠReg": 1886,
      "Ġplay": 1887,
      "ĠStudy": 1888,
      "HP": 1889,
      "itive": 1890,
      "ache": 1891,
      "ily": 1892,
      "Ġret": 1893,
      "ĠJS": 1894,
      "Ġever": 1895,
      "aid": 1896,
      "aut": 1897,
      "ĠDN": 1898,
      "ĠLet": 1899,
      "Ġupd": 1900,
      "ĠDevelopers": 1901,
      "Ġdevelopers": 1902,
      "IS": 1903,
      "ters": 1904,
      "ĠSim": 1905,
      "ĠSign": 1906,
      "Ġweek": 1907,
      "redict": 1908,
      "Ø§Ø": 1909,
      "ĠIntroducing": 1910,
      "get": 1911,
      "Ġec": 1912,
      "ĠMess": 1913,
      "Ġtop": 1914,
      "ĠFeat": 1915,
      "emic": 1916,
      "Ġval": 1917,
      "udio": 1918,
      "ĠMeet": 1919,
      "oid": 1920,
      "Ġse": 1921,
      "Ġcreate": 1922,
      "ulner": 1923,
      "Ġ11": 1924,
      "ĠStory": 1925,
      "ĠYork": 1926,
      "ĠProcess": 1927,
      "Ġ30": 1928,
      "riving": 1929,
      "ĠPrin": 1930,
      "rupt": 1931,
      "ĠKubernetes": 1932,
      "ration": 1933,
      "vid": 1934,
      "Ġhapp": 1935,
      "Ġthrough": 1936,
      "ape": 1937,
      "ĠPerformance": 1938,
      "afe": 1939,
      "ĠCour": 1940,
      "ĠPi": 1941,
      "Ġdoc": 1942,
      "Ġform": 1943,
      "ĠUI": 1944,
      "rap": 1945,
      "ells": 1946,
      "ĠRel": 1947,
      "ott": 1948,
      "ences": 1949,
      "Ġ200": 1950,
      "ification": 1951,
      "ĠCalif": 1952,
      "ĠSan": 1953,
      "ĠGe": 1954,
      "asp": 1955,
      "Ġlong": 1956,
      "Ġhard": 1957,
      "Ġstill": 1958,
      "Ġvia": 1959,
      "ĠMarketing": 1960,
      "ĠReleased": 1961,
      "ructure": 1962,
      "bl": 1963,
      "ss": 1964,
      "ule": 1965,
      "ĠPhone": 1966,
      "ĠBre": 1967,
      "ĠBuy": 1968,
      "Ġdid": 1969,
      "Ġstor": 1970,
      "ills": 1971,
      "ternative": 1972,
      "'re": 1973,
      "dit": 1974,
      "Ġfund": 1975,
      "Ġact": 1976,
      "Ġmem": 1977,
      "aming": 1978,
      "Ġonly": 1979,
      "ries": 1980,
      "early": 1981,
      "ĠConf": 1982,
      "ĠUsers": 1983,
      "Ġfeat": 1984,
      "ĠDid": 1985,
      "ised": 1986,
      "Ġdeb": 1987,
      "ĠStor": 1988,
      "ĠProgramm": 1989,
      "2016": 1990,
      "Ġchang": 1991,
      "Ġspace": 1992,
      "ĠInside": 1993,
      "ĠTesting": 1994,
      "ĠRussia": 1995,
      "utorial": 1996,
      "ĠÙ": 1997,
      "ĠPC": 1998,
      "ĠBrain": 1999,
      "Ġphone": 2000,
      "ĠAnalysis": 2001,
      "Ġcomputer": 2002,
      "be": 2003,
      "cer": 2004,
      "onav": 2005,
      "lement": 2006,
      "ĠEr": 2007,
      "Ġlive": 2008,
      "Ġbeen": 2009,
      "ĠScientists": 2010,
      "ĠWebsite": 2011,
      "Ġ2020": 2012,
      "Ġreport": 2013,
      "iled": 2014,
      "ĠCaliforn": 2015,
      "onavirus": 2016,
      "ĠSQL": 2017,
      "Ġold": 2018,
      "ĠGen": 2019,
      "Ġday": 2020,
      "ĠTrump": 2021,
      "ission": 2022,
      "source": 2023,
      "Ġtake": 2024,
      "ĠWin": 2025,
      "Ġsign": 2026,
      "raw": 2027,
      "ĠChang": 2028,
      "flow": 2029,
      "ren": 2030,
      "Ġtalk": 2031,
      "Ġself": 2032,
      "Ġhuman": 2033,
      "Ġreve": 2034,
      "ĠProblem": 2035,
      "Ġprof": 2036,
      "ĠElon": 2037,
      "Ġ/": 2038,
      "ĠPHP": 2039,
      "Ġhome": 2040,
      "ET": 2041,
      "ky": 2042,
      "word": 2043,
      "ĠHy": 2044,
      "Ġdem": 2045,
      "Ġ2012": 2046,
      "ought": 2047,
      "ificial": 2048,
      "ĠManagement": 2049,
      "esktop": 2050,
      "uff": 2051,
      "ony": 2052,
      "Ġfin": 2053,
      "Ġbuy": 2054,
      "Ġbrowser": 2055,
      "ils": 2056,
      "ute": 2057,
      "ĠStat": 2058,
      "Ġrev": 2059,
      "2015": 2060,
      "Ġadv": 2061,
      "ĠCalifornia": 2062,
      "erc": 2063,
      "Ġab": 2064,
      "Ġaccess": 2065,
      "ĠFre": 2066,
      "omain": 2067,
      "Ġdist": 2068,
      "Ġmoney": 2069,
      "eler": 2070,
      "play": 2071,
      "arget": 2072,
      "ĠAmerican": 2073,
      "ĠHTTP": 2074,
      "ĠTools": 2075,
      "li": 2076,
      "ĠWas": 2077,
      "oop": 2078,
      "ĠSmall": 2079,
      "amsung": 2080,
      "Ġturn": 2081,
      "ĠType": 2082,
      "Ġfast": 2083,
      "ĠGames": 2084,
      "ĠEp": 2085,
      "ĠStream": 2086,
      "Ġless": 2087,
      "opular": 2088,
      "berry": 2089,
      "ĠUser": 2090,
      "ĠGlobal": 2091,
      "ĠRobot": 2092,
      "Ġlaunches": 2093,
      "lin": 2094,
      "ĠWant": 2095,
      "ĠBad": 2096,
      "agram": 2097,
      "ĠYC": 2098,
      "ĠProgram": 2099,
      "Ġright": 2100,
      "iple": 2101,
      "ension": 2102,
      "ĠSamsung": 2103,
      "ĠHand": 2104,
      "Ġbook": 2105,
      "ĠEth": 2106,
      "Ġ12": 2107,
      "ynam": 2108,
      "Ġstartups": 2109,
      "Ġmonth": 2110,
      "esh": 2111,
      "ĠSchool": 2112,
      "Ġframework": 2113,
      "ĠWriting": 2114,
      "Ġthem": 2115,
      "ĠLong": 2116,
      "ury": 2117,
      "ĠEng": 2118,
      "ather": 2119,
      "ployees": 2120,
      "ĠStack": 2121,
      "ideos": 2122,
      "Ġproblem": 2123,
      "Con": 2124,
      "enn": 2125,
      "arter": 2126,
      "ĠCity": 2127,
      "reet": 2128,
      "Ġpar": 2129,
      "Ġmov": 2130,
      "Ġmakes": 2131,
      "Ġmedia": 2132,
      "Ġlog": 2133,
      "quest": 2134,
      "blems": 2135,
      "ollow": 2136,
      "ĠEngineering": 2137,
      "Ġphot": 2138,
      "cul": 2139,
      "ĠAf": 2140,
      "Ġserver": 2141,
      "aging": 2142,
      "Ġass": 2143,
      "lete": 2144,
      "Ġtools": 2145,
      "by": 2146,
      "ef": 2147,
      "ĠTra": 2148,
      "Ġcy": 2149,
      "iler": 2150,
      "utes": 2151,
      "riend": 2152,
      "ĠRep": 2153,
      "Ġthings": 2154,
      "Ġprogram": 2155,
      "Ġ50": 2156,
      "ĠSteve": 2157,
      "cation": 2158,
      "mail": 2159,
      "net": 2160,
      "we": 2161,
      "Ġtext": 2162,
      "ĠSyn": 2163,
      "ĠTalk": 2164,
      "icle": 2165,
      "ĠEU": 2166,
      "Ġmus": 2167,
      "iff": 2168,
      "Ġdeveloper": 2169,
      "ause": 2170,
      "book": 2171,
      "Ġ.": 2172,
      "ĠCase": 2173,
      "ĠRa": 2174,
      "ĠThere": 2175,
      "ĠEnc": 2176,
      "lection": 2177,
      "Ġtechnology": 2178,
      "bin": 2179,
      "uit": 2180,
      "ĠAust": 2181,
      "ĠCur": 2182,
      "leg": 2183,
      "Ġob": 2184,
      "ĠFail": 2185,
      "ples": 2186,
      "flix": 2187,
      "ĠSurve": 2188,
      "te": 2189,
      "Ġpage": 2190,
      "iron": 2191,
      "ified": 2192,
      "ĠSuccess": 2193,
      "ĠCrypto": 2194,
      "gre": 2195,
      "oor": 2196,
      "sw": 2197,
      "Ġother": 2198,
      "2014": 2199,
      "berg": 2200,
      "ritten": 2201,
      "ĠSupport": 2202,
      "ossible": 2203,
      "untu": 2204,
      "ĠCle": 2205,
      "ĠEar": 2206,
      "ope": 2207,
      "ners": 2208,
      "ĠAM": 2209,
      "ĠThey": 2210,
      "Ġlink": 2211,
      "Ġused": 2212,
      "ĠSystems": 2213,
      "ĠMot": 2214,
      "Ġmany": 2215,
      "Ġmachine": 2216,
      "ĠTheir": 2217,
      "ocus": 2218,
      "umber": 2219,
      "ĠCompanies": 2220,
      "ĠTeam": 2221,
      "ĠRussian": 2222,
      "ĠNetflix": 2223,
      "ributed": 2224,
      "ield": 2225,
      "ior": 2226,
      "ying": 2227,
      "ane": 2228,
      "Ġsk": 2229,
      "ĠNSA": 2230,
      "ĠUb": 2231,
      "2017": 2232,
      "ugs": 2233,
      "ĠIntroduction": 2234,
      "ĠLaunches": 2235,
      "ography": 2236,
      "ifferent": 2237,
      "AR": 2238,
      "Ġair": 2239,
      "roach": 2240,
      "ĠFramework": 2241,
      "istic": 2242,
      "Ġconf": 2243,
      "Ġscience": 2244,
      "ĠImage": 2245,
      "Ġdef": 2246,
      "ĠQuantum": 2247,
      "ĠAttack": 2248,
      "ĠUnderst": 2249,
      "itecture": 2250,
      "bed": 2251,
      "ucle": 2252,
      "ĠFed": 2253,
      "usion": 2254,
      "ublish": 2255,
      "2013": 2256,
      "oughts": 2257,
      "ĠSecret": 2258,
      "anguages": 2259,
      "ajor": 2260,
      "ĠPort": 2261,
      "Ġprivacy": 2262,
      "Ġprocess": 2263,
      "terns": 2264,
      "prise": 2265,
      "ĠControl": 2266,
      "ĠTake": 2267,
      "ĠRight": 2268,
      "ama": 2269,
      "ĠOptim": 2270,
      "ads": 2271,
      "ĠWhich": 2272,
      "ĠAnalytics": 2273,
      "MS": 2274,
      "ĠTell": 2275,
      "icles": 2276,
      "isco": 2277,
      "Ġmaking": 2278,
      "Ġgreat": 2279,
      "Ġgrow": 2280,
      "ĠChange": 2281,
      "icks": 2282,
      "ĠDead": 2283,
      "Ġbuilding": 2284,
      "ahoo": 2285,
      "ĠAR": 2286,
      "aries": 2287,
      "ĠColl": 2288,
      "Ġsw": 2289,
      "ĠLight": 2290,
      "uth": 2291,
      "ĠPract": 2292,
      "ravel": 2293,
      "ojure": 2294,
      "ĠHol": 2295,
      "Ġinternet": 2296,
      "amb": 2297,
      "Ġhis": 2298,
      "abor": 2299,
      "umans": 2300,
      "Ġ15": 2301,
      "ĠKill": 2302,
      "ĠDep": 2303,
      "Ġblog": 2304,
      "ĠComputing": 2305,
      "ĠAgainst": 2306,
      "Ġmodel": 2307,
      "JS": 2308,
      "sy": 2309,
      "iny": 2310,
      "ĠSays": 2311,
      "ĠAccess": 2312,
      "ĠMade": 2313,
      "ĠBas": 2314,
      "ĠBut": 2315,
      "Ġbrain": 2316,
      "Ġbeing": 2317,
      "order": 2318,
      "Ġdeal": 2319,
      "ĠWorking": 2320,
      "Ġsuccess": 2321,
      "11": 2322,
      "outh": 2323,
      "isis": 2324,
      "Ġbank": 2325,
      "ĠGerm": 2326,
      "ender": 2327,
      "Ġautom": 2328,
      "ĠLessons": 2329,
      "ĠServices": 2330,
      "Ġcost": 2331,
      "Ġpublic": 2332,
      "pped": 2333,
      "ĠIntelligence": 2334,
      "ĠHackers": 2335,
      "The": 2336,
      "viron": 2337,
      "ĠIT": 2338,
      "ĠRad": 2339,
      "Ġpersonal": 2340,
      "ĠVer": 2341,
      "ĠVirtual": 2342,
      "ables": 2343,
      "ĠEmail": 2344,
      "BM": 2345,
      "PA": 2346,
      "par": 2347,
      "ĠRasp": 2348,
      "omb": 2349,
      "2018": 2350,
      "ango": 2351,
      "Ġcontrol": 2352,
      "ittle": 2353,
      "ĠTurn": 2354,
      "ĠProm": 2355,
      "Ġtoo": 2356,
      "Ġbad": 2357,
      "eter": 2358,
      "ĠLat": 2359,
      "Ġlight": 2360,
      "aker": 2361,
      "Ġiss": 2362,
      "avor": 2363,
      "Ġclass": 2364,
      "Ġworking": 2365,
      "Ġquest": 2366,
      "fact": 2367,
      "sp": 2368,
      "ÙĬ": 2369,
      "ĠSumm": 2370,
      "Ġfil": 2371,
      "ĠHar": 2372,
      "ĠYahoo": 2373,
      "Ġprojects": 2374,
      "Ġstudy": 2375,
      "uclear": 2376,
      "12": 2377,
      "ĠWould": 2378,
      "acing": 2379,
      "ategy": 2380,
      "2019": 2381,
      "ĠSpot": 2382,
      "ĠWithout": 2383,
      "ĠRaspberry": 2384,
      "ER": 2385,
      "icy": 2386,
      "Ġhand": 2387,
      "rast": 2388,
      "eedback": 2389,
      "Ġ2018": 2390,
      "ĠSwift": 2391,
      "Ch": 2392,
      "ĠCost": 2393,
      "lege": 2394,
      "ĠBy": 2395,
      "ĠEffect": 2396,
      "Ġmic": 2397,
      "oost": 2398,
      "ĠOper": 2399,
      "unk": 2400,
      "ĠResp": 2401,
      "199": 2402,
      "ampa": 2403,
      "ĠGroup": 2404,
      "ĠSaaS": 2405,
      "ĠID": 2406,
      "ĠDrop": 2407,
      "ĠChallen": 2408,
      "ĠKn": 2409,
      "Ġant": 2410,
      "Ġlet": 2411,
      "Ġtrack": 2412,
      "ulture": 2413,
      "ĠCheck": 2414,
      "Ġmusic": 2415,
      "over": 2416,
      "wh": 2417,
      "ĠShe": 2418,
      "ĠTri": 2419,
      "Ġmess": 2420,
      "ental": 2421,
      "riends": 2422,
      "ĠVC": 2423,
      "ection": 2424,
      "Ġuser": 2425,
      "Ġ2016": 2426,
      "attery": 2427,
      "ĠCapital": 2428,
      "ault": 2429,
      "lock": 2430,
      "Ġtra": 2431,
      "ature": 2432,
      "ĠTer": 2433,
      "Ġfiles": 2434,
      "imes": 2435,
      "Ġgames": 2436,
      "ĠSpec": 2437,
      "Ġhealth": 2438,
      "ĠContent": 2439,
      "hn": 2440,
      "ĠTur": 2441,
      "ĠCam": 2442,
      "Ġwrong": 2443,
      "ĠFull": 2444,
      "illance": 2445,
      "ĠDisc": 2446,
      "ournal": 2447,
      "ĠUbuntu": 2448,
      "ampaign": 2449,
      "AN": 2450,
      "bers": 2451,
      "wes": 2452,
      "ĠSales": 2453,
      "ĠPersonal": 2454,
      "Ġhistory": 2455,
      "ĠVent": 2456,
      "Ġ13": 2457,
      "Ġannoun": 2458,
      "Ġ2019": 2459,
      "ination": 2460,
      "ĠTax": 2461,
      "ĠCyber": 2462,
      "ĠMars": 2463,
      "Ġsim": 2464,
      "ĠBoot": 2465,
      "ĠOld": 2466,
      "oph": 2467,
      "Ġrel": 2468,
      "ounts": 2469,
      "ĠBehind": 2470,
      "Ġ2017": 2471,
      "ethod": 2472,
      "Ġtwo": 2473,
      "Fi": 2474,
      "ID": 2475,
      "ler": 2476,
      "min": 2477,
      "tr": 2478,
      "ĠHer": 2479,
      "ĠBreak": 2480,
      "Ġprom": 2481,
      "omes": 2482,
      "illa": 2483,
      "anger": 2484,
      "ĠClojure": 2485,
      "Ġshow": 2486,
      "ĠCanad": 2487,
      "redit": 2488,
      "umbers": 2489,
      "Ġvisual": 2490,
      "Cl": 2491,
      "the": 2492,
      "Ġ:": 2493,
      "Ġtri": 2494,
      "ĠSS": 2495,
      "rew": 2496,
      "Ġsee": 2497,
      "ĠRich": 2498,
      "ĠEasy": 2499,
      "Ġstory": 2500,
      "Ġcontent": 2501,
      "ĠApplication": 2502,
      "ze": 2503,
      "Ġcase": 2504,
      "ĠBi": 2505,
      "ĠEdu": 2506,
      "asons": 2507,
      "ĠPhys": 2508,
      "ĠModern": 2509,
      "ĠRelease": 2510,
      "ĠUpdate": 2511,
      "App": 2512,
      "PS": 2513,
      "ians": 2514,
      "ves": 2515,
      "erious": 2516,
      "Ġtax": 2517,
      "ĠDi": 2518,
      "ĠFix": 2519,
      "amm": 2520,
      "rist": 2521,
      "Ġgets": 2522,
      "ĠShort": 2523,
      "ĠOffice": 2524,
      "iant": 2525,
      "ĠMal": 2526,
      "ĠMass": 2527,
      "ĠDark": 2528,
      "Ġservices": 2529,
      "Ġbetween": 2530,
      "Ġdigital": 2531,
      "ĠInnov": 2532,
      "ĠStock": 2533,
      "Ġgot": 2534,
      "ĠRemote": 2535,
      "ĠPhotos": 2536,
      "nd": 2537,
      "onym": 2538,
      "attle": 2539,
      "ened": 2540,
      "ĠMillion": 2541,
      "ometh": 2542,
      "Ø§ÙĦ": 2543,
      "Ġteam": 2544,
      "Ġjobs": 2545,
      "ares": 2546,
      "Ġsay": 2547,
      "utting": 2548,
      "ops": 2549,
      "Ġ2011": 2550,
      "ĠHacking": 2551,
      "Ġresp": 2552,
      "Ġavailable": 2553,
      "'m": 2554,
      "ci": 2555,
      "cent": 2556,
      "ving": 2557,
      "ĠTrain": 2558,
      "Ġwon": 2559,
      "acle": 2560,
      "ĠView": 2561,
      "illions": 2562,
      "ĠTeach": 2563,
      "ctional": 2564,
      "ĠArtificial": 2565,
      "ĠAustral": 2566,
      "omething": 2567,
      "ring": 2568,
      "right": 2569,
      "eral": 2570,
      "Ġtrain": 2571,
      "org": 2572,
      "Ġfail": 2573,
      "ĠHouse": 2574,
      "lease": 2575,
      "ĠPy": 2576,
      "Ġwants": 2577,
      "ĠRest": 2578,
      "odcast": 2579,
      "ocation": 2580,
      "apers": 2581,
      "2011": 2582,
      "Ġshows": 2583,
      "Ġkill": 2584,
      "anced": 2585,
      "ĠNetworks": 2586,
      "ique": 2587,
      "force": 2588,
      "yond": 2589,
      "ino": 2590,
      "ĠWall": 2591,
      "Ġcent": 2592,
      "ĠGold": 2593,
      "ctions": 2594,
      "ĠThree": 2595,
      "aint": 2596,
      "ained": 2597,
      "Ġbefore": 2598,
      "ondon": 2599,
      "ĠInstagram": 2600,
      "100": 2601,
      "ED": 2602,
      "SP": 2603,
      "Sp": 2604,
      "eech": 2605,
      "ke": 2606,
      "most": 2607,
      "ĠWi": 2608,
      "ĠBar": 2609,
      "ĠWhite": 2610,
      "ĠConnect": 2611,
      "ĠSpeed": 2612,
      "ypes": 2613,
      "Ġidea": 2614,
      "comp": 2615,
      "pts": 2616,
      "ĠSEO": 2617,
      "ĠToo": 2618,
      "ĠMakes": 2619,
      "ĠIBM": 2620,
      "ĠBay": 2621,
      "isp": 2622,
      "Ġmet": 2623,
      "ecut": 2624,
      "ĠStand": 2625,
      "Ġprogramm": 2626,
      "ĠIntegr": 2627,
      "Ġclient": 2628,
      "ĠAuth": 2629,
      "Ġtesting": 2630,
      "ĠAcqu": 2631,
      "Ġindustry": 2632,
      "ĠEntrepreneurs": 2633,
      "ĠBro": 2634,
      "Ġbreak": 2635,
      "Ġdatabase": 2636,
      "ĠNative": 2637,
      "ĠReve": 2638,
      "ĠKeep": 2639,
      "ommend": 2640,
      "Ġmanagement": 2641,
      "Qu": 2642,
      "fect": 2643,
      "jango": 2644,
      "ĠCare": 2645,
      "ĠCore": 2646,
      "ĠHot": 2647,
      "Ġcount": 2648,
      "ĠFB": 2649,
      "Ġban": 2650,
      "ĠLondon": 2651,
      "oses": 2652,
      "ocket": 2653,
      "Ġspec": 2654,
      "Ġdead": 2655,
      "ĠIndustry": 2656,
      "ryption": 2657,
      "Ġgoing": 2658,
      "Ġsmall": 2659,
      "Ġperformance": 2660,
      "ildren": 2661,
      "ĠMulti": 2662,
      "ĠBlockchain": 2663,
      "ĠEverything": 2664,
      "son": 2665,
      "Ġenc": 2666,
      "ĠSnow": 2667,
      "ĠAst": 2668,
      "ĠPand": 2669,
      "ĠML": 2670,
      "ĠGal": 2671,
      "ocr": 2672,
      "Ġlead": 2673,
      "ually": 2674,
      "Ġcla": 2675,
      "ĠSlack": 2676,
      "Ġacqu": 2677,
      "ĠJohn": 2678,
      "30": 2679,
      "Book": 2680,
      "Ġ+": 2681,
      "esp": 2682,
      "Ġfix": 2683,
      "ĠWomen": 2684,
      "ĠDatabase": 2685,
      "ĠLast": 2686,
      "ĠLibrary": 2687,
      "Ġste": 2688,
      "ĠTrack": 2689,
      "ief": 2690,
      "Ġalgorith": 2691,
      "ĠNever": 2692,
      "Ġeconom": 2693,
      "ergy": 2694,
      "ĠMIT": 2695,
      "Ġcal": 2696,
      "ĠBrowser": 2697,
      "imal": 2698,
      "ĠStill": 2699,
      "Ġnon": 2700,
      "Ġreally": 2701,
      "Ġversion": 2702,
      "ĠEnter": 2703,
      "Ġbehind": 2704,
      "Ġask": 2705,
      "ĠReddit": 2706,
      "ĠFranc": 2707,
      "Ġinterview": 2708,
      "ognition": 2709,
      "ĠGPU": 2710,
      "use": 2711,
      "une": 2712,
      "Ġhost": 2713,
      "aves": 2714,
      "ĠMicro": 2715,
      "ĠDownload": 2716,
      "ĠCreating": 2717,
      "wesome": 2718,
      "Re": 2719,
      "den": 2720,
      "host": 2721,
      "ĠSup": 2722,
      "ĠBrit": 2723,
      "Ġpack": 2724,
      "ember": 2725,
      "ĠJul": 2726,
      "ĠAPIs": 2727,
      "CC": 2728,
      "Sh": 2729,
      "ĠØ": 2730,
      "atell": 2731,
      "ĠCall": 2732,
      "ĠMap": 2733,
      "Ġstate": 2734,
      "Ġeasy": 2735,
      "Ġ16": 2736,
      "ĠPhil": 2737,
      "ĠCommun": 2738,
      "ĠTele": 2739,
      "ĠCheap": 2740,
      "ĠIPO": 2741,
      "Ġ2021": 2742,
      "ĠAfric": 2743,
      "ĠSouth": 2744,
      "ared": 2745,
      "outs": 2746,
      "Ġtoday": 2747,
      "Ġwritten": 2748,
      "asing": 2749,
      "ĠUk": 2750,
      "Ġhere": 2751,
      "Ġgraph": 2752,
      "raz": 2753,
      "2012": 2754,
      "obe": 2755,
      "rying": 2756,
      "ĠDeal": 2757,
      "Ġcoming": 2758,
      "Ġremote": 2759,
      "Ġcheck": 2760,
      "ĠUnderstanding": 2761,
      "Based": 2762,
      "IN": 2763,
      "oes": 2764,
      "vel": 2765,
      "ĠSite": 2766,
      "ĠMind": 2767,
      "ilities": 2768,
      "irms": 2769,
      "odes": 2770,
      "ocurrency": 2771,
      "Ġ14": 2772,
      "Ġatt": 2773,
      "Ġwhere": 2774,
      "ibility": 2775,
      "Ġkeep": 2776,
      "ĠGovernment": 2777,
      "onds": 2778,
      "iction": 2779,
      "Ġbecome": 2780,
      "Ġguide": 2781,
      "aff": 2782,
      "ga": 2783,
      "light": 2784,
      "ne": 2785,
      "oon": 2786,
      "iter": 2787,
      "unch": 2788,
      "Ġstat": 2789,
      "astic": 2790,
      "Ġ2013": 2791,
      "ĠReality": 2792,
      "ĠNeural": 2793,
      "ĠAtt": 2794,
      "Ops": 2795,
      "tt": 2796,
      "Ġz": 2797,
      "orse": 2798,
      "ĠTutorial": 2799,
      "ouble": 2800,
      "ĠPack": 2801,
      "Ġcoll": 2802,
      "ĠBillion": 2803,
      "ĠFive": 2804,
      "lying": 2805,
      "ensor": 2806,
      "ĠArm": 2807,
      "enef": 2808,
      "Ġlearned": 2809,
      "ĠAngular": 2810,
      "eel": 2811,
      "year": 2812,
      "ĠCS": 2813,
      "ĠDetect": 2814,
      "ĠFight": 2815,
      "Ġdays": 2816,
      "aily": 2817,
      "ugh": 2818,
      "Ġ2015": 2819,
      "fficient": 2820,
      "accine": 2821,
      "Ġrobot": 2822,
      "ĠCourt": 2823,
      "avorite": 2824,
      "21": 2825,
      "eet": 2826,
      "not": 2827,
      "ris": 2828,
      "inter": 2829,
      "ĠSqu": 2830,
      "ĠSee": 2831,
      "ĠTem": 2832,
      "ĠCI": 2833,
      "ĠCPU": 2834,
      "Ġcour": 2835,
      "ĠFil": 2836,
      "ĠFall": 2837,
      "Ġstop": 2838,
      "ĠEnergy": 2839,
      "ĠBeing": 2840,
      "ernel": 2841,
      "ĠLinked": 2842,
      "ĠQuestions": 2843,
      "VM": 2844,
      "bn": 2845,
      "Ġimple": 2846,
      "ĠSave": 2847,
      "ĠAge": 2848,
      "ĠLow": 2849,
      "ĠStreet": 2850,
      "Ġred": 2851,
      "Ġleg": 2852,
      "Ġwebsites": 2853,
      "clud": 2854,
      "ĠImplement": 2855,
      "ĠRunning": 2856,
      "ince": 2857,
      "ĠSeries": 2858,
      "ĠTod": 2859,
      "ĠCat": 2860,
      "ĠDjango": 2861,
      "Ġsyn": 2862,
      "Ġbug": 2863,
      "oman": 2864,
      "Ġdetect": 2865,
      "esting": 2866,
      "Ġview": 2867,
      "ĠIss": 2868,
      "aste": 2869,
      "Ġconnect": 2870,
      "ĠClimate": 2871,
      "ĠBefore": 2872,
      "ĠModels": 2873,
      "ĠCombin": 2874,
      "Ġdoesn": 2875,
      "vironment": 2876,
      "Ġimplement": 2877,
      "OM": 2878,
      "Time": 2879,
      "ij": 2880,
      "ĠØ§ÙĦ": 2881,
      "ĠDel": 2882,
      "ĠDynam": 2883,
      "Ġsuper": 2884,
      "ĠBo": 2885,
      "ĠNon": 2886,
      "ĠIntern": 2887,
      "Ġlast": 2888,
      "Ġstream": 2889,
      "ĠThrough": 2890,
      "uggest": 2891,
      "riven": 2892,
      "ĠDeath": 2893,
      "Ġpres": 2894,
      "ĠSolar": 2895,
      "ĠApache": 2896,
      "kell": 2897,
      "yz": 2898,
      "erg": 2899,
      "atural": 2900,
      "ĠSch": 2901,
      "eng": 2902,
      "Ġfre": 2903,
      "Ġfaster": 2904,
      "ĠMiss": 2905,
      "Ġoper": 2906,
      "ĠRisk": 2907,
      "ĠThem": 2908,
      "Ġeffect": 2909,
      "Ġchat": 2910,
      "ĠMonth": 2911,
      "urrent": 2912,
      "ĠAnnounces": 2913,
      "ĠApplications": 2914,
      "ĠAlgorithm": 2915,
      "ĠFrancisco": 2916,
      "emb": 2917,
      "ĠImport": 2918,
      "Ġ40": 2919,
      "ancial": 2920,
      "ledge": 2921,
      "Ġarch": 2922,
      "itoring": 2923,
      "Ġsurve": 2924,
      "ĠTimes": 2925,
      "roken": 2926,
      "'ve": 2927,
      "80": 2928,
      "ĠSale": 2929,
      "ĠCount": 2930,
      "ĠMil": 2931,
      "Ġsales": 2932,
      "Ġcare": 2933,
      "ĠFace": 2934,
      "andom": 2935,
      "osing": 2936,
      "ĠOnly": 2937,
      "ounder": 2938,
      "ĠPrice": 2939,
      "ĠQuick": 2940,
      "Ġrecord": 2941,
      "Ġdevices": 2942,
      "list": 2943,
      "like": 2944,
      "ma": 2945,
      "uel": 2946,
      "ĠTable": 2947,
      "head": 2948,
      "asure": 2949,
      "river": 2950,
      "ĠExp": 2951,
      "Ġsupp": 2952,
      "Ġemployees": 2953,
      "Ġalternative": 2954,
      "ĠSupp": 2955,
      "Ġapplication": 2956,
      "AM": 2957,
      "AS": 2958,
      "self": 2959,
      "words": 2960,
      "ĠCrow": 2961,
      "ĠPage": 2962,
      "ĠWays": 2963,
      "ĠDirect": 2964,
      "Ġsingle": 2965,
      "Ġwrite": 2966,
      "etition": 2967,
      "ĠLim": 2968,
      "Ġmed": 2969,
      "idence": 2970,
      "ession": 2971,
      "Ġrad": 2972,
      "energy": 2973,
      "aunched": 2974,
      "ollar": 2975,
      "ĠHaskell": 2976,
      "ĠFounder": 2977,
      "ĠArchitecture": 2978,
      "da": 2979,
      "Ã©": 2980,
      "ĠSen": 2981,
      "rets": 2982,
      "ĠPredict": 2983,
      "ĠDesktop": 2984,
      "ety": 2985,
      "ĠGmail": 2986,
      "ĠEst": 2987,
      "ĠConc": 2988,
      "ipedia": 2989,
      "ervers": 2990,
      "ĠNotes": 2991,
      "flu": 2992,
      "ĠCommunity": 2993,
      "Ġagain": 2994,
      "verse": 2995,
      "covered": 2996,
      "NET": 2997,
      "eys": 2998,
      "ways": 2999,
      "Ġfile": 3000,
      "ĠHost": 3001,
      "ĠBooks": 3002,
      "ĠGets": 3003,
      "Ġmac": 3004,
      "oung": 3005,
      "plic": 3006,
      "argest": 3007,
      "ĠOrig": 3008,
      "ĠComing": 3009,
      "Ġaccount": 3010,
      "Ġexperience": 3011,
      "Ġincre": 3012,
      "ĠMoz": 3013,
      "enchmark": 3014,
      "EC": 3015,
      "eer": 3016,
      "ns": 3017,
      "rest": 3018,
      "ĠSaf": 3019,
      "ĠMath": 3020,
      "ĠWon": 3021,
      "ĠIr": 3022,
      "ĠBeta": 3023,
      "Ġwin": 3024,
      "ĠLib": 3025,
      "igr": 3026,
      "ags": 3027,
      "umer": 3028,
      "Ġthreat": 3029,
      "Ġrisk": 3030,
      "Ġshare": 3031,
      "Ġ25": 3032,
      "ĠOracle": 3033,
      "ĠAuto": 3034,
      "ĠAmericans": 3035,
      "ĠExperience": 3036,
      "ĠResearchers": 3037,
      "vertising": 3038,
      "Ġnever": 3039,
      "ĠMemory": 3040,
      "rastructure": 3041,
      "AT": 3042,
      "ipp": 3043,
      "Ġer": 3044,
      "erce": 3045,
      "ĠTor": 3046,
      "ĠRise": 3047,
      "ĠRoad": 3048,
      "ulator": 3049,
      "Ġrep": 3050,
      "ugin": 3051,
      "encies": 3052,
      "Ġclimate": 3053,
      "ether": 3054,
      "aterial": 3055,
      "Ġanyone": 3056,
      "Ġimage": 3057,
      "Ġauth": 3058,
      "ĠElectric": 3059,
      "elivery": 3060,
      "iddle": 3061,
      "Ġapplications": 3062,
      "BC": 3063,
      "Th": 3064,
      "ha": 3065,
      "Ġenergy": 3066,
      "ĠAT": 3067,
      "ĠCross": 3068,
      "ĠDream": 3069,
      "Ġschool": 3070,
      "ished": 3071,
      "Ġmiss": 3072,
      "ides": 3073,
      "ership": 3074,
      "ĠOther": 3075,
      "irl": 3076,
      "irth": 3077,
      "ups": 3078,
      "ĠThoughts": 3079,
      "ĠKore": 3080,
      "ĠInteractive": 3081,
      "Ġmeet": 3082,
      "ĠBring": 3083,
      "hemat": 3084,
      "Ġupdate": 3085,
      "aur": 3086,
      "hav": 3087,
      "ora": 3088,
      "ĠSF": 3089,
      "ĠSay": 3090,
      "ĠCO": 3091,
      "ĠMor": 3092,
      "Ġsites": 3093,
      "Ġcur": 3094,
      "Ġcap": 3095,
      "ĠBel": 3096,
      "Ġport": 3097,
      "Ġdet": 3098,
      "entral": 3099,
      "aked": 3100,
      "ĠRef": 3101,
      "Ġkn": 3102,
      "Ġintro": 3103,
      "ĠGoing": 3104,
      "Ġgovernment": 3105,
      "ĠColor": 3106,
      "ucker": 3107,
      "ĠManager": 3108,
      "Ġimprove": 3109,
      "ĠIdent": 3110,
      "Ġglobal": 3111,
      "ĠEducation": 3112,
      "ina": 3113,
      "ana": 3114,
      "Ġfull": 3115,
      "Ġcall": 3116,
      "acter": 3117,
      "ĠFour": 3118,
      "Ġdeep": 3119,
      "ĠNF": 3120,
      "ĠInv": 3121,
      "verage": 3122,
      "ĠVol": 3123,
      "ĠJe": 3124,
      "ĠDeploy": 3125,
      "ĠSecure": 3126,
      "axy": 3127,
      "erminal": 3128,
      "Ġdisc": 3129,
      "ĠObject": 3130,
      "Ġteach": 3131,
      "UI": 3132,
      "ved": 3133,
      "Ø±": 3134,
      "Ġident": 3135,
      "ening": 3136,
      "ĠCard": 3137,
      "leep": 3138,
      "ĠMyst": 3139,
      "edly": 3140,
      "ĠNav": 3141,
      "ĠNorth": 3142,
      "oose": 3143,
      "Ġhours": 3144,
      "akers": 3145,
      "Ġstand": 3146,
      "Ġstore": 3147,
      "ground": 3148,
      "rones": 3149,
      "ĠRecord": 3150,
      "Ġsecret": 3151,
      "ĠObama": 3152,
      "Ġsystems": 3153,
      "ĠSpaceX": 3154,
      "ĠDocument": 3155,
      "ĠDNS": 3156,
      "GPT": 3157,
      "ĠÂ": 3158,
      "inary": 3159,
      "esc": 3160,
      "acts": 3161,
      "ĠFood": 3162,
      "Ġinv": 3163,
      "etic": 3164,
      "ĠGra": 3165,
      "Ġmillion": 3166,
      "estro": 3167,
      "ĠVR": 3168,
      "ĠVulner": 3169,
      "ffects": 3170,
      "ients": 3171,
      "Ġrelease": 3172,
      "ĠCoronavirus": 3173,
      "offee": 3174,
      "ĠCustomer": 3175,
      "Ġcrypto": 3176,
      "EST": 3177,
      "ĠFBI": 3178,
      "AP": 3179,
      "Press": 3180,
      "oDB": 3181,
      "ĠMax": 3182,
      "ĠBuilt": 3183,
      "Ġbre": 3184,
      "Ġbooks": 3185,
      "oms": 3186,
      "ĠInformation": 3187,
      "2020": 3188,
      "ocol": 3189,
      "ĠAnother": 3190,
      "Ġequ": 3191,
      "ption": 3192,
      "achines": 3193,
      "Ġads": 3194,
      "ĠCommon": 3195,
      "Ġgetting": 3196,
      "Ġaround": 3197,
      "Ġrunning": 3198,
      "AI": 3199,
      "augh": 3200,
      "uation": 3201,
      "Ġtakes": 3202,
      "atives": 3203,
      "enue": 3204,
      "Ġfollow": 3205,
      "ĠWrong": 3206,
      "ĠDet": 3207,
      "ett": 3208,
      "eless": 3209,
      "ĠShare": 3210,
      "Ġrest": 3211,
      "ĠReally": 3212,
      "ĠHead": 3213,
      "ĠLooking": 3214,
      "ĠSnap": 3215,
      "opyright": 3216,
      "ĠJSON": 3217,
      "onymous": 3218,
      "ĠToday": 3219,
      "TC": 3220,
      "go": 3221,
      "uc": 3222,
      "erve": 3223,
      "ĠSing": 3224,
      "ĠSingle": 3225,
      "ĠCoding": 3226,
      "alf": 3227,
      "ster": 3228,
      "ĠPrivate": 3229,
      "ĠWrite": 3230,
      "Ġprivate": 3231,
      "ĠLove": 3232,
      "ĠLocal": 3233,
      "Ġmove": 3234,
      "ĠNvid": 3235,
      "amily": 3236,
      "ĠTheory": 3237,
      "change": 3238,
      "Ġname": 3239,
      "ĠVe": 3240,
      "uments": 3241,
      "ĠBegin": 3242,
      "apping": 3243,
      "ample": 3244,
      "Ġmodern": 3245,
      "ĠAnti": 3246,
      "ĠNvidia": 3247,
      "IM": 3248,
      "ailed": 3249,
      "come": 3250,
      "ĠAz": 3251,
      "ĠPa": 3252,
      "ĠBox": 3253,
      "Ġworth": 3254,
      "ĠGot": 3255,
      "Ġduring": 3256,
      "eline": 3257,
      "utral": 3258,
      "ĠStri": 3259,
      "agon": 3260,
      "Ġwhich": 3261,
      "ĠAds": 3262,
      "ĠQual": 3263,
      "ĠZero": 3264,
      "Ġpatent": 3265,
      "Ġelectric": 3266,
      "ĠÙħ": 3267,
      "ĠMozilla": 3268,
      "che": 3269,
      "iol": 3270,
      "ney": 3271,
      "itors": 3272,
      "ĠHad": 3273,
      "ĠPo": 3274,
      "ĠPri": 3275,
      "ĠFront": 3276,
      "ĠLay": 3277,
      "ĠNYC": 3278,
      "ume": 3279,
      "ubble": 3280,
      "Ġ2014": 3281,
      "Ġspeed": 3282,
      "Ġhead": 3283,
      "Ġworks": 3284,
      "ĠLearned": 3285,
      "Ġpract": 3286,
      "ĠStudio": 3287,
      "ĠImprove": 3288,
      "60": 3289,
      "TO": 3290,
      "ka": 3291,
      "lt": 3292,
      "ÙĨ": 3293,
      "ĠCook": 3294,
      "aling": 3295,
      "alle": 3296,
      "reme": 3297,
      "ĠMaps": 3298,
      "Ġcam": 3299,
      "Ġcars": 3300,
      "ades": 3301,
      "Ġlim": 3302,
      "Ġlove": 3303,
      "Ġref": 3304,
      "raine": 3305,
      "Ġrules": 3306,
      "ival": 3307,
      "echan": 3308,
      "Ġexp": 3309,
      "ientific": 3310,
      "Ġentreprene": 3311,
      "ĠAdvice": 3312,
      "ĠWikipedia": 3313,
      "where": 3314,
      "uckerberg": 3315,
      "cel": 3316,
      "gen": 3317,
      "ye": 3318,
      "ĠPan": 3319,
      "ĠMer": 3320,
      "omet": 3321,
      "Ġoffer": 3322,
      "ĠEvent": 3323,
      "ĠVersion": 3324,
      "ĠReasons": 3325,
      "Ġisn": 3326,
      "Ġplans": 3327,
      "rivers": 3328,
      "ieve": 3329,
      "anks": 3330,
      "Ġ2022": 3331,
      "Ġideas": 3332,
      "ĠGrowth": 3333,
      "ĠIdea": 3334,
      "oT": 3335,
      "ĠAug": 3336,
      "ĠTre": 3337,
      "ĠTouch": 3338,
      "ĠMc": 3339,
      "ĠRound": 3340,
      "ĠRules": 3341,
      "ĠGol": 3342,
      "ĠEqu": 3343,
      "iful": 3344,
      "Ġuses": 3345,
      "Ġchallen": 3346,
      "ĠZuckerberg": 3347,
      "ĠTechnical": 3348,
      "aptop": 3349,
      "Ġraises": 3350,
      "ĠFeature": 3351,
      "sych": 3352,
      "bon": 3353,
      "Ġfight": 3354,
      "ĠPir": 3355,
      "ĠMen": 3356,
      "ĠWater": 3357,
      "ĠDrive": 3358,
      "ĠLisp": 3359,
      "Ġmat": 3360,
      "utions": 3361,
      "otential": 3362,
      "Ġvirtual": 3363,
      "ĠConst": 3364,
      "Ġunivers": 3365,
      "Ġdep": 3366,
      "ĠNok": 3367,
      "ĠImprov": 3368,
      "ĠWordPress": 3369,
      "Ġmulti": 3370,
      "swer": 3371,
      "ĠAMD": 3372,
      "ĠCombinator": 3373,
      "25": 3374,
      "86": 3375,
      "ele": 3376,
      "ius": 3377,
      "ipping": 3378,
      "Ġtarget": 3379,
      "orst": 3380,
      "arison": 3381,
      "Ġaway": 3382,
      "ĠII": 3383,
      "Ġwomen": 3384,
      "ĠFake": 3385,
      "illed": 3386,
      "ecurity": 3387,
      "Ġ2010": 3388,
      "ronic": 3389,
      "ĠContin": 3390,
      "ĠFlash": 3391,
      "ĠEngineer": 3392,
      "ready": 3393,
      "ĠPolit": 3394,
      "Ġexperiment": 3395,
      "ĠAnnouncing": 3396,
      "ĠRevolution": 3397,
      "autiful": 3398,
      "Query": 3399,
      "ĠEnterprise": 3400,
      "DK": 3401,
      "Fl": 3402,
      "LI": 3403,
      "Wh": 3404,
      "comm": 3405,
      "rics": 3406,
      "ĠHis": 3407,
      "ĠMove": 3408,
      "ĠFile": 3409,
      "Ġbi": 3410,
      "Ġdifferent": 3411,
      "urch": 3412,
      "Ġlow": 3413,
      "ĠChrist": 3414,
      "Ġvulner": 3415,
      "ocks": 3416,
      "Ġshort": 3417,
      "Ġ24": 3418,
      "ĠPatent": 3419,
      "pected": 3420,
      "Ġeven": 3421,
      "Ġfounder": 3422,
      "idden": 3423,
      "Ġannounces": 3424,
      "ĠUkraine": 3425,
      "embly": 3426,
      "ĠNokia": 3427,
      "RL": 3428,
      "bab": 3429,
      "iation": 3430,
      "pir": 3431,
      "Ġx": 3432,
      "ĠAlex": 3433,
      "Ġfood": 3434,
      "ĠHu": 3435,
      "ĠHom": 3436,
      "ĠWire": 3437,
      "Ġshe": 3438,
      "Ġpopular": 3439,
      "ĠChar": 3440,
      "ĠThreat": 3441,
      "uster": 3442,
      "Ġ21": 3443,
      "ĠAdobe": 3444,
      "ashing": 3445,
      "Ġdeath": 3446,
      "ologies": 3447,
      "ances": 3448,
      "Ġprice": 3449,
      "ĠEngineers": 3450,
      "Ġmodels": 3451,
      "Ġreleases": 3452,
      "ĠGlass": 3453,
      "ĠGeneration": 3454,
      "ĠExperiment": 3455,
      "iety": 3456,
      "ĠFeatures": 3457,
      "ĠHyper": 3458,
      "PM": 3459,
      "ford": 3460,
      "power": 3461,
      "uk": 3462,
      "Ġearly": 3463,
      "ald": 3464,
      "Ġside": 3465,
      "Ġsolution": 3466,
      "ĠBot": 3467,
      "ĠFiles": 3468,
      "Ġbeta": 3469,
      "Ġgen": 3470,
      "ateg": 3471,
      "Ġ17": 3472,
      "Ġproblems": 3473,
      "ĠConference": 3474,
      "ensors": 3475,
      "covery": 3476,
      "jection": 3477,
      "ruction": 3478,
      "ĠBecome": 3479,
      "Ġanalysis": 3480,
      "Ġmemory": 3481,
      "Ġfeatures": 3482,
      "Ġreveals": 3483,
      "ĠEarly": 3484,
      "atellite": 3485,
      "15": 3486,
      "DF": 3487,
      "PR": 3488,
      "Pl": 3489,
      "so": 3490,
      "onse": 3491,
      "Ġter": 3492,
      "Ġdirect": 3493,
      "Ġmal": 3494,
      "Ġeas": 3495,
      "Ġ18": 3496,
      "ĠTrust": 3497,
      "ereum": 3498,
      "ĠUsed": 3499,
      "ĠInto": 3500,
      "ĠOfficial": 3501,
      "Ġtests": 3502,
      "Ġproducts": 3503,
      "ĠEvolution": 3504,
      "Ġimages": 3505,
      "ĠAcceler": 3506,
      "ĠChatGPT": 3507,
      "base": 3508,
      "xy": 3509,
      "Ġtable": 3510,
      "att": 3511,
      "ĠSun": 3512,
      "ĠSide": 3513,
      "ĠCrit": 3514,
      "ĠWants": 3515,
      "ĠIll": 3516,
      "Ġcle": 3517,
      "Ġcoding": 3518,
      "Ġwere": 3519,
      "Ġdes": 3520,
      "ĠLamb": 3521,
      "Ġhy": 3522,
      "through": 3523,
      "ĠContain": 3524,
      "Ġhackers": 3525,
      "Ġcommunity": 3526,
      "ographic": 3527,
      "brid": 3528,
      "ĠProgrammer": 3529,
      "riendly": 3530,
      "ĠVenture": 3531,
      "ĠAzure": 3532,
      "uys": 3533,
      "ont": 3534,
      "Ġtem": 3535,
      "itt": 3536,
      "itary": 3537,
      "ĠCars": 3538,
      "ĠDig": 3539,
      "ĠEss": 3540,
      "Ġlost": 3541,
      "Ġhit": 3542,
      "irc": 3543,
      "raud": 3544,
      "Ġthing": 3545,
      "ounter": 3546,
      "ĠShows": 3547,
      "ĠWhats": 3548,
      "Ġplace": 3549,
      "inking": 3550,
      "ĠIndian": 3551,
      "Ġquantum": 3552,
      "ĠAnyone": 3553,
      "ĠEuropean": 3554,
      "porate": 3555,
      "Ġcyber": 3556,
      "greSQL": 3557,
      "ĠSpotify": 3558,
      "14": 3559,
      "ball": 3560,
      "got": 3561,
      "hing": 3562,
      "ĠSal": 3563,
      "ĠPark": 3564,
      "ĠPush": 3565,
      "ĠPaper": 3566,
      "ĠMuch": 3567,
      "ĠDat": 3568,
      "Ġsn": 3569,
      "Ġsave": 3570,
      "ĠREST": 3571,
      "Ġboard": 3572,
      "ĠGive": 3573,
      "ĠGates": 3574,
      "ĠLanguages": 3575,
      "Ġmark": 3576,
      "ĠAnim": 3577,
      "istics": 3578,
      "ĠKids": 3579,
      "izer": 3580,
      "ĠScale": 3581,
      "ikely": 3582,
      "ĠPlans": 3583,
      "ĠBlue": 3584,
      "Ġtracking": 3585,
      "Ġworkers": 3586,
      "ological": 3587,
      "ĠSecond": 3588,
      "rict": 3589,
      "eeks": 3590,
      "ĠOrgan": 3591,
      "ĠEven": 3592,
      "Ġimm": 3593,
      "ĠPostgreSQL": 3594,
      "ĠRobots": 3595,
      "Ġimport": 3596,
      "ĠIncre": 3597,
      "Ġlooking": 3598,
      "ĠAlgorithms": 3599,
      "Ġreveal": 3600,
      "ĠEthereum": 3601,
      "Ġmonths": 3602,
      "Ġsuccessful": 3603,
      "cy": 3604,
      "ray": 3605,
      "script": 3606,
      "ufact": 3607,
      "ÙĪ": 3608,
      "atically": 3609,
      "ĠDes": 3610,
      "Ġoptim": 3611,
      "Ġmass": 3612,
      "ently": 3613,
      "iday": 3614,
      "amples": 3615,
      "osp": 3616,
      "Ġvers": 3617,
      "ĠKind": 3618,
      "ĠKick": 3619,
      "ĠTracking": 3620,
      "reads": 3621,
      "epend": 3622,
      "ĠStrategy": 3623,
      "Ġaddress": 3624,
      "Ġlaws": 3625,
      "ĠScala": 3626,
      "Ġstorage": 3627,
      "Ġfeature": 3628,
      "bedd": 3629,
      "ĠAfrica": 3630,
      "lines": 3631,
      "put": 3632,
      "Ġel": 3633,
      "ĠSO": 3634,
      "ĠSex": 3635,
      "ĠTow": 3636,
      "Ġfake": 3637,
      "Ġfirm": 3638,
      "ĠHP": 3639,
      "ĠMong": 3640,
      "Ġdi": 3641,
      "Ġdomain": 3642,
      "used": 3643,
      "thers": 3644,
      "Ġvideos": 3645,
      "ĠBeyond": 3646,
      "ĠImm": 3647,
      "Ġgoes": 3648,
      "Ġneeds": 3649,
      "ĠPolice": 3650,
      "ĠPatterns": 3651,
      "pression": 3652,
      "Ġeditor": 3653,
      "Ġprotect": 3654,
      "ĠIdeas": 3655,
      "ĠDNA": 3656,
      "ĠSurvey": 3657,
      "Ġtraffic": 3658,
      "ĠInnovation": 3659,
      "ĠGalaxy": 3660,
      "ĠLinkedIn": 3661,
      "GL": 3662,
      "PL": 3663,
      "ein": 3664,
      "ios": 3665,
      "esis": 3666,
      "ored": 3667,
      "ĠPers": 3668,
      "icing": 3669,
      "iling": 3670,
      "Ġdel": 3671,
      "ĠEC": 3672,
      "Ġmight": 3673,
      "ecraft": 3674,
      "pper": 3675,
      "adem": 3676,
      "ĠJournal": 3677,
      "plate": 3678,
      "Ġcharg": 3679,
      "ientist": 3680,
      "Ġscientists": 3681,
      "ĠMany": 3682,
      "ĠCommand": 3683,
      "Ġcrash": 3684,
      "Ġbiggest": 3685,
      "wards": 3686,
      "Ġmanager": 3687,
      "Ġextension": 3688,
      "ĠLatest": 3689,
      "Ġissues": 3690,
      "Ġquestions": 3691,
      "ĠChallenge": 3692,
      "ĠCanada": 3693,
      "22": 3694,
      "PG": 3695,
      "ww": 3696,
      "ĠTen": 3697,
      "ĠCell": 3698,
      "ĠCulture": 3699,
      "ĠPublish": 3700,
      "ĠMyth": 3701,
      "ĠWars": 3702,
      "ĠIoT": 3703,
      "Ġsale": 3704,
      "ĠBased": 3705,
      "ĠBattle": 3706,
      "isions": 3707,
      "ĠFaster": 3708,
      "Ġbillion": 3709,
      "Ġpredict": 3710,
      "ĠLarge": 3711,
      "ĠUX": 3712,
      "ector": 3713,
      "2010": 3714,
      "ugging": 3715,
      "ync": 3716,
      "ployee": 3717,
      "ĠDoesn": 3718,
      "ĠHardware": 3719,
      "ĠStorage": 3720,
      "ĠClean": 3721,
      "ĠBootst": 3722,
      "BSD": 3723,
      "IP": 3724,
      "eets": 3725,
      "Ġ=": 3726,
      "onents": 3727,
      "ĠTex": 3728,
      "ĠCredit": 3729,
      "ĠPip": 3730,
      "âĢĬ": 3731,
      "Ġbill": 3732,
      "ourcing": 3733,
      "Ġline": 3734,
      "Ġhad": 3735,
      "Ġhiring": 3736,
      "Ġgive": 3737,
      "ĠVideos": 3738,
      "abilities": 3739,
      "even": 3740,
      "ĠCongress": 3741,
      "ĠWebsites": 3742,
      "issions": 3743,
      "coming": 3744,
      "ĠSwitch": 3745,
      "ĠSurv": 3746,
      "ĠEdition": 3747,
      "Ġpolit": 3748,
      "onomous": 3749,
      "Ġcoronavirus": 3750,
      "ĠMovie": 3751,
      "Ġchanges": 3752,
      "ĠRaises": 3753,
      "ĠARM": 3754,
      "ĠDropbox": 3755,
      "99": 3756,
      "Pro": 3757,
      "ead": 3758,
      "key": 3759,
      "ãĥ": 3760,
      "ĠSem": 3761,
      "rem": 3762,
      "reens": 3763,
      "ĠPlease": 3764,
      "Ġage": 3765,
      "icense": 3766,
      "ĠMust": 3767,
      "ĠWal": 3768,
      "ĠIE": 3769,
      "ĠBug": 3770,
      "Ġways": 3771,
      "Ġinformation": 3772,
      "etch": 3773,
      "oos": 3774,
      "imer": 3775,
      "ĠProv": 3776,
      "aining": 3777,
      "izz": 3778,
      "Ġdoing": 3779,
      "aches": 3780,
      "Ġintelligence": 3781,
      "ifications": 3782,
      "Ġsecure": 3783,
      "Ġofficial": 3784,
      "2009": 3785,
      "Ġcommun": 3786,
      "ribution": 3787,
      "ĠFoundation": 3788,
      "ĠLaws": 3789,
      "ĠJapanese": 3790,
      "ĠEconomy": 3791,
      "ĠPresident": 3792,
      "Ġcustomers": 3793,
      "enefits": 3794,
      "ĠmacOS": 3795,
      "utrality": 3796,
      "16": 3797,
      "work": 3798,
      "ined": 3799,
      "ĠCod": 3800,
      "ĠHell": 3801,
      "ĠHiring": 3802,
      "ĠPopular": 3803,
      "ĠMail": 3804,
      "ĠMeta": 3805,
      "ĠIC": 3806,
      "ĠDI": 3807,
      "Ġsex": 3808,
      "Ġcity": 3809,
      "ĠBer": 3810,
      "ĠBan": 3811,
      "Ġwatch": 3812,
      "Ġmajor": 3813,
      "igation": 3814,
      "ĠUlt": 3815,
      "opt": 3816,
      "ĠVP": 3817,
      "ĠProgress": 3818,
      "grade": 3819,
      "ively": 3820,
      "ĠSpeech": 3821,
      "phones": 3822,
      "oku": 3823,
      "Ġphys": 3824,
      "ĠCrisis": 3825,
      "Ġfinds": 3826,
      "Ġcomputing": 3827,
      "Ġminutes": 3828,
      "Ġclaims": 3829,
      "allel": 3830,
      "hood": 3831,
      "ores": 3832,
      "ĠTravel": 3833,
      "Ġfocus": 3834,
      "ĠHumans": 3835,
      "ĠPodcast": 3836,
      "ĠDav": 3837,
      "ĠDomain": 3838,
      "Ġsell": 3839,
      "Ġsomething": 3840,
      "Ġwind": 3841,
      "Ġwater": 3842,
      "ĠFact": 3843,
      "ĠReb": 3844,
      "oming": 3845,
      "ĠNY": 3846,
      "ola": 3847,
      "pens": 3848,
      "ĠUnix": 3849,
      "ugg": 3850,
      "ĠFlight": 3851,
      "cont": 3852,
      "ĠStarted": 3853,
      "eliver": 3854,
      "ĠAvoid": 3855,
      "ĠUniversity": 3856,
      "ĠDistributed": 3857,
      "Ġdocument": 3858,
      "OL": 3859,
      "Ø¨": 3860,
      "onst": 3861,
      "Ġtips": 3862,
      "ories": 3863,
      "ĠSym": 3864,
      "enger": 3865,
      "Ġfriends": 3866,
      "Ġfavorite": 3867,
      "ĠMajor": 3868,
      "ĠDays": 3869,
      "Ġcome": 3870,
      "Ġwriting": 3871,
      "isition": 3872,
      "usp": 3873,
      "ĠJack": 3874,
      "istakes": 3875,
      "ĠProblems": 3876,
      "inder": 3877,
      "ishing": 3878,
      "ĠIndex": 3879,
      "Ġresults": 3880,
      "ibraries": 3881,
      "ĠCollege": 3882,
      "ĠEdge": 3883,
      "ĠDevOps": 3884,
      "Ġacross": 3885,
      "Ġmarketing": 3886,
      "ĠAngel": 3887,
      "ĠCenter": 3888,
      "ĠMagic": 3889,
      "ĠEnglish": 3890,
      "Ġswitch": 3891,
      "bnb": 3892,
      "17": 3893,
      "IC": 3894,
      "LS": 3895,
      "Tech": 3896,
      "US": 3897,
      "bs": 3898,
      "do": 3899,
      "Ø©": 3900,
      "Ø¯": 3901,
      "Ġtype": 3902,
      "atory": 3903,
      "ĠSell": 3904,
      "iti": 3905,
      "itable": 3906,
      "Ġcard": 3907,
      "Ġcrit": 3908,
      "ĠGreen": 3909,
      "ĠLetter": 3910,
      "asc": 3911,
      "ĠUr": 3912,
      "otion": 3913,
      "imin": 3914,
      "Ġlab": 3915,
      "Ġhot": 3916,
      "aged": 3917,
      "artment": 3918,
      "Ġkids": 3919,
      "Ġorgan": 3920,
      "Ġscreen": 3921,
      "ĠWorks": 3922,
      "Ġcontain": 3923,
      "Ġmean": 3924,
      "posed": 3925,
      "Ġstudents": 3926,
      "annel": 3927,
      "Ġadvice": 3928,
      "ĠTypeScript": 3929,
      "aire": 3930,
      "ban": 3931,
      "free": 3932,
      "pin": 3933,
      "side": 3934,
      "Ùħ": 3935,
      "itting": 3936,
      "rel": 3937,
      "ĠPal": 3938,
      "ĠMethod": 3939,
      "Ġcalls": 3940,
      "ĠLand": 3941,
      "ĠLittle": 3942,
      "entication": 3943,
      "ĠNight": 3944,
      "veils": 3945,
      "urance": 3946,
      "Ġlat": 3947,
      "Ġlay": 3948,
      "arts": 3949,
      "ĠRequest": 3950,
      "ĠAnonymous": 3951,
      "Ġchar": 3952,
      "Ġdeploy": 3953,
      "ĠMySQL": 3954,
      "ancing": 3955,
      "Ġ60": 3956,
      "Ġoffers": 3957,
      "ĠAirbnb": 3958,
      "Ġengineering": 3959,
      "Ġbring": 3960,
      "Ġpolice": 3961,
      "500": 3962,
      "Ex": 3963,
      "Up": 3964,
      "ding": 3965,
      "ks": 3966,
      "lang": 3967,
      "ining": 3968,
      "ĠPR": 3969,
      "ĠPut": 3970,
      "ĠDen": 3971,
      "ĠDom": 3972,
      "Ġsame": 3973,
      "Ġmag": 3974,
      "Ġmust": 3975,
      "ention": 3976,
      "ests": 3977,
      "Ġrequ": 3978,
      "aks": 3979,
      "ĠShut": 3980,
      "istant": 3981,
      "osition": 3982,
      "ĠConvers": 3983,
      "ĠClient": 3984,
      "Ġwhile": 3985,
      "Ġ500": 3986,
      "ĠResults": 3987,
      "pective": 3988,
      "asks": 3989,
      "Ġphotos": 3990,
      "havior": 3991,
      "EA": 3992,
      "FS": 3993,
      "OR": 3994,
      "tor": 3995,
      "ĠTarget": 3996,
      "ĠCash": 3997,
      "ĠMis": 3998,
      "ĠDiff": 3999,
      "Ġpand": 4000,
      "Ġpossible": 4001,
      "Ġmap": 4002,
      "igration": 4003,
      "ĠStates": 4004,
      "Ġlocal": 4005,
      "Ġhumans": 4006,
      "iral": 4007,
      "Ġrequest": 4008,
      "osoph": 4009,
      "izon": 4010,
      "Ġconc": 4011,
      "ĠWorkers": 4012,
      "ĠMean": 4013,
      "Ġprin": 4014,
      "ĠAgain": 4015,
      "ĠStudents": 4016,
      "ĠDevices": 4017,
      "ĠInvestors": 4018,
      "ĠEveryone": 4019,
      "Ġcreated": 4020,
      "Ġsolar": 4021,
      "Ġslow": 4022,
      "ĠGerman": 4023,
      "ĠGermany": 4024,
      "ĠRadio": 4025,
      "ĠAustralia": 4026,
      "entralized": 4027,
      "DA": 4028,
      "DC": 4029,
      "Tr": 4030,
      "cient": 4031,
      "tech": 4032,
      "ĠCR": 4033,
      "Ġfall": 4034,
      "ĠPast": 4035,
      "Ġcell": 4036,
      "ĠBur": 4037,
      "ĠBetween": 4038,
      "ĠBattery": 4039,
      "ĠFit": 4040,
      "Ġbas": 4041,
      "Ġbot": 4042,
      "ilot": 4043,
      "ĠLine": 4044,
      "ĠNike": 4045,
      "ĠNuclear": 4046,
      "cean": 4047,
      "ems": 4048,
      "osed": 4049,
      "ĠApproach": 4050,
      "duce": 4051,
      "ĠBeen": 4052,
      "Ġsharing": 4053,
      "ensions": 4054,
      "ousands": 4055,
      "ixel": 4056,
      "ertain": 4057,
      "ĠFinding": 4058,
      "ĠProtect": 4059,
      "ĠFormer": 4060,
      "Ġreturn": 4061,
      "ĠTraffic": 4062,
      "ĠRespons": 4063,
      "ciples": 4064,
      "ĠKorea": 4065,
      "ĠLambda": 4066,
      "bot": 4067,
      "iev": 4068,
      "ĠSound": 4069,
      "ĠSeat": 4070,
      "alent": 4071,
      "Ġfact": 4072,
      "ĠBri": 4073,
      "acs": 4074,
      "ĠFCC": 4075,
      "Ġinnov": 4076,
      "Ġdue": 4077,
      "ĠLL": 4078,
      "Ġmen": 4079,
      "ĠNational": 4080,
      "ĠNumber": 4081,
      "ĠNumbers": 4082,
      "ĠURL": 4083,
      "oting": 4084,
      "Ġlanguages": 4085,
      "upid": 4086,
      "ĠProjects": 4087,
      "action": 4088,
      "ĠAlternative": 4089,
      "198": 4090,
      "ĠStep": 4091,
      "ĠFunctional": 4092,
      "Ġunderst": 4093,
      "ĠAvailable": 4094,
      "ĠProgrammers": 4095,
      "ĠSurveillance": 4096,
      "Ġmicro": 4097,
      "elebr": 4098,
      "64": 4099,
      "GB": 4100,
      "ĠSV": 4101,
      "ĠTaking": 4102,
      "rect": 4103,
      "Ġfr": 4104,
      "Ġfeedback": 4105,
      "ĠMast": 4106,
      "ĠWalk": 4107,
      "ĠBenchmark": 4108,
      "ĠFar": 4109,
      "etc": 4110,
      "Ġdom": 4111,
      "ĠLost": 4112,
      "ĠVim": 4113,
      "Ġevent": 4114,
      "Ġanother": 4115,
      "ĠScreen": 4116,
      "ĠResources": 4117,
      "ĠGoes": 4118,
      "Ġeng": 4119,
      "Ġquick": 4120,
      "2008": 4121,
      "ĠProductivity": 4122,
      "Ġhelps": 4123,
      "ĠCrash": 4124,
      "posal": 4125,
      "ĠExplor": 4126,
      "Ġcrisis": 4127,
      "Ġdevice": 4128,
      "Ġavoid": 4129,
      "ĠGrowing": 4130,
      "ĠThinking": 4131,
      "Ġsmartphone": 4132,
      "ĠHappy": 4133,
      "ĠEntrepreneur": 4134,
      "ĠPhysics": 4135,
      "ĠSnowden": 4136,
      "ĠInternational": 4137,
      "ĠMongoDB": 4138,
      "Do": 4139,
      "Source": 4140,
      "TE": 4141,
      "TS": 4142,
      "ei": 4143,
      "house": 4144,
      "opping": 4145,
      "pired": 4146,
      "Ġtreat": 4147,
      "ĠSafe": 4148,
      "ĠAff": 4149,
      "ĠTom": 4150,
      "ĠTiny": 4151,
      "Ġface": 4152,
      "Ġfront": 4153,
      "edom": 4154,
      "ĠDaily": 4155,
      "Ġcampaign": 4156,
      "ĠES": 4157,
      "ĠName": 4158,
      "ĠNatural": 4159,
      "Ġnumber": 4160,
      "Ġyet": 4161,
      "ĠShop": 4162,
      "ptions": 4163,
      "Ġapproach": 4164,
      "Ġcompet": 4165,
      "Ġintegr": 4166,
      "oke": 4167,
      "ĠFrench": 4168,
      "Ġcommand": 4169,
      "Ġphones": 4170,
      "ifying": 4171,
      "Ġstarted": 4172,
      "oints": 4173,
      "ĠFinally": 4174,
      "ĠPassword": 4175,
      "ĠPresent": 4176,
      "Ġdistributed": 4177,
      "weight": 4178,
      "ĠCollabor": 4179,
      "angerous": 4180,
      "ĠTraining": 4181,
      "comput": 4182,
      "Sc": 4183,
      "gl": 4184,
      "iest": 4185,
      "ny": 4186,
      "ued": 4187,
      "yl": 4188,
      "ĠSand": 4189,
      "ĠSony": 4190,
      "ĠAway": 4191,
      "ĠAudio": 4192,
      "arch": 4193,
      "ĠMV": 4194,
      "ĠFore": 4195,
      "Ġintern": 4196,
      "Ġbattery": 4197,
      "ilar": 4198,
      "Ġmind": 4199,
      "ĠNob": 4200,
      "ĠSharing": 4201,
      "ĠRepl": 4202,
      "Ġanim": 4203,
      "ousing": 4204,
      "ĠForce": 4205,
      "Ġsecond": 4206,
      "Ġrecommend": 4207,
      "Ġhacked": 4208,
      "ĠCollection": 4209,
      "ĠProduction": 4210,
      "ĠSlow": 4211,
      "ĠCalcul": 4212,
      "Ġimpact": 4213,
      "ĠFinancial": 4214,
      "ĠReady": 4215,
      "ĠMoon": 4216,
      "ĠFunding": 4217,
      "ĠLegal": 4218,
      "ĠCamera": 4219,
      "hematics": 4220,
      "Part": 4221,
      "Un": 4222,
      "eing": 4223,
      "ratch": 4224,
      "uce": 4225,
      "ĠTakes": 4226,
      "ĠCampaign": 4227,
      "ĠCoffee": 4228,
      "Ġfac": 4229,
      "ĠMight": 4230,
      "ĠWest": 4231,
      "ĠDifferent": 4232,
      "ĠBid": 4233,
      "ĠBoard": 4234,
      "ĠBoost": 4235,
      "Ġpublish": 4236,
      "otes": 4237,
      "Ġlittle": 4238,
      "Ġnuclear": 4239,
      "ĠVM": 4240,
      "abs": 4241,
      "ĠReading": 4242,
      "ĠAnn": 4243,
      "ister": 4244,
      "izes": 4245,
      "Ġshut": 4246,
      "ĠTrue": 4247,
      "ĠAlph": 4248,
      "athon": 4249,
      "ĠBiggest": 4250,
      "atabases": 4251,
      "ĠNeeds": 4252,
      "Ġ2023": 4253,
      "ĠDebt": 4254,
      "Ġfinally": 4255,
      "Ġanti": 4256,
      "Ġalgorithm": 4257,
      "Work": 4258,
      "ait": 4259,
      "rum": 4260,
      "ĠÐ": 4261,
      "erry": 4262,
      "ĠSat": 4263,
      "ĠTreat": 4264,
      "ĠPDF": 4265,
      "ica": 4266,
      "ĠWel": 4267,
      "ĠBing": 4268,
      "Ġpast": 4269,
      "Ġpaper": 4270,
      "ĠGPT": 4271,
      "ĠOct": 4272,
      "otype": 4273,
      "ĠStan": 4274,
      "Ġhold": 4275,
      "ĠJoin": 4276,
      "Ġstock": 4277,
      "ĠIsn": 4278,
      "antic": 4279,
      "Ġ--": 4280,
      "ĠUSB": 4281,
      "Ġsoon": 4282,
      "Ġengineers": 4283,
      "Ġremov": 4284,
      "Ġgeneration": 4285,
      "ĠDrone": 4286,
      "Ġfounders": 4287,
      "ĠAdvanced": 4288,
      "ĠProfess": 4289,
      "ĠProcessing": 4290,
      "Ġfunding": 4291,
      "ĠChanges": 4292,
      "Ġtalks": 4293,
      "ĠStreaming": 4294,
      "Ġmalware": 4295,
      "ĠWhatsApp": 4296,
      "res": 4297,
      "wide": 4298,
      "Ġve": 4299,
      "Ġear": 4300,
      "Ġtell": 4301,
      "Ġtimes": 4302,
      "itions": 4303,
      "ĠTyp": 4304,
      "Ġap": 4305,
      "rops": 4306,
      "ĠWorth": 4307,
      "Ġbel": 4308,
      "ĠGaming": 4309,
      "ĠLo": 4310,
      "ĠLock": 4311,
      "ĠLevel": 4312,
      "elines": 4313,
      "ooth": 4314,
      "ĠStay": 4315,
      "Ġrepl": 4316,
      "osh": 4317,
      "Ġvoice": 4318,
      "Ġprov": 4319,
      "ĠComplex": 4320,
      "ĠUnited": 4321,
      "udge": 4322,
      "ĠCancer": 4323,
      "Ġorig": 4324,
      "ĠMacBook": 4325,
      "apture": 4326,
      "Ġinside": 4327,
      "Ġinstall": 4328,
      "Ġkeyboard": 4329,
      "ercial": 4330,
      "ĠSuccessful": 4331,
      "ĠDavid": 4332,
      "IF": 4333,
      "Tok": 4334,
      "code": 4335,
      "df": 4336,
      "ĠPe": 4337,
      "Ġdesktop": 4338,
      "Ġmath": 4339,
      "oles": 4340,
      "istor": 4341,
      "Ġthree": 4342,
      "endar": 4343,
      "ansom": 4344,
      "ĠTrends": 4345,
      "ĠMonitoring": 4346,
      "ĠFrance": 4347,
      "ĠInstall": 4348,
      "Ġproduction": 4349,
      "Ġcomments": 4350,
      "Ġaccounts": 4351,
      "ĠGenerator": 4352,
      "Ġnetworks": 4353,
      "iques": 4354,
      "uzzle": 4355,
      "ĠPaul": 4356,
      "ĠDIY": 4357,
      "13": 4358,
      "AC": 4359,
      "mo": 4360,
      "mon": 4361,
      "pre": 4362,
      "Ġur": 4363,
      "ĠAwesome": 4364,
      "eness": 4365,
      "itation": 4366,
      "itiz": 4367,
      "ico": 4368,
      "Ġscript": 4369,
      "ĠBab": 4370,
      "ĠFeed": 4371,
      "ĠGre": 4372,
      "ĠLiving": 4373,
      "ĠEas": 4374,
      "ented": 4375,
      "ĠNov": 4376,
      "idate": 4377,
      "earing": 4378,
      "osystem": 4379,
      "Ġvaccine": 4380,
      "apse": 4381,
      "actions": 4382,
      "ĠAround": 4383,
      "ĠHacked": 4384,
      "Ġblack": 4385,
      "ĠOffer": 4386,
      "Ġrock": 4387,
      "Ġdownload": 4388,
      "ĠMultiple": 4389,
      "ĠMarch": 4390,
      "ĠDemo": 4391,
      "Ġdrone": 4392,
      "Ġmultiple": 4393,
      "Ġlonger": 4394,
      "ĠPractices": 4395,
      "ĠCareer": 4396,
      "ttp": 4397,
      "ĠDynamic": 4398,
      "Ġsurveillance": 4399,
      "ĠTexas": 4400,
      "40": 4401,
      "En": 4402,
      "han": 4403,
      "kit": 4404,
      "met": 4405,
      "Ġorder": 4406,
      "ano": 4407,
      "ĠSoc": 4408,
      "ĠTik": 4409,
      "ĠPath": 4410,
      "ĠMaster": 4411,
      "ĠMaker": 4412,
      "Ġcross": 4413,
      "ĠBirth": 4414,
      "Ġwell": 4415,
      "ĠFal": 4416,
      "ĠRap": 4417,
      "âĢ¦": 4418,
      "Ġboost": 4419,
      "idation": 4420,
      "ĠâĢĶ": 4421,
      "chat": 4422,
      "Ġlarge": 4423,
      "Ġlaunched": 4424,
      "ceed": 4425,
      "rial": 4426,
      "ully": 4427,
      "2021": 4428,
      "aken": 4429,
      "Ġstay": 4430,
      "ĠChildren": 4431,
      "aching": 4432,
      "rives": 4433,
      "riter": 4434,
      "ĠDesigning": 4435,
      "Ġ80": 4436,
      "ĠMini": 4437,
      "Ġcomputers": 4438,
      "raction": 4439,
      "ĠExtension": 4440,
      "Ġeconomy": 4441,
      "Ġimplementation": 4442,
      "18": 4443,
      "As": 4444,
      "log": 4445,
      "yes": 4446,
      "Ø³": 4447,
      "ĠCLI": 4448,
      "starter": 4449,
      "Ġfire": 4450,
      "Ġselling": 4451,
      "Ġcool": 4452,
      "aced": 4453,
      "ĠFeedback": 4454,
      "ĠRank": 4455,
      "Ġpoint": 4456,
      "oment": 4457,
      "ascript": 4458,
      "iding": 4459,
      "uses": 4460,
      "ĠStyle": 4461,
      "ried": 4462,
      "Ġstack": 4463,
      "Ġstatic": 4464,
      "ĠThing": 4465,
      "aven": 4466,
      "ipe": 4467,
      "ĠScri": 4468,
      "ude": 4469,
      "ternatives": 4470,
      "erns": 4471,
      "Ġmanage": 4472,
      "Ġrecognition": 4473,
      "ĠAgile": 4474,
      "ĠSteps": 4475,
      "ĠObs": 4476,
      "heme": 4477,
      "ĠPhoto": 4478,
      "ĠSetting": 4479,
      "Ġeverything": 4480,
      "Ġvalue": 4481,
      "Ġcourt": 4482,
      "ĠImportant": 4483,
      "aught": 4484,
      "Net": 4485,
      "faces": 4486,
      "ham": 4487,
      "hips": 4488,
      "lim": 4489,
      "mar": 4490,
      "pack": 4491,
      "til": 4492,
      "wood": 4493,
      "Ġest": 4494,
      "ĠAction": 4495,
      "ĠCoin": 4496,
      "oub": 4497,
      "ĠWell": 4498,
      "ĠIS": 4499,
      "ĠDog": 4500,
      "Ġmethod": 4501,
      "ĠInvent": 4502,
      "ĠYoung": 4503,
      "ĠRequ": 4504,
      "ifest": 4505,
      "ĠTher": 4506,
      "ĠThese": 4507,
      "ĠKing": 4508,
      "ivil": 4509,
      "ĠCompet": 4510,
      "Ġconst": 4511,
      "Ġlets": 4512,
      "ĠImages": 4513,
      "ĠUSA": 4514,
      "isease": 4515,
      "rypted": 4516,
      "Ġcontin": 4517,
      "redic": 4518,
      "ĠComputers": 4519,
      "ĠTeams": 4520,
      "ĠRedis": 4521,
      "Ġhacking": 4522,
      "ĠInstant": 4523,
      "arming": 4524,
      "ĠTransform": 4525,
      "ĠPlanet": 4526,
      "ĠGraphQL": 4527,
      "ĠServerless": 4528,
      "ĠUniverse": 4529,
      "Ġposts": 4530,
      "Ġrobots": 4531,
      "Ġrevolution": 4532,
      "ĠBroad": 4533,
      "ĠReveals": 4534,
      "ocracy": 4535,
      "ĠQuality": 4536,
      "Ġentrepreneurs": 4537,
      "ĠGolang": 4538,
      "PC": 4539,
      "ged": 4540,
      "iot": 4541,
      "iences": 4542,
      "rors": 4543,
      "tic": 4544,
      "ĠCool": 4545,
      "ĠPeter": 4546,
      "Ġcrow": 4547,
      "ĠBraz": 4548,
      "Ġmil": 4549,
      "add": 4550,
      "Ġlooks": 4551,
      "ĠVoice": 4552,
      "mented": 4553,
      "ĠIsra": 4554,
      "Ġchip": 4555,
      "intend": 4556,
      "Ġroll": 4557,
      "ĠMinutes": 4558,
      "ĠTransl": 4559,
      "Ġteams": 4560,
      "ĠEditor": 4561,
      "ĠExplo": 4562,
      "ĠCreative": 4563,
      "Ġcollege": 4564,
      "ĠReturn": 4565,
      "ĠKeyboard": 4566,
      "eaks": 4567,
      "ĠUniversal": 4568,
      "Ġstrategy": 4569,
      "Ġgrowth": 4570,
      "bersecurity": 4571,
      "ĠStandard": 4572,
      "ĠJeff": 4573,
      "estroy": 4574,
      "Ġcamera": 4575,
      "ĠTikTok": 4576,
      "Tor": 4577,
      "eal": 4578,
      "mp": 4579,
      "Ġâ": 4580,
      "Ġtravel": 4581,
      "ĠSites": 4582,
      "ĠAud": 4583,
      "itz": 4584,
      "ĠTypes": 4585,
      "ĠHor": 4586,
      "ĠMatter": 4587,
      "road": 4588,
      "ĠFlex": 4589,
      "ĠFollow": 4590,
      "ĠRace": 4591,
      "ĠRandom": 4592,
      "ĠGod": 4593,
      "ami": 4594,
      "olf": 4595,
      "urp": 4596,
      "Ġnet": 4597,
      "Ġnumbers": 4598,
      "emale": 4599,
      "Ġreading": 4600,
      "ĠCharg": 4601,
      "gres": 4602,
      "ĠExist": 4603,
      "ĠTrad": 4604,
      "ĠTrading": 4605,
      "Ġ64": 4606,
      "Ġevolution": 4607,
      "ĠAccount": 4608,
      "ĠCryptocurrency": 4609,
      "ifference": 4610,
      "Ġfunction": 4611,
      "ourney": 4612,
      "Ġdrug": 4613,
      "Ġcustomer": 4614,
      "Ġchanged": 4615,
      "ĠErlang": 4616,
      "Ġfilm": 4617,
      "forcement": 4618,
      "ĠReveal": 4619,
      "ĠBritish": 4620,
      "Ġpandemic": 4621,
      "Ass": 4622,
      "driving": 4623,
      "her": 4624,
      "ĠSix": 4625,
      "ĠSong": 4626,
      "ĠSelling": 4627,
      "inger": 4628,
      "arian": 4629,
      "Ġfeel": 4630,
      "ĠHub": 4631,
      "lev": 4632,
      "Ġaudio": 4633,
      "icious": 4634,
      "Ġsuggest": 4635,
      "Ġcaus": 4636,
      "ĠRock": 4637,
      "Ġinclud": 4638,
      "Ġpush": 4639,
      "ĠGN": 4640,
      "ĠLoss": 4641,
      "Ġmer": 4642,
      "ĠStatic": 4643,
      "Ġstri": 4644,
      "ĠChrom": 4645,
      "ived": 4646,
      "Ġexist": 4647,
      "ĠTrade": 4648,
      "Ġkind": 4649,
      "ĠAren": 4650,
      "Ġtrust": 4651,
      "ĠArea": 4652,
      "Ġadds": 4653,
      "ĠSecrets": 4654,
      "letter": 4655,
      "ĠValue": 4656,
      "Ġoffice": 4657,
      "ĠPreview": 4658,
      "Ġacceler": 4659,
      "ructures": 4660,
      "ĠSky": 4661,
      "Ġpassword": 4662,
      "ĠBecame": 4663,
      "Ġblockchain": 4664,
      "Ġeveryone": 4665,
      "ĠChanging": 4666,
      "ĠEncryption": 4667,
      "ĠBasic": 4668,
      "ĠSpecial": 4669,
      "ĠHeroku": 4670,
      "bably": 4671,
      "ependent": 4672,
      "37": 4673,
      "OP": 4674,
      "uge": 4675,
      "inst": 4676,
      "ĠSir": 4677,
      "ĠTour": 4678,
      "ĠPop": 4679,
      "ĠMart": 4680,
      "Ġsound": 4681,
      "ĠBal": 4682,
      "ached": 4683,
      "ĠFocus": 4684,
      "Ġbroken": 4685,
      "Ġput": 4686,
      "Ġpop": 4687,
      "Ġpath": 4688,
      "omic": 4689,
      "Ġdrivers": 4690,
      "ĠEsc": 4691,
      "ĠEfficient": 4692,
      "ida": 4693,
      "idge": 4694,
      "Ġlines": 4695,
      "Ġnative": 4696,
      "oser": 4697,
      "ĠChip": 4698,
      "ounting": 4699,
      "ĠExchange": 4700,
      "Ġbegin": 4701,
      "ĠComparison": 4702,
      "ĠUnic": 4703,
      "nings": 4704,
      "ĠPress": 4705,
      "ĠEmployees": 4706,
      "Ġemails": 4707,
      "Ġalmost": 4708,
      "Ġenvironment": 4709,
      "Ġresources": 4710,
      "Ġquality": 4711,
      "ĠAtl": 4712,
      "ĠCollect": 4713,
      "ĠVision": 4714,
      "ĠImpact": 4715,
      "Ġgroup": 4716,
      "Ġenter": 4717,
      "Ġpasswords": 4718,
      "ĠWiki": 4719,
      "ĠMotor": 4720,
      "Cloud": 4721,
      "Ġprogrammer": 4722,
      "Ġzero": 4723,
      "Ġcollabor": 4724,
      "ĠSquare": 4725,
      "Ġlegal": 4726,
      "ĠBrazil": 4727,
      "DN": 4728,
      "Free": 4729,
      "MC": 4730,
      "cious": 4731,
      "craft": 4732,
      "ept": 4733,
      "pire": 4734,
      "uous": 4735,
      "Ġtaking": 4736,
      "Ġtutorial": 4737,
      "anch": 4738,
      "orry": 4739,
      "ĠAS": 4740,
      "ĠTit": 4741,
      "Ġfour": 4742,
      "ĠHunt": 4743,
      "ĠPsych": 4744,
      "ĠMillions": 4745,
      "Ġsaf": 4746,
      "ĠBost": 4747,
      "ĠFriends": 4748,
      "omy": 4749,
      "Ġdark": 4750,
      "aser": 4751,
      "amed": 4752,
      "chron": 4753,
      "unes": 4754,
      "ocking": 4755,
      "Ġexec": 4756,
      "iber": 4757,
      "ĠDiscover": 4758,
      "atching": 4759,
      "ĠInterface": 4760,
      "ĠPerfect": 4761,
      "ĠReleases": 4762,
      "Ġengineer": 4763,
      "Ġcolor": 4764,
      "ĠPrinc": 4765,
      "ĠCourse": 4766,
      "Ġdidn": 4767,
      "ĠAttacks": 4768,
      "ĠVerizon": 4769,
      "ĠMalware": 4770,
      "ĠAstron": 4771,
      "ĠImproving": 4772,
      "Go": 4773,
      "band": 4774,
      "gn": 4775,
      "mic": 4776,
      "rent": 4777,
      "ĠSent": 4778,
      "ĠSDK": 4779,
      "itr": 4780,
      "ĠCA": 4781,
      "ĠCut": 4782,
      "Ġfar": 4783,
      "ĠDiv": 4784,
      "ĠDriver": 4785,
      "Ġsafe": 4786,
      "Ġsince": 4787,
      "Ġservers": 4788,
      "Ġinvent": 4789,
      "Ġmatter": 4790,
      "ament": 4791,
      "ĠInflu": 4792,
      "unn": 4793,
      "agn": 4794,
      "ague": 4795,
      "ĠYes": 4796,
      "ĠReason": 4797,
      "ĠSpark": 4798,
      "orders": 4799,
      "Ġplugin": 4800,
      "prising": 4801,
      "Ġcontract": 4802,
      "Ġinterface": 4803,
      "Ġhacker": 4804,
      "ĠDevice": 4805,
      "ĠPolicy": 4806,
      "Ġready": 4807,
      "ĠInfrastructure": 4808,
      "ĠDefense": 4809,
      "Ġcryptocurrency": 4810,
      "Ġanalytics": 4811,
      "Ġhappened": 4812,
      "Ġhardware": 4813,
      "ĠStories": 4814,
      "Ġphoto": 4815,
      "ĠFailure": 4816,
      "Ġpackage": 4817,
      "ĠBoeing": 4818,
      "Ġcapital": 4819,
      "pensive": 4820,
      "32": 4821,
      "DD": 4822,
      "cons": 4823,
      "hop": 4824,
      "lished": 4825,
      "map": 4826,
      "page": 4827,
      "vard": 4828,
      "Ġouts": 4829,
      "ints": 4830,
      "eras": 4831,
      "ĠHab": 4832,
      "ĠPG": 4833,
      "Ġast": 4834,
      "ĠMel": 4835,
      "ĠWild": 4836,
      "Ġsent": 4837,
      "Ġcash": 4838,
      "ĠBuff": 4839,
      "ĠFoot": 4840,
      "ĠRout": 4841,
      "ĠRoll": 4842,
      "Ġpan": 4843,
      "Ġpages": 4844,
      "Ġdrive": 4845,
      "ĠEV": 4846,
      "iders": 4847,
      "Ġgaming": 4848,
      "ulate": 4849,
      "Ġreason": 4850,
      "ĠVue": 4851,
      "ĠThought": 4852,
      "Ġrise": 4853,
      "Ġrich": 4854,
      "ĠConver": 4855,
      "ĠClub": 4856,
      "ĠTruth": 4857,
      "Ġlevel": 4858,
      "Ġchildren": 4859,
      "ĠArg": 4860,
      "ixir": 4861,
      "ĠFlow": 4862,
      "Ġ90": 4863,
      "ĠPostgres": 4864,
      "ĠSoon": 4865,
      "atteries": 4866,
      "Ġreality": 4867,
      "ĠStarting": 4868,
      "ĠInvestment": 4869,
      "Ġcollection": 4870,
      "Ġupdates": 4871,
      "ĠDepend": 4872,
      "ĠIntegration": 4873,
      "ĠPandemic": 4874,
      "Ġalgorithms": 4875,
      "ĠPhilosoph": 4876,
      "Ġstreaming": 4877,
      "ĠIran": 4878,
      "bedded": 4879,
      "ĠBoston": 4880,
      "35": 4881,
      "EN": 4882,
      "break": 4883,
      "body": 4884,
      "hol": 4885,
      "ĠSMS": 4886,
      "arp": 4887,
      "oups": 4888,
      "ĠMS": 4889,
      "ĠMad": 4890,
      "ĠMix": 4891,
      "isode": 4892,
      "ĠFirm": 4893,
      "Ġbit": 4894,
      "Ġperson": 4895,
      "Ġpaid": 4896,
      "Ġpotential": 4897,
      "ĠGirl": 4898,
      "ĠLy": 4899,
      "ooting": 4900,
      "ĠOil": 4901,
      "usive": 4902,
      "under": 4903,
      "Ġep": 4904,
      "istry": 4905,
      "ĠKernel": 4906,
      "izations": 4907,
      "ĠSpring": 4908,
      "ĠCla": 4909,
      "udget": 4910,
      "print": 4911,
      "ĠPrices": 4912,
      "ools": 4913,
      "ĠDeveloping": 4914,
      "ĠFlor": 4915,
      "ancy": 4916,
      "Ġago": 4917,
      "ĠPerl": 4918,
      "iversity": 4919,
      "Ġaren": 4920,
      "Ġcommon": 4921,
      "ĠFounders": 4922,
      "Ġ199": 4923,
      "Ġsomeone": 4924,
      "ĠSmartphone": 4925,
      "Ġattacks": 4926,
      "greg": 4927,
      "Ġlinks": 4928,
      "Ġskills": 4929,
      "ĠHarvard": 4930,
      "ecutive": 4931,
      "ĠVulnerability": 4932,
      "Ġimportant": 4933,
      "ĠKickstarter": 4934,
      "ĠBootstrap": 4935,
      "CI": 4936,
      "On": 4937,
      "care": 4938,
      "ever": 4939,
      "gg": 4940,
      "iate": 4941,
      "link": 4942,
      "war": 4943,
      "Ġtyp": 4944,
      "Ġterminal": 4945,
      "ĠSam": 4946,
      "ĠApr": 4947,
      "ĠCra": 4948,
      "ĠCities": 4949,
      "ĠHit": 4950,
      "Ġahead": 4951,
      "icens": 4952,
      "ĠMode": 4953,
      "ĠWoman": 4954,
      "Ġsil": 4955,
      "Ġsumm": 4956,
      "Ġwins": 4957,
      "ĠFA": 4958,
      "Ġtheory": 4959,
      "ĠGhost": 4960,
      "ĠLargest": 4961,
      "ĠEra": 4962,
      "ĠNintend": 4963,
      "Ġnode": 4964,
      "Ġgives": 4965,
      "ĠRein": 4966,
      "ĠReverse": 4967,
      "Ġstyle": 4968,
      "ĠPros": 4969,
      "ĠProper": 4970,
      "ainable": 4971,
      "ĠEnvironment": 4972,
      "duces": 4973,
      "ĠPlus": 4974,
      "ashboard": 4975,
      "Ġcancer": 4976,
      "ĠEmacs": 4977,
      "ĠRecommend": 4978,
      "Ġallow": 4979,
      "ĠPrem": 4980,
      "ertific": 4981,
      "ĠNetworking": 4982,
      "Ġbecause": 4983,
      "offs": 4984,
      "ĠCustomers": 4985,
      "ĠMoving": 4986,
      "roke": 4987,
      "ĠScaling": 4988,
      "ĠPrinciples": 4989,
      "ĠSummer": 4990,
      "ĠSSH": 4991,
      "Ġcountry": 4992,
      "Ġencryption": 4993,
      "ĠIssues": 4994,
      "ĠØ§ÙĦØ": 4995,
      "ĠHosting": 4996,
      "ĠMystery": 4997,
      "ĠWireless": 4998,
      "ĠWelcome": 4999,
      "ansomware": 5000,
      "ĠNintendo": 5001,
      "gers": 5002,
      "hones": 5003,
      "mas": 5004,
      "ĠTry": 5005,
      "ĠCome": 5006,
      "reation": 5007,
      "ĠMaterial": 5008,
      "ĠMiddle": 5009,
      "ĠWW": 5010,
      "ĠDie": 5011,
      "ĠDuring": 5012,
      "Ġsize": 5013,
      "ĠBody": 5014,
      "ĠFear": 5015,
      "ĠRen": 5016,
      "Ġpo": 5017,
      "Ġpain": 5018,
      "Ġperm": 5019,
      "Ġdream": 5020,
      "ĠLar": 5021,
      "ĠOd": 5022,
      "Ġher": 5023,
      "Ġnames": 5024,
      "rix": 5025,
      "Ġstep": 5026,
      "Ġyourself": 5027,
      "ommerce": 5028,
      "ĠArdu": 5029,
      "ĠAdvertising": 5030,
      "ashion": 5031,
      "Ġsuck": 5032,
      "ĠDisney": 5033,
      "ruit": 5034,
      "ĠSwed": 5035,
      "ĠElixir": 5036,
      "2007": 5037,
      "ĠTests": 5038,
      "ĠProducts": 5039,
      "ĠConsumer": 5040,
      "Ġneural": 5041,
      "Ġconsider": 5042,
      "Ġsurv": 5043,
      "ĠAddress": 5044,
      "Ġpowerful": 5045,
      "Ġhappens": 5046,
      "ĠStatus": 5047,
      "Ġissue": 5048,
      "ĠEffective": 5049,
      "ĠIDE": 5050,
      "Ġfreel": 5051,
      "ĠPrize": 5052,
      "ĠAlexa": 5053,
      "Ġveh": 5054,
      "Bl": 5055,
      "EM": 5056,
      "bar": 5057,
      "fol": 5058,
      "ken": 5059,
      "note": 5060,
      "papers": 5061,
      "tors": 5062,
      "well": 5063,
      "erial": 5064,
      "onent": 5065,
      "orrow": 5066,
      "ĠTensor": 5067,
      "ĠCalls": 5068,
      "ĠHash": 5069,
      "ĠPain": 5070,
      "ĠMir": 5071,
      "ĠMechan": 5072,
      "ĠIR": 5073,
      "Ġcut": 5074,
      "Ġcities": 5075,
      "ĠBall": 5076,
      "ĠFort": 5077,
      "Ġdelivery": 5078,
      "Ġmis": 5079,
      "Ġmyst": 5080,
      "ĠNor": 5081,
      "oogle": 5082,
      "olen": 5083,
      "Ġhate": 5084,
      "acked": 5085,
      "ĠJames": 5086,
      "istan": 5087,
      "istration": 5088,
      "ĠKit": 5089,
      "Ġanswer": 5090,
      "Ġrace": 5091,
      "ĠExpress": 5092,
      "overs": 5093,
      "ĠjQuery": 5094,
      "pres": 5095,
      "ĠDoing": 5096,
      "Ġprices": 5097,
      "Ġprint": 5098,
      "Ġinteractive": 5099,
      "ĠStudent": 5100,
      "Ġproductivity": 5101,
      "ĠSolving": 5102,
      "ĠExplained": 5103,
      "ĠGeneral": 5104,
      "Ġgenerator": 5105,
      "Ġtechnical": 5106,
      "Ġcheap": 5107,
      "ĠAutomated": 5108,
      "ĠEconomic": 5109,
      "ĠLabs": 5110,
      "Ġresearchers": 5111,
      "ĠMedical": 5112,
      "ĠBreaking": 5113,
      "ĠFreel": 5114,
      "Ġturns": 5115,
      "Ġlessons": 5116,
      "ĠChallenges": 5117,
      "ĠSupreme": 5118,
      "ĠDetection": 5119,
      "scription": 5120,
      "ospital": 5121,
      "ĠVPN": 5122,
      "'ll": 5123,
      "//": 5124,
      "BA": 5125,
      "CD": 5126,
      "RE": 5127,
      "bes": 5128,
      "bing": 5129,
      "equ": 5130,
      "mit": 5131,
      "tax": 5132,
      "Ġtur": 5133,
      "ĠSuggest": 5134,
      "ĠSEC": 5135,
      "oul": 5136,
      "ĠPoint": 5137,
      "Ġawesome": 5138,
      "ĠMa": 5139,
      "ĠMachines": 5140,
      "ĠIce": 5141,
      "ĠDan": 5142,
      "ĠDraw": 5143,
      "Ġsleep": 5144,
      "Ġcredit": 5145,
      "Ġcurrent": 5146,
      "Ġcopyright": 5147,
      "acement": 5148,
      "Ġbody": 5149,
      "Ġpull": 5150,
      "ĠGar": 5151,
      "ĠLou": 5152,
      "ado": 5153,
      "Ġlot": 5154,
      "ager": 5155,
      "uling": 5156,
      "Ġrate": 5157,
      "ĠExec": 5158,
      "ĠClick": 5159,
      "ĠBeautiful": 5160,
      "Ġcomplex": 5161,
      "ensive": 5162,
      "Ġjournal": 5163,
      "azine": 5164,
      "ĠDisrupt": 5165,
      "itional": 5166,
      "ĠSuck": 5167,
      "Ġdisplay": 5168,
      "ĠHeart": 5169,
      "poses": 5170,
      "ĠParallel": 5171,
      "Ġcollect": 5172,
      "ĠVisualization": 5173,
      "Ġobject": 5174,
      "ĠSSL": 5175,
      "ĠJulia": 5176,
      "razy": 5177,
      "ĠCIA": 5178,
      "Ġcareer": 5179,
      "Ġsupports": 5180,
      "ĠSafety": 5181,
      "Ġstandard": 5182,
      "ĠÂ£": 5183,
      "ĠStripe": 5184,
      "ĠArduino": 5185,
      "://": 5186,
      "Ar": 5187,
      "Code": 5188,
      "TF": 5189,
      "Year": 5190,
      "aos": 5191,
      "eor": 5192,
      "iable": 5193,
      "paper": 5194,
      "Ġetc": 5195,
      "ĠSoft": 5196,
      "ĠSeed": 5197,
      "ĠSeek": 5198,
      "ĠHarm": 5199,
      "ĠPure": 5200,
      "ĠMill": 5201,
      "ĠWere": 5202,
      "ĠDO": 5203,
      "ĠDell": 5204,
      "ĠDelivery": 5205,
      "ĠBul": 5206,
      "ĠFly": 5207,
      "ĠRule": 5208,
      "ĠLoad": 5209,
      "ĠEast": 5210,
      "igs": 5211,
      "âĢĻ:": 5212,
      "rible": 5213,
      "Ġreplace": 5214,
      "Ġprovid": 5215,
      "avers": 5216,
      "ĠComplete": 5217,
      "Ġ22": 5218,
      "ĠPlace": 5219,
      "Ġjoin": 5220,
      "Ġunveils": 5221,
      "Ġspy": 5222,
      "ancer": 5223,
      "ĠDesigner": 5224,
      "ĠAmazing": 5225,
      "ĠGuy": 5226,
      "ĠBusinesses": 5227,
      "ĠTechnologies": 5228,
      "Ġstarts": 5229,
      "Ġaccept": 5230,
      "ĠActive": 5231,
      "ĠFunction": 5232,
      "ĠAdding": 5233,
      "Ġpolicy": 5234,
      "Ġbuying": 5235,
      "ĠFreedom": 5236,
      "ĠKilling": 5237,
      "ĠShell": 5238,
      "ĠAustralian": 5239,
      "Ġlatest": 5240,
      "ĠSeattle": 5241,
      "ĠApril": 5242,
      "()": 5243,
      "CP": 5244,
      "MA": 5245,
      "Pal": 5246,
      "bat": 5247,
      "gins": 5248,
      "look": 5249,
      "mart": 5250,
      "opp": 5251,
      "vas": 5252,
      "Ġut": 5253,
      "Ġult": 5254,
      "Ġtry": 5255,
      "ĠSy": 5256,
      "Ġfeed": 5257,
      "ĠPick": 5258,
      "ĠPossible": 5259,
      "Ġaff": 5260,
      "icated": 5261,
      "ĠMistakes": 5262,
      "ĠDut": 5263,
      "ĠDear": 5264,
      "ĠBuzz": 5265,
      "ĠBugs": 5266,
      "Ġword": 5267,
      "ĠFamily": 5268,
      "ĠRocket": 5269,
      "Ġbur": 5270,
      "ĠGiant": 5271,
      "iger": 5272,
      "igur": 5273,
      "olved": 5274,
      "ourced": 5275,
      "ĠInjection": 5276,
      "Ġnearly": 5277,
      "empt": 5278,
      "lywood": 5279,
      "ums": 5280,
      "apon": 5281,
      "ĠConv": 5282,
      "ivid": 5283,
      "ĠSpect": 5284,
      "ĠUns": 5285,
      "Ġchild": 5286,
      "ĠiT": 5287,
      "ĠAdvent": 5288,
      "Ġspeak": 5289,
      "Ġspeech": 5290,
      "Ġscale": 5291,
      "awei": 5292,
      "ĠiPhones": 5293,
      "Ġenough": 5294,
      "flare": 5295,
      "ĠOrder": 5296,
      "ĠGuid": 5297,
      "ĠOffers": 5298,
      "ĠRedesign": 5299,
      "ĠMinecraft": 5300,
      "ĠManaging": 5301,
      "Ġflaw": 5302,
      "Ġcomes": 5303,
      "ĠExperts": 5304,
      "ĠStrateg": 5305,
      "ĠLego": 5306,
      "Ġdemo": 5307,
      "Ġprogrammers": 5308,
      "Ġcountries": 5309,
      "ergency": 5310,
      "Ġincrease": 5311,
      "Ġerror": 5312,
      "Ġmissing": 5313,
      "ĠPirate": 5314,
      "Ġclean": 5315,
      "oosing": 5316,
      "ĠScript": 5317,
      "ĠFlorida": 5318,
      "An": 5319,
      "set": 5320,
      "wall": 5321,
      "Ġtrying": 5322,
      "aron": 5323,
      "ĠTick": 5324,
      "ĠCN": 5325,
      "alog": 5326,
      "real": 5327,
      "ĠHire": 5328,
      "ĠWords": 5329,
      "ĠDone": 5330,
      "ĠLooks": 5331,
      "ĠLocation": 5332,
      "ece": 5333,
      "adox": 5334,
      "Ġlargest": 5335,
      "essions": 5336,
      "osc": 5337,
      "Ġthoughts": 5338,
      "ublished": 5339,
      "apy": 5340,
      "ustrial": 5341,
      "aved": 5342,
      "abled": 5343,
      "Ġconvers": 5344,
      "Ġleft": 5345,
      "ĠQue": 5346,
      "ĠBlood": 5347,
      "Ġnotes": 5348,
      "Ġalready": 5349,
      "Ġrecords": 5350,
      "ĠSept": 5351,
      "ĠSurface": 5352,
      "Ġperfect": 5353,
      "ĠConsider": 5354,
      "ĠReviews": 5355,
      "Ġknowledge": 5356,
      "ĠDebugging": 5357,
      "ception": 5358,
      "ribute": 5359,
      "Ġwarns": 5360,
      "ĠAutomation": 5361,
      "ĠEconomics": 5362,
      "Ġactually": 5363,
      "culus": 5364,
      "legal": 5365,
      "ĠFederal": 5366,
      "ĠOperating": 5367,
      "Ġtrial": 5368,
      "ĠBritain": 5369,
      "ĠIssue": 5370,
      "ĠMonths": 5371,
      "Ġradio": 5372,
      "Ġdiscuss": 5373,
      "ĠSnapchat": 5374,
      "ĠHuawei": 5375,
      "Ġinnovation": 5376,
      "DoS": 5377,
      "ĠStanford": 5378,
      "ĠGNU": 5379,
      "65": 5380,
      "Co": 5381,
      "TX": 5382,
      "bor": 5383,
      "ders": 5384,
      "eign": 5385,
      "gree": 5386,
      "lar": 5387,
      "och": 5388,
      "rated": 5389,
      "Ġill": 5390,
      "inated": 5391,
      "orge": 5392,
      "ĠSold": 5393,
      "ĠTH": 5394,
      "ĠTree": 5395,
      "style": 5396,
      "ĠDDoS": 5397,
      "ĠBurn": 5398,
      "ĠRC": 5399,
      "ĠRole": 5400,
      "Ġpers": 5401,
      "ĠGD": 5402,
      "ĠGun": 5403,
      "Ġmillions": 5404,
      "Ġmachines": 5405,
      "ĠNames": 5406,
      "ago": 5407,
      "Ġwithin": 5408,
      "rab": 5409,
      "ĠYet": 5410,
      "apore": 5411,
      "ĠAlt": 5412,
      "ĠUses": 5413,
      "ĠOpenS": 5414,
      "ĠLean": 5415,
      "Ġadvertising": 5416,
      "ĠFlu": 5417,
      "Ġdiscovered": 5418,
      "Ġmeasure": 5419,
      "ĠGrid": 5420,
      "Ġcreating": 5421,
      "ĠQuestion": 5422,
      "Ġinfrastructure": 5423,
      "Ġstories": 5424,
      "Ġreportedly": 5425,
      "ĠTalks": 5426,
      "ĠRichard": 5427,
      "espite": 5428,
      "ĠNFT": 5429,
      "ĠAugmented": 5430,
      "ensorship": 5431,
      "ĠBiden": 5432,
      "dfund": 5433,
      "AL": 5434,
      "Bay": 5435,
      "Driving": 5436,
      "We": 5437,
      "bol": 5438,
      "dro": 5439,
      "dom": 5440,
      "founder": 5441,
      "iers": 5442,
      "ucation": 5443,
      "zos": 5444,
      "ona": 5445,
      "ĠSend": 5446,
      "ĠAC": 5447,
      "ĠTel": 5448,
      "ĠTerminal": 5449,
      "heet": 5450,
      "ĠCop": 5451,
      "alu": 5452,
      "Ġfew": 5453,
      "ĠHat": 5454,
      "ĠHalf": 5455,
      "icult": 5456,
      "ĠMur": 5457,
      "Ġwalk": 5458,
      "acity": 5459,
      "ĠFat": 5460,
      "ĠRate": 5461,
      "Ġbox": 5462,
      "Ġdrop": 5463,
      "eck": 5464,
      "ecast": 5465,
      "ĠNear": 5466,
      "ĠNex": 5467,
      "ota": 5468,
      "Ġland": 5469,
      "Ġload": 5470,
      "Ġlaptop": 5471,
      "Ġgiant": 5472,
      "ĠVir": 5473,
      "ĠShoes": 5474,
      "ĠJan": 5475,
      "umble": 5476,
      "Ġthen": 5477,
      "Ġthese": 5478,
      "Ġrout": 5479,
      "Ġround": 5480,
      "ended": 5481,
      "ĠCompiler": 5482,
      "ĠUnc": 5483,
      "ĠUnit": 5484,
      "ĠUnlock": 5485,
      "Ġleave": 5486,
      "ĠAlmost": 5487,
      "ĠWebGL": 5488,
      "ĠYourself": 5489,
      "Ġkernel": 5490,
      "Ġplant": 5491,
      "ronics": 5492,
      "Ġclose": 5493,
      "ĠPrint": 5494,
      "ĠMicha": 5495,
      "ĠImag": 5496,
      "atches": 5497,
      "Ġopens": 5498,
      "ictures": 5499,
      "Ġroad": 5500,
      "ĠParty": 5501,
      "ĠPartners": 5502,
      "Ġinterest": 5503,
      "ucks": 5504,
      "Ġbusinesses": 5505,
      "ĠExploring": 5506,
      "Ġremove": 5507,
      "ĠFinal": 5508,
      "ĠPayPal": 5509,
      "elligent": 5510,
      "ĠFunctions": 5511,
      "ĠGraphics": 5512,
      "Ġpowered": 5513,
      "roller": 5514,
      "rolling": 5515,
      "ĠUpdates": 5516,
      "ĠMedium": 5517,
      "ĠBuying": 5518,
      "Ġdebt": 5519,
      "Ġgrowing": 5520,
      "Ġquestion": 5521,
      "Ġmessages": 5522,
      "Ġrespons": 5523,
      "Ġsteps": 5524,
      "ĠImplementing": 5525,
      "Ġdetails": 5526,
      "ĠHadoop": 5527,
      "Flow": 5528,
      "ĠUltimate": 5529,
      "pinion": 5530,
      "MP": 5531,
      "SL": 5532,
      "kn": 5533,
      "Ùĩ": 5534,
      "Ġver": 5535,
      "ĠSolution": 5536,
      "ĠTuring": 5537,
      "rees": 5538,
      "ĠHidden": 5539,
      "lements": 5540,
      "ĠPet": 5541,
      "ĠMission": 5542,
      "ĠMigr": 5543,
      "ĠMapping": 5544,
      "rote": 5545,
      "ĠWins": 5546,
      "ĠWorst": 5547,
      "ĠDrones": 5548,
      "Ġsatellite": 5549,
      "Ġcod": 5550,
      "ĠBet": 5551,
      "ĠBBC": 5552,
      "ĠBubble": 5553,
      "ĠBenefits": 5554,
      "owers": 5555,
      "Ġbrows": 5556,
      "Ġboot": 5557,
      "Ġpoll": 5558,
      "ĠGiving": 5559,
      "ĠEc": 5560,
      "ĠOpport": 5561,
      "iga": 5562,
      "imum": 5563,
      "ĠStable": 5564,
      "Ġhits": 5565,
      "eware": 5566,
      "irds": 5567,
      "ements": 5568,
      "rif": 5569,
      "ĠVaccine": 5570,
      "lymp": 5571,
      "Ġthird": 5572,
      "ĠProof": 5573,
      "ĠChild": 5574,
      "ĠChoose": 5575,
      "Ġanything": 5576,
      "ober": 5577,
      "eeper": 5578,
      "Ġbeat": 5579,
      "Ġbeyond": 5580,
      "ormal": 5581,
      "ĠCompetition": 5582,
      "Ġshares": 5583,
      "enced": 5584,
      "iants": 5585,
      "Ġscientific": 5586,
      "ĠForget": 5587,
      "ĠLeft": 5588,
      "Ġitself": 5589,
      "ĠAutonomous": 5590,
      "ĠCloudflare": 5591,
      "ĠBrand": 5592,
      "Ġdesigned": 5593,
      "Ġimprov": 5594,
      "Ġstarting": 5595,
      "Ġprevent": 5596,
      "yte": 5597,
      "ĠProtection": 5598,
      "ĠProtocol": 5599,
      "Ġexplained": 5600,
      "ĠBookmark": 5601,
      "Ġsolve": 5602,
      "ĠRevenue": 5603,
      "ĠCentral": 5604,
      "Ġreviews": 5605,
      "ĠHTTPS": 5606,
      "Cont": 5607,
      "ĠReports": 5608,
      "ĠOptimization": 5609,
      "ĠPractical": 5610,
      "ĠSummit": 5611,
      "ĠGroupon": 5612,
      "ĠFixing": 5613,
      "Ġclaim": 5614,
      "ĠCommunication": 5615,
      "Ġarchitecture": 5616,
      "ĠLimits": 5617,
      "ĠBringing": 5618,
      "ĠSingapore": 5619,
      "ĠCritical": 5620,
      "Ġversus": 5621,
      "Ġsafety": 5622,
      "folio": 5623,
      "70": 5624,
      "And": 5625,
      "FF": 5626,
      "OO": 5627,
      "RM": 5628,
      "Web": 5629,
      "ien": 5630,
      "iver": 5631,
      "opped": 5632,
      "ta": 5633,
      "vious": 5634,
      "Ġ*": 5635,
      "Ġ~": 5636,
      "ĠSomething": 5637,
      "ĠCamp": 5638,
      "ĠPS": 5639,
      "ĠMount": 5640,
      "room": 5641,
      "ĠWave": 5642,
      "ĠWashing": 5643,
      "ĠISP": 5644,
      "ĠDollar": 5645,
      "ĠBuys": 5646,
      "Ġwhe": 5647,
      "ĠFord": 5648,
      "andal": 5649,
      "Ġpri": 5650,
      "ĠGam": 5651,
      "ĠGUI": 5652,
      "ille": 5653,
      "Ġdone": 5654,
      "Ġdynam": 5655,
      "Ġloss": 5656,
      "unities": 5657,
      "ĠVS": 5658,
      "ĠShad": 5659,
      "ĠJet": 5660,
      "Ġviol": 5661,
      "endering": 5662,
      "ĠExample": 5663,
      "ordable": 5664,
      "ĠBlu": 5665,
      "encing": 5666,
      "ĠPricing": 5667,
      "ĠJavascript": 5668,
      "ĠManufact": 5669,
      "ĠDisplay": 5670,
      "Ġblood": 5671,
      "Ġuseful": 5672,
      "icture": 5673,
      "ĠComes": 5674,
      "ĠGrad": 5675,
      "Ġarrest": 5676,
      "ĠDecentralized": 5677,
      "ĠObjects": 5678,
      "urrencies": 5679,
      "Ġflight": 5680,
      "ĠUseful": 5681,
      "ĠPattern": 5682,
      "ĠIPv": 5683,
      "Ġprep": 5684,
      "Ġgenerate": 5685,
      "Ġstudent": 5686,
      "Ġpayments": 5687,
      "ĠReader": 5688,
      "ĠKnowledge": 5689,
      "Ø§Ø±": 5690,
      "ĠEpic": 5691,
      "ĠAuthor": 5692,
      "Ġhosting": 5693,
      "ĠTelegram": 5694,
      "Ġcourse": 5695,
      "ĠIdentity": 5696,
      "Ġeasier": 5697,
      "Ġlawsuit": 5698,
      "ĠMichael": 5699,
      "New": 5700,
      "Off": 5701,
      "part": 5702,
      "uction": 5703,
      "with": 5704,
      "Âł": 5705,
      "Øª": 5706,
      "inos": 5707,
      "ĠSpl": 5708,
      "ĠServers": 5709,
      "ĠSeven": 5710,
      "ĠAch": 5711,
      "ĠAaron": 5712,
      "ĠCand": 5713,
      "ĠCopyright": 5714,
      "ĠCirc": 5715,
      "alt": 5716,
      "ĠPoor": 5717,
      "ĠPixel": 5718,
      "Ġaction": 5719,
      "Ġaffect": 5720,
      "Ġsend": 5721,
      "Ġcore": 5722,
      "Ġwent": 5723,
      "ĠFeel": 5724,
      "ĠRoom": 5725,
      "Ġbar": 5726,
      "ĠGives": 5727,
      "ĠLaptop": 5728,
      "elves": 5729,
      "ĠOlymp": 5730,
      "utter": 5731,
      "ĠUt": 5732,
      "ĠStars": 5733,
      "Ġlock": 5734,
      "Ġliving": 5735,
      "Ġlocation": 5736,
      "Ġlibraries": 5737,
      "Ġhouse": 5738,
      "eway": 5739,
      "Ġgreen": 5740,
      "ula": 5741,
      "Ġrece": 5742,
      "ĠVict": 5743,
      "ĠThird": 5744,
      "apter": 5745,
      "ĠConvert": 5746,
      "erving": 5747,
      "ĠBloom": 5748,
      "coins": 5749,
      "ĠTweet": 5750,
      "ĠZoom": 5751,
      "ĠContract": 5752,
      "Ġallows": 5753,
      "ĠAnalyz": 5754,
      "ĠOverflow": 5755,
      "ĠRemov": 5756,
      "ĠIPhone": 5757,
      "Ġtransl": 5758,
      "ĠDebian": 5759,
      "Ġplanet": 5760,
      "Ġtweets": 5761,
      "Ġarticles": 5762,
      "annels": 5763,
      "ĠRobotics": 5764,
      "Ġmovie": 5765,
      "Ġcosts": 5766,
      "parency": 5767,
      "ĠPhotoshop": 5768,
      "Ġstatus": 5769,
      "ĠMilitary": 5770,
      "ĠSenate": 5771,
      "Ġchallenge": 5772,
      "Ġpolitical": 5773,
      "ĠSVG": 5774,
      "computer": 5775,
      "ĠSiri": 5776,
      "Al": 5777,
      "BS": 5778,
      "Kit": 5779,
      "LP": 5780,
      "bal": 5781,
      "door": 5782,
      "lab": 5783,
      "ml": 5784,
      "oz": 5785,
      "Ġvery": 5786,
      "ĠAward": 5787,
      "ĠCart": 5788,
      "ĠCopy": 5789,
      "Ġfailed": 5790,
      "ĠHits": 5791,
      "ĠHands": 5792,
      "ĠPent": 5793,
      "ĠPull": 5794,
      "ĠPaid": 5795,
      "edding": 5796,
      "ĠDam": 5797,
      "ĠDot": 5798,
      "ĠBoom": 5799,
      "Ġothers": 5800,
      "isation": 5801,
      "Ġden": 5802,
      "Ġdied": 5803,
      "Ġdrones": 5804,
      "oots": 5805,
      "agement": 5806,
      "Ġge": 5807,
      "Ġrepos": 5808,
      "ĠViol": 5809,
      "ĠJourney": 5810,
      "Ġeach": 5811,
      "umps": 5812,
      "ĠProp": 5813,
      "Ġann": 5814,
      "platform": 5815,
      "arding": 5816,
      "ockets": 5817,
      "ĠScott": 5818,
      "ĠScientific": 5819,
      "Ġconv": 5820,
      "ĠBeat": 5821,
      "Ġexpect": 5822,
      "Ġheart": 5823,
      "ĠItal": 5824,
      "undred": 5825,
      "ĠRecognition": 5826,
      "ĠNeutrality": 5827,
      "ĠMonitor": 5828,
      "2006": 5829,
      "ĠPrevent": 5830,
      "ĠMining": 5831,
      "ĠOverview": 5832,
      "ĠCreated": 5833,
      "hematic": 5834,
      "Ġindex": 5835,
      "Ġbecame": 5836,
      "Ġgrad": 5837,
      "ourses": 5838,
      "Ġfunctions": 5839,
      "ĠProfit": 5840,
      "ĠCanadian": 5841,
      "Ġresponse": 5842,
      "ĠTeaching": 5843,
      "ĠWiFi": 5844,
      "ength": 5845,
      "Ġmedical": 5846,
      "ĠVeh": 5847,
      "ĠContainers": 5848,
      "ĠMethods": 5849,
      "itrust": 5850,
      "CH": 5851,
      "LA": 5852,
      "NG": 5853,
      "To": 5854,
      "cr": 5855,
      "oen": 5856,
      "pass": 5857,
      "Ðµ": 5858,
      "Ġ...": 5859,
      "itial": 5860,
      "ĠTalent": 5861,
      "ĠHD": 5862,
      "ĠHold": 5863,
      "ĠPages": 5864,
      "ĠPerson": 5865,
      "Ġaud": 5866,
      "icide": 5867,
      "rovers": 5868,
      "Ġseries": 5869,
      "Ġoil": 5870,
      "ĠFarm": 5871,
      "ĠFair": 5872,
      "ĠRew": 5873,
      "ĠRights": 5874,
      "Ġbul": 5875,
      "Ġbattle": 5876,
      "Ġpodcast": 5877,
      "Ġpurch": 5878,
      "ette": 5879,
      "ĠGPS": 5880,
      "Ġdat": 5881,
      "ecess": 5882,
      "ĠNearly": 5883,
      "ĠOculus": 5884,
      "ĠUN": 5885,
      "imm": 5886,
      "Ġyoung": 5887,
      "ĠVan": 5888,
      "ĠChart": 5889,
      "ured": 5890,
      "Ġrandom": 5891,
      "gry": 5892,
      "eeps": 5893,
      "ffort": 5894,
      "ĠScan": 5895,
      "Ġshutting": 5896,
      "ternal": 5897,
      "Ġchief": 5898,
      "ensus": 5899,
      "Ġkeys": 5900,
      "ĠAdmin": 5901,
      "ĠOpenAI": 5902,
      "Ġdiscover": 5903,
      "oking": 5904,
      "ĠSteam": 5905,
      "ĠTechniques": 5906,
      "ĠInsurance": 5907,
      "Ġmonitor": 5908,
      "Ġcrack": 5909,
      "Ġevidence": 5910,
      "ĠDrug": 5911,
      "Ġbecomes": 5912,
      "Ġbecoming": 5913,
      "Ġexplo": 5914,
      "Ġentire": 5915,
      "Ġartificial": 5916,
      "ĠMatters": 5917,
      "ĠArchitect": 5918,
      "Ġincome": 5919,
      "ĠBlackB": 5920,
      "Ġelection": 5921,
      "ĠLegacy": 5922,
      "Ġinvestors": 5923,
      "Ġrevenue": 5924,
      "ennial": 5925,
      "Ġfilter": 5926,
      "Ġmicros": 5927,
      "Ġvisualization": 5928,
      "ĠFilm": 5929,
      "ĠMissing": 5930,
      "ĠTablet": 5931,
      "ĠChristmas": 5932,
      "ĠHello": 5933,
      "ĠBrief": 5934,
      "ĠAlpha": 5935,
      "90": 5936,
      "Old": 5937,
      "Power": 5938,
      "VE": 5939,
      "ae": 5940,
      "cceed": 5941,
      "kes": 5942,
      "py": 5943,
      "Ð¾": 5944,
      "inate": 5945,
      "Ġterm": 5946,
      "Ġtiny": 5947,
      "ato": 5948,
      "ĠTot": 5949,
      "ĠCos": 5950,
      "Ġfamily": 5951,
      "Ġfraud": 5952,
      "ĠHours": 5953,
      "ĠHousing": 5954,
      "ĠPin": 5955,
      "ĠPapers": 5956,
      "roc": 5957,
      "ĠWear": 5958,
      "Ġsusp": 5959,
      "Ġcook": 5960,
      "Ġcopy": 5961,
      "ĠBroken": 5962,
      "ĠRay": 5963,
      "Ġpython": 5964,
      "ĠGas": 5965,
      "ĠLot": 5966,
      "ĠOC": 5967,
      "oly": 5968,
      "ademic": 5969,
      "Ġhole": 5970,
      "emon": 5971,
      "ĠVirus": 5972,
      "ĠAsia": 5973,
      "Ġstar": 5974,
      "illing": 5975,
      "Ġthought": 5976,
      "Ġvirus": 5977,
      "ĠThen": 5978,
      "ĠKong": 5979,
      "ighter": 5980,
      "Ġproper": 5981,
      "Ġprogress": 5982,
      "Ġrights": 5983,
      "ĠSpr": 5984,
      "ikes": 5985,
      "ĠBehavior": 5986,
      "ĠBezos": 5987,
      "Ġleast": 5988,
      "ĠPlugin": 5989,
      "ebooks": 5990,
      "Ġtrade": 5991,
      "ĠEmployee": 5992,
      "Ġalways": 5993,
      "ĠXbox": 5994,
      "flation": 5995,
      "argets": 5996,
      "Ġdisrupt": 5997,
      "ĠSequ": 5998,
      "ĠDecision": 5999,
      "ĠMinimal": 6000,
      "ĠEvidence": 6001,
      "ĠEdward": 6002,
      "ĠSolve": 6003,
      "Ġmonitoring": 6004,
      "ĠSkills": 6005,
      "ĠElectronic": 6006,
      "Ġbrings": 6007,
      "Ġeducation": 6008,
      "ognitive": 6009,
      "prof": 6010,
      "ISC": 6011,
      "ĠSimpl": 6012,
      "ĠMessenger": 6013,
      "Ġstores": 6014,
      "ĠStatistics": 6015,
      "ĠEpisode": 6016,
      "Ġmoving": 6017,
      "ĠDepartment": 6018,
      "ĠTrip": 6019,
      "ĠTurning": 6020,
      "Ġtraining": 6021,
      "Ġacquires": 6022,
      "Ġauthor": 6023,
      "ĠEssential": 6024,
      "itiative": 6025,
      "ĠExplorer": 6026,
      "ĠLyft": 6027,
      "ĠNexus": 6028,
      "Box": 6029,
      "DE": 6030,
      "It": 6031,
      "OT": 6032,
      "Sec": 6033,
      "gative": 6034,
      "mod": 6035,
      "uary": 6036,
      "world": 6037,
      "Ġign": 6038,
      "Ġesc": 6039,
      "information": 6040,
      "Ġtouch": 6041,
      "ĠSleep": 6042,
      "ĠCards": 6043,
      "ĠCelebr": 6044,
      "oust": 6045,
      "stack": 6046,
      "reh": 6047,
      "ĠHaw": 6048,
      "ĠPul": 6049,
      "ĠPerm": 6050,
      "ĠPorn": 6051,
      "ĠPok": 6052,
      "icago": 6053,
      "ĠMain": 6054,
      "ĠWolf": 6055,
      "Ġtog": 6056,
      "ĠDies": 6057,
      "Ġworst": 6058,
      "ĠRE": 6059,
      "ĠRSS": 6060,
      "Ġdog": 6061,
      "Ġdie": 6062,
      "Ġdaily": 6063,
      "ĠLets": 6064,
      "ided": 6065,
      "amous": 6066,
      "ĠOm": 6067,
      "olve": 6068,
      "using": 6069,
      "Ġlib": 6070,
      "Ġlikely": 6071,
      "Ġhire": 6072,
      "cepts": 6073,
      "ĠAncient": 6074,
      "umers": 6075,
      "ifts": 6076,
      "ĠEnough": 6077,
      "Ġconvert": 6078,
      "ĠTricks": 6079,
      "Ġchoose": 6080,
      "Ġcompiler": 6081,
      "ugar": 6082,
      "riters": 6083,
      "ĠQuery": 6084,
      "Ġpress": 6085,
      "ĠAgency": 6086,
      "ĠPrep": 6087,
      "Ġshouldn": 6088,
      "ĠCalendar": 6089,
      "ĠGenerate": 6090,
      "untime": 6091,
      "ĠCarbon": 6092,
      "ĠAnnounce": 6093,
      "ĠRetail": 6094,
      "ĠArchive": 6095,
      "Ġinstead": 6096,
      "Ġblocks": 6097,
      "Ġinvestment": 6098,
      "Ġweeks": 6099,
      "ĠError": 6100,
      "ĠPrograms": 6101,
      "ĠButton": 6102,
      "Ġlightweight": 6103,
      "ĠResponse": 6104,
      "Ġfailure": 6105,
      "ĠJuly": 6106,
      "ĠCommunic": 6107,
      "ING": 6108,
      "powered": 6109,
      "ĠIncrease": 6110,
      "ĠKindle": 6111,
      "ĠTowards": 6112,
      "Ġunderstand": 6113,
      "Ġfacial": 6114,
      "ĠSociety": 6115,
      "urpose": 6116,
      "Assembly": 6117,
      "present": 6118,
      "ĠiTunes": 6119,
      "ĠBlackBerry": 6120,
      ")?": 6121,
      "Comp": 6122,
      "For": 6123,
      "Google": 6124,
      "Pad": 6125,
      "View": 6126,
      "au": 6127,
      "books": 6128,
      "life": 6129,
      "no": 6130,
      "rant": 6131,
      "web": 6132,
      "à®": 6133,
      "inf": 6134,
      "erts": 6135,
      "attack": 6136,
      "ĠTag": 6137,
      "ĠTerm": 6138,
      "hel": 6139,
      "ĠCMS": 6140,
      "ĠHyp": 6141,
      "ĠPoll": 6142,
      "icer": 6143,
      "icip": 6144,
      "ĠWhe": 6145,
      "edge": 6146,
      "ĠDeliver": 6147,
      "Ġculture": 6148,
      "ĠBell": 6149,
      "ĠBoy": 6150,
      "Ġwid": 6151,
      "Ġbuys": 6152,
      "ĠGM": 6153,
      "illy": 6154,
      "Ġdam": 6155,
      "ĠEric": 6156,
      "Ġmail": 6157,
      "ĠNest": 6158,
      "ĠOcean": 6159,
      "igger": 6160,
      "iments": 6161,
      "Ġonce": 6162,
      "ĠStation": 6163,
      "Ġlater": 6164,
      "Ġlicense": 6165,
      "Ġhar": 6166,
      "Ġhom": 6167,
      "artz": 6168,
      "aba": 6169,
      "Ġvent": 6170,
      "astics": 6171,
      "quare": 6172,
      "ĠExc": 6173,
      "ĠSports": 6174,
      "ĠUnity": 6175,
      "udd": 6176,
      "ording": 6177,
      "Ġ26": 6178,
      "ĠWebAssembly": 6179,
      "Ġuns": 6180,
      "Ġtrick": 6181,
      "Ġtrends": 6182,
      "ĠEmails": 6183,
      "ĠHackathon": 6184,
      "ĠPhones": 6185,
      "ĠDiscovery": 6186,
      "Ġ101": 6187,
      "Ġsecrets": 6188,
      "Ġ70": 6189,
      "ĠSteph": 6190,
      "Ġdesigner": 6191,
      "ĠHelps": 6192,
      "reading": 6193,
      "Ġtele": 6194,
      "ĠSolutions": 6195,
      "irty": 6196,
      "ĠCreator": 6197,
      "ĠExpert": 6198,
      "ĠSkype": 6199,
      "Ġexperts": 6200,
      "ĠFinds": 6201,
      "Ġraise": 6202,
      "Ġinspired": 6203,
      "oji": 6204,
      "Ġpatents": 6205,
      "ĠMarkets": 6206,
      "ginx": 6207,
      "Ġfunctional": 6208,
      "Ġ2009": 6209,
      "Ġturned": 6210,
      "ĠSchools": 6211,
      "Conf": 6212,
      "Ġprograms": 6213,
      "ĠMotion": 6214,
      "ĠOptimizing": 6215,
      "ĠHollywood": 6216,
      "ĠTurns": 6217,
      "Ġletter": 6218,
      "ĠDiscuss": 6219,
      "ĠMassive": 6220,
      "ĠAcquisition": 6221,
      "ĠImplementation": 6222,
      "Ġeffective": 6223,
      "ĠOrigin": 6224,
      "ĠDetails": 6225,
      "Ġpractices": 6226,
      "option": 6227,
      "ĠNobel": 6228,
      "ĠVirgin": 6229,
      "24": 6230,
      "BO": 6231,
      "Cr": 6232,
      "End": 6233,
      "Founder": 6234,
      "HT": 6235,
      "Python": 6236,
      "gas": 6237,
      "iat": 6238,
      "iency": 6239,
      "kins": 6240,
      "lights": 6241,
      "scri": 6242,
      "xic": 6243,
      "Ð°": 6244,
      "ãĤ": 6245,
      "ini": 6246,
      "inux": 6247,
      "atomy": 6248,
      "ĠSatellite": 6249,
      "hell": 6250,
      "ĠCaus": 6251,
      "ĠCivil": 6252,
      "ĠHong": 6253,
      "ĠMit": 6254,
      "ĠMid": 6255,
      "ĠMental": 6256,
      "ĠDouble": 6257,
      "Ġcuts": 6258,
      "Ġcards": 6259,
      "ĠBus": 6260,
      "ĠBomb": 6261,
      "owing": 6262,
      "ĠFavorite": 6263,
      "Ġbans": 6264,
      "Ġpric": 6265,
      "Ġdraw": 6266,
      "Ġdriver": 6267,
      "ĠLu": 6268,
      "ĠLives": 6269,
      "Ġmode": 6270,
      "ithub": 6271,
      "Ġhaving": 6272,
      "Ġnight": 6273,
      "Ġreasons": 6274,
      "ĠJVM": 6275,
      "ositive": 6276,
      "Ġ1000": 6277,
      "ĠChicago": 6278,
      "Ġvote": 6279,
      "Ġvari": 6280,
      "ava": 6281,
      "expected": 6282,
      "Ġconcept": 6283,
      "Ġship": 6284,
      "Ġleak": 6285,
      "Ġleaving": 6286,
      "uggle": 6287,
      "Ġscan": 6288,
      "ĠLeaked": 6289,
      "ĠQuant": 6290,
      "oyal": 6291,
      "Ġprison": 6292,
      "ĠTeen": 6293,
      "letes": 6294,
      "ounty": 6295,
      "cling": 6296,
      "ĠAirlines": 6297,
      "ĠMarketplace": 6298,
      "ĠPowered": 6299,
      "ĠPowerful": 6300,
      "ĠParis": 6301,
      "Ġ198": 6302,
      "ĠInvesting": 6303,
      "ĠCorporate": 6304,
      "ĠDebate": 6305,
      "ĠMathematics": 6306,
      "ĠMetrics": 6307,
      "Ġcorporate": 6308,
      "ĠSetup": 6309,
      "ĠWeekly": 6310,
      "ĠMessage": 6311,
      "Ġformer": 6312,
      "Ġformat": 6313,
      "ĠRelations": 6314,
      "Ġfinancial": 6315,
      "Ġfastest": 6316,
      "Ġprocessing": 6317,
      "Ġsimpl": 6318,
      "Space": 6319,
      "Ġcalcul": 6320,
      "ĠPackage": 6321,
      "ĠFighting": 6322,
      "Ġsurvey": 6323,
      "Ġidentity": 6324,
      "ĠPolitics": 6325,
      "ĠPolitical": 6326,
      "ĠCollaboration": 6327,
      "equality": 6328,
      "dfunding": 6329,
      "ĠWashington": 6330,
      "Ġtogether": 6331,
      "':": 6332,
      "Ad": 6333,
      "HS": 6334,
      "VID": 6335,
      "fs": 6336,
      "gets": 6337,
      "mos": 6338,
      "mber": 6339,
      "pace": 6340,
      "rd": 6341,
      "rim": 6342,
      "onic": 6343,
      "Ġtypes": 6344,
      "orph": 6345,
      "ĠSerious": 6346,
      "ĠAk": 6347,
      "enes": 6348,
      "itory": 6349,
      "ĠCru": 6350,
      "Ġfaces": 6351,
      "ĠHur": 6352,
      "ĠHate": 6353,
      "lets": 6354,
      "icies": 6355,
      "ĠMi": 6356,
      "rot": 6357,
      "ĠDV": 6358,
      "ĠDriving": 6359,
      "Ġseed": 6360,
      "Ġcat": 6361,
      "Ġwords": 6362,
      "ĠFTC": 6363,
      "Ġdies": 6364,
      "ĠEye": 6365,
      "olving": 6366,
      "ayed": 6367,
      "Ġlose": 6368,
      "Ġnear": 6369,
      "ircle": 6370,
      "ulating": 6371,
      "ebra": 6372,
      "Ġthousands": 6373,
      "Ġvacc": 6374,
      "Ġpros": 6375,
      "Ġprobably": 6376,
      "obby": 6377,
      "plates": 6378,
      "ĠSpy": 6379,
      "ĠSpeak": 6380,
      "Ġspam": 6381,
      "Ġtrue": 6382,
      "aze": 6383,
      "azing": 6384,
      "Ġscreens": 6385,
      "ĠZen": 6386,
      "ĠMicroservices": 6387,
      "ĠIndie": 6388,
      "Ġemployee": 6389,
      "Ġseconds": 6390,
      "Ġrole": 6391,
      "ĠValve": 6392,
      "Ġmanufact": 6393,
      "ĠHTC": 6394,
      "ĠFriday": 6395,
      "ĠArticle": 6396,
      "ression": 6397,
      "ĠTransport": 6398,
      "Ġpercent": 6399,
      "Ġ99": 6400,
      "Ġhelped": 6401,
      "Ġgeneral": 6402,
      "ĠAccounts": 6403,
      "ĠActiv": 6404,
      "Ġpaying": 6405,
      "Ġamid": 6406,
      "ĠMovies": 6407,
      "ĠCentury": 6408,
      "ĠWordpress": 6409,
      "Ġinfo": 6410,
      "ercise": 6411,
      "Ġdefault": 6412,
      "ĠBasics": 6413,
      "Ġautomatically": 6414,
      "Ġmessage": 6415,
      "ĠBreakthrough": 6416,
      "ĠAcquires": 6417,
      "ĠSupply": 6418,
      "Ġauthentication": 6419,
      "acteria": 6420,
      "Ġmarkets": 6421,
      "Ġelse": 6422,
      "ĠSOPA": 6423,
      "Ġcommunication": 6424,
      "Ġprinting": 6425,
      "ĠIsrael": 6426,
      "Ġenterprise": 6427,
      "chronous": 6428,
      "ĠPhilosophy": 6429,
      "ĠClaims": 6430,
      "ĠLouis": 6431,
      "averse": 6432,
      "04": 6433,
      "77": 6434,
      "?)": 6435,
      "Am": 6436,
      "Be": 6437,
      "DS": 6438,
      "FT": 6439,
      "How": 6440,
      "Man": 6441,
      "Red": 6442,
      "core": 6443,
      "hot": 6444,
      "na": 6445,
      "point": 6446,
      "val": 6447,
      "yer": 6448,
      "Ġeth": 6449,
      "erging": 6450,
      "Ġtells": 6451,
      "estern": 6452,
      "orem": 6453,
      "ĠSense": 6454,
      "enz": 6455,
      "ĠTrying": 6456,
      "Ġfoot": 6457,
      "ĠHttp": 6458,
      "ĠPen": 6459,
      "ĠPak": 6460,
      "ĠPuzzle": 6461,
      "ĠMut": 6462,
      "Ġwire": 6463,
      "ĠFraud": 6464,
      "ĠRISC": 6465,
      "Ġdiff": 6466,
      "ĠLect": 6467,
      "ĠLater": 6468,
      "ĠLicense": 6469,
      "ĠEffects": 6470,
      "Ġmaterial": 6471,
      "ĠNar": 6472,
      "ĠNPM": 6473,
      "idents": 6474,
      "ĠOpt": 6475,
      "igating": 6476,
      "otlin": 6477,
      "ĠWhile": 6478,
      "Ġhalf": 6479,
      "ĠVari": 6480,
      "ĠJup": 6481,
      "Ġstaff": 6482,
      "ĠAnswer": 6483,
      "Ġefficient": 6484,
      "istance": 6485,
      "ĠProposal": 6486,
      "ĠChoosing": 6487,
      "ĠThanks": 6488,
      "ĠKin": 6489,
      "ĠKeys": 6490,
      "aping": 6491,
      "ĠIsland": 6492,
      "ipse": 6493,
      "ĠExpect": 6494,
      "Ġbeautiful": 6495,
      "ĠComponents": 6496,
      "ĠScientist": 6497,
      "ĠCluster": 6498,
      "Ġwhite": 6499,
      "ĠFaces": 6500,
      "Ġclone": 6501,
      "Ġspend": 6502,
      "ĠNote": 6503,
      "ĠNothing": 6504,
      "ferences": 6505,
      "ĠFlat": 6506,
      "Ġalternatives": 6507,
      "ĠNoSQL": 6508,
      "ĠComment": 6509,
      "ĠMacs": 6510,
      "ĠEvents": 6511,
      "ĠManagers": 6512,
      "Ġevents": 6513,
      "ĠElection": 6514,
      "Ġvision": 6515,
      "Ġbrand": 6516,
      "Ġcreative": 6517,
      "ĠRetro": 6518,
      "ĠProfile": 6519,
      "Ġcarbon": 6520,
      "ĠAutomatic": 6521,
      "ĠLogo": 6522,
      "ĠLogic": 6523,
      "ĠClassic": 6524,
      "Ġsetting": 6525,
      "ĠLeadership": 6526,
      "ĠPCs": 6527,
      "Ġdemand": 6528,
      "netic": 6529,
      "ĠVCs": 6530,
      "ĠEntrepreneurship": 6531,
      "Ġpresent": 6532,
      "Ġbreach": 6533,
      "Ġvulnerability": 6534,
      "ĠDatas": 6535,
      "ĠLawsuit": 6536,
      "ĠObserv": 6537,
      "Ġmilitary": 6538,
      "FO": 6539,
      "RI": 6540,
      "Te": 6541,
      "audio": 6542,
      "bo": 6543,
      "gu": 6544,
      "hack": 6545,
      "lo": 6546,
      "lier": 6547,
      "mission": 6548,
      "nes": 6549,
      "pm": 6550,
      "vy": 6551,
      "win": 6552,
      "ya": 6553,
      "à¸": 6554,
      "Ġarg": 6555,
      "anation": 6556,
      "ĠSame": 6557,
      "ĠAw": 6558,
      "ĠTab": 6559,
      "ĠTog": 6560,
      "hedu": 6561,
      "ĠCult": 6562,
      "ĠCold": 6563,
      "ĠCapt": 6564,
      "ĠCitiz": 6565,
      "alled": 6566,
      "reaking": 6567,
      "Ġfield": 6568,
      "ĠHun": 6569,
      "ĠHero": 6570,
      "ĠPars": 6571,
      "ĠPitch": 6572,
      "icine": 6573,
      "ĠMob": 6574,
      "ĠMex": 6575,
      "Ġsup": 6576,
      "Ġseen": 6577,
      "ĠBand": 6578,
      "ĠBird": 6579,
      "Ġwild": 6580,
      "ĠFew": 6581,
      "ĠFailed": 6582,
      "ĠRF": 6583,
      "ander": 6584,
      "Ġbab": 6585,
      "Ġdate": 6586,
      "Ġdeliver": 6587,
      "Ġdisease": 6588,
      "ĠLa": 6589,
      "ĠLands": 6590,
      "ĠNation": 6591,
      "ĠNginx": 6592,
      "vember": 6593,
      "ĠUg": 6594,
      "otely": 6595,
      "ĠStructure": 6596,
      "Ġhur": 6597,
      "rier": 6598,
      "riented": 6599,
      "Ġgas": 6600,
      "Ġreact": 6601,
      "Ġearth": 6602,
      "ĠChain": 6603,
      "ĠComparing": 6604,
      "Ġconference": 6605,
      "Ġapprov": 6606,
      "Ġ300": 6607,
      "Ġcomplete": 6608,
      "ĠAdds": 6609,
      "rown": 6610,
      "Ġspot": 6611,
      "ĠOpenBSD": 6612,
      "azy": 6613,
      "ĠForward": 6614,
      "ĠWeird": 6615,
      "ĠManage": 6616,
      "Ġsues": 6617,
      "ĠDiss": 6618,
      "ĠContest": 6619,
      "ĠFlaw": 6620,
      "ĠMeasure": 6621,
      "ĠNovember": 6622,
      "Ġmeans": 6623,
      "ĠRedux": 6624,
      "Ġmodule": 6625,
      "ĠBrings": 6626,
      "Ġinteresting": 6627,
      "ĠSelect": 6628,
      "ĠHigher": 6629,
      "ĠAcross": 6630,
      "ĠFinance": 6631,
      "ĠActivity": 6632,
      "Ġpatterns": 6633,
      "ĠWeekend": 6634,
      "ĠMagazine": 6635,
      "ĠLeads": 6636,
      "ĠMessages": 6637,
      "Ġdocuments": 6638,
      "ĠChanged": 6639,
      "ĠUnderstand": 6640,
      "ĠVentures": 6641,
      "Ġcenter": 6642,
      "ĠGolden": 6643,
      "ĠGoldman": 6644,
      "ĠAuthentication": 6645,
      "ĠGPUs": 6646,
      "ĠArmy": 6647,
      "ĠMysterious": 6648,
      "Ġdepend": 6649,
      "ĠContainer": 6650,
      "Ġrequire": 6651,
      "ĠProfessional": 6652,
      "ĠRapid": 6653,
      "ividual": 6654,
      "API": 6655,
      "EG": 6656,
      "Gr": 6657,
      "List": 6658,
      "Res": 6659,
      "bage": 6660,
      "bird": 6661,
      "hold": 6662,
      "iod": 6663,
      "oning": 6664,
      "Ġtour": 6665,
      "ester": 6666,
      "ateway": 6667,
      "ĠSM": 6668,
      "ĠSort": 6669,
      "itution": 6670,
      "ĠCub": 6671,
      "ĠCounter": 6672,
      "ĠPu": 6673,
      "ĠPutting": 6674,
      "ĠPotential": 6675,
      "ĠMP": 6676,
      "Ġsal": 6677,
      "Ġsets": 6678,
      "Ġsense": 6679,
      "Ġcells": 6680,
      "ĠBin": 6681,
      "ĠBol": 6682,
      "ĠBrows": 6683,
      "Ġwear": 6684,
      "ĠFish": 6685,
      "ĠFriend": 6686,
      "ĠRent": 6687,
      "Ġinflu": 6688,
      "anda": 6689,
      "Ġbo": 6690,
      "Ġboom": 6691,
      "Ġpir": 6692,
      "ĠGIF": 6693,
      "ĠLaunched": 6694,
      "Ġmaint": 6695,
      "Ġmoon": 6696,
      "Ġmechan": 6697,
      "ĠStrong": 6698,
      "Ġhour": 6699,
      "Ġhidden": 6700,
      "opter": 6701,
      "ĠJail": 6702,
      "Ġeffects": 6703,
      "umption": 6704,
      "osure": 6705,
      "ĠChris": 6706,
      "ĠKotlin": 6707,
      "ĠApprov": 6708,
      "Ġprop": 6709,
      "avour": 6710,
      "quake": 6711,
      "Ġusage": 6712,
      "ĠExamples": 6713,
      "ibaba": 6714,
      "ĠAlg": 6715,
      "Ġcomprom": 6716,
      "Ġkilled": 6717,
      "ĠAdapt": 6718,
      "âĢĿ?": 6719,
      "Ġclick": 6720,
      "ĠDoom": 6721,
      "ĠAndre": 6722,
      "ĠLeak": 6723,
      "ĠLeap": 6724,
      "Ġupload": 6725,
      "ĠDiscovered": 6726,
      "leted": 6727,
      "ployment": 6728,
      "clusive": 6729,
      "ĠParts": 6730,
      "ĠSea": 6731,
      "rought": 6732,
      "arma": 6733,
      "ĠItself": 6734,
      "eroid": 6735,
      "shop": 6736,
      "ĠActually": 6737,
      "ĠVisualizing": 6738,
      "Ġparty": 6739,
      "Ġminimal": 6740,
      "ĠDocs": 6741,
      "ĠIncome": 6742,
      "Ġprotocol": 6743,
      "ĠPlatforms": 6744,
      "Ġthinking": 6745,
      "Ġcover": 6746,
      "ĠScalable": 6747,
      "ĠSomeone": 6748,
      "ĠHappened": 6749,
      "auty": 6750,
      "ĠMeeting": 6751,
      "ĠBreach": 6752,
      "ĠDidn": 6753,
      "Ġchanging": 6754,
      "Ġprofess": 6755,
      "swers": 6756,
      "Ġlinked": 6757,
      "Ġbanned": 6758,
      "Ġspecial": 6759,
      "interest": 6760,
      "Ġfollowing": 6761,
      "ĠBeginner": 6762,
      "check": 6763,
      "Ġshell": 6764,
      "ĠUrban": 6765,
      "Ġrequests": 6766,
      "ĠResponsive": 6767,
      "limited": 6768,
      "ifesto": 6769,
      "unnel": 6770,
      "ĠGDPR": 6771,
      "known": 6772,
      "ĠPakistan": 6773,
      "400": 6774,
      "Me": 6775,
      "Mobile": 6776,
      "aaS": 6777,
      "bur": 6778,
      "dis": 6779,
      "driven": 6780,
      "eum": 6781,
      "field": 6782,
      "ias": 6783,
      "just": 6784,
      "lands": 6785,
      "lied": 6786,
      "mare": 6787,
      "wan": 6788,
      "á»": 6789,
      "Ġess": 6790,
      "onts": 6791,
      "ĠCoup": 6792,
      "Ġfed": 6793,
      "Ġfarm": 6794,
      "Ġfully": 6795,
      "ĠPac": 6796,
      "ĠMr": 6797,
      "edicated": 6798,
      "ĠDC": 6799,
      "ĠDangerous": 6800,
      "Ġcases": 6801,
      "ĠBen": 6802,
      "ĠBund": 6803,
      "Ġopt": 6804,
      "ĠFlying": 6805,
      "ĠFPG": 6806,
      "ĠReth": 6807,
      "Ġpret": 6808,
      "ĠGrav": 6809,
      "Ġdatabases": 6810,
      "ĠLake": 6811,
      "ĠLiter": 6812,
      "Ġmid": 6813,
      "Ġmot": 6814,
      "Ġmaps": 6815,
      "Ġmoment": 6816,
      "Ġforce": 6817,
      "ady": 6818,
      "ĠStorm": 6819,
      "unning": 6820,
      "Ġgirl": 6821,
      "abit": 6822,
      "ĠJam": 6823,
      "Ġstrong": 6824,
      "istake": 6825,
      "ĠChips": 6826,
      "ĠChoice": 6827,
      "ĠChannel": 6828,
      "ĠThousands": 6829,
      "ĠKen": 6830,
      "Ġrank": 6831,
      "angers": 6832,
      "avel": 6833,
      "ĠEnh": 6834,
      "sequ": 6835,
      "ansion": 6836,
      "ĠOnce": 6837,
      "ĠAlways": 6838,
      "ĠAlibaba": 6839,
      "ĠiM": 6840,
      "ĠPlant": 6841,
      "ĠArrest": 6842,
      "ĠTweets": 6843,
      "Ġunique": 6844,
      "ĠOpens": 6845,
      "ĠPrison": 6846,
      "Ġtrad": 6847,
      "Ġscientist": 6848,
      "Ġscratch": 6849,
      "away": 6850,
      "ollars": 6851,
      "Ġalso": 6852,
      "Ġdeveloping": 6853,
      "ynchronous": 6854,
      "ĠMeas": 6855,
      "ĠMeans": 6856,
      "ĠRecords": 6857,
      "Ġbuilds": 6858,
      "ĠMonet": 6859,
      "ĠSilver": 6860,
      "Ġperform": 6861,
      "Ġcomment": 6862,
      "Ġaccident": 6863,
      "ĠRemember": 6864,
      "Ġhelping": 6865,
      "olec": 6866,
      "ĠAccept": 6867,
      "ĠDrag": 6868,
      "Ġnetworking": 6869,
      "ĠCryptography": 6870,
      "ĠPlaying": 6871,
      "Ġtransform": 6872,
      "ĠPayment": 6873,
      "ĠPayments": 6874,
      "Ġtweet": 6875,
      "ĠAssange": 6876,
      "Ġcreator": 6877,
      "ĠMarkdown": 6878,
      "ĠJoe": 6879,
      "ĠBanks": 6880,
      "ĠSignal": 6881,
      "ruptcy": 6882,
      "ottom": 6883,
      "ĠGenius": 6884,
      "bye": 6885,
      "Ġbanks": 6886,
      "vironments": 6887,
      "ĠSalesforce": 6888,
      "ĠKeeping": 6889,
      "Ġacquisition": 6890,
      "Ġcalled": 6891,
      "ĠAfrican": 6892,
      "Ġdetection": 6893,
      "ĠPredictions": 6894,
      "ĠOriginal": 6895,
      "ĠSafari": 6896,
      "Ġknown": 6897,
      "Ġlimit": 6898,
      "Ġtablet": 6899,
      "Ġphysics": 6900,
      "ĠPutin": 6901,
      "Ġbasic": 6902,
      "ĠComplexity": 6903,
      "ĠSweden": 6904,
      "ĠTensorFlow": 6905,
      "Bit": 6906,
      "Commerce": 6907,
      "EL": 6908,
      "Like": 6909,
      "Life": 6910,
      "Pass": 6911,
      "TA": 6912,
      "bone": 6913,
      "camp": 6914,
      "lor": 6915,
      "more": 6916,
      "oe": 6917,
      "Ġil": 6918,
      "Ġriv": 6919,
      "inite": 6920,
      "oned": 6921,
      "ĠST": 6922,
      "ĠSSD": 6923,
      "ĠSince": 6924,
      "ĠAN": 6925,
      "arant": 6926,
      "itar": 6927,
      "ĠCast": 6928,
      "ĠCisco": 6929,
      "outer": 6930,
      "Ġfit": 6931,
      "Ġfive": 6932,
      "ĠWestern": 6933,
      "Ġsort": 6934,
      "Ġsold": 6935,
      "Ġchem": 6936,
      "Ġopport": 6937,
      "isible": 6938,
      "ĠFut": 6939,
      "ĠFeb": 6940,
      "ĠRos": 6941,
      "ĠRub": 6942,
      "Ġburn": 6943,
      "Ġboth": 6944,
      "Ġbugs": 6945,
      "Ġpip": 6946,
      "Ġporn": 6947,
      "ĠGender": 6948,
      "ilio": 6949,
      "ĠLED": 6950,
      "ĠEb": 6951,
      "ĠEt": 6952,
      "Ġmor": 6953,
      "Ġmission": 6954,
      "ooper": 6955,
      "otional": 6956,
      "ĠStick": 6957,
      "Ġlo": 6958,
      "Ġnatural": 6959,
      "emy": 6960,
      "Ġguy": 6961,
      "Ġgiving": 6962,
      "ulations": 6963,
      "odon": 6964,
      "ĠShip": 6965,
      "ĠAnatomy": 6966,
      "ifies": 6967,
      "Ġthose": 6968,
      "Ġren": 6969,
      "usters": 6970,
      "ustainable": 6971,
      "iveness": 6972,
      "acters": 6973,
      "ĠClock": 6974,
      "ovel": 6975,
      "asses": 6976,
      "ĠAlready": 6977,
      "Ġ23": 6978,
      "Ġ27": 6979,
      "Ġ28": 6980,
      "Ġchips": 6981,
      "Ġcomponents": 6982,
      "Ġplaces": 6983,
      "cripts": 6984,
      "Ġupgrade": 6985,
      "ĠWealth": 6986,
      "ologists": 6987,
      "ĠDesigners": 6988,
      "197": 6989,
      "ĠInteresting": 6990,
      "Ġagency": 6991,
      "ĠGrand": 6992,
      "ĠInsights": 6993,
      "2005": 6994,
      "Ġauto": 6995,
      "Ġdecisions": 6996,
      "ĠSketch": 6997,
      "ĠPlanning": 6998,
      "Ġarticle": 6999,
      "ĠMario": 7000,
      "ĠDoctors": 7001,
      "Ġpatients": 7002,
      "ĠAbs": 7003,
      "Ġsmartphones": 7004,
      "ĠMessaging": 7005,
      "Ġactivity": 7006,
      "Ġprofit": 7007,
      "Ġlogic": 7008,
      "ĠClear": 7009,
      "Ġpromises": 7010,
      "thetic": 7011,
      "Ġcentury": 7012,
      "Ġpresident": 7013,
      "ĠCrowds": 7014,
      "ĠEstate": 7015,
      "ĠObjective": 7016,
      "Ġchallenges": 7017,
      "Ġuniverse": 7018,
      "ĠContinuous": 7019,
      "Ġconcerns": 7020,
      "Ġintegration": 7021,
      "Ġoriginal": 7022,
      "Ġrocket": 7023,
      "ĠBirthday": 7024,
      "ertificate": 7025,
      "ĠDutch": 7026,
      "ĠSeptember": 7027,
      "undreds": 7028,
      "ecessary": 7029,
      "Powered": 7030,
      "Ġpricing": 7031,
      "):": 7032,
      "27": 7033,
      "Leaks": 7034,
      "TV": 7035,
      "World": 7036,
      "cam": 7037,
      "col": 7038,
      "drome": 7039,
      "fort": 7040,
      "mits": 7041,
      "makers": 7042,
      "nm": 7043,
      "path": 7044,
      "rad": 7045,
      "racts": 7046,
      "water": 7047,
      "xit": 7048,
      "Ð¸": 7049,
      "Ġtit": 7050,
      "arn": 7051,
      "ĠTail": 7052,
      "ĠTask": 7053,
      "heimer": 7054,
      "reement": 7055,
      "ĠPatch": 7056,
      "icism": 7057,
      "ĠMike": 7058,
      "Ġtot": 7059,
      "ĠDB": 7060,
      "ĠDriven": 7061,
      "ĠDatabases": 7062,
      "Ġsand": 7063,
      "Ġsens": 7064,
      "Ġserious": 7065,
      "ĠBang": 7066,
      "ĠBash": 7067,
      "Ġwrote": 7068,
      "Ġoptions": 7069,
      "ĠFan": 7070,
      "ĠField": 7071,
      "ĠFashion": 7072,
      "Ġbroad": 7073,
      "Ġpsych": 7074,
      "ĠGov": 7075,
      "ĠGeek": 7076,
      "ilation": 7077,
      "ĠEcl": 7078,
      "Ġmyth": 7079,
      "Ġmiddle": 7080,
      "enter": 7081,
      "ĠNature": 7082,
      "ĠOk": 7083,
      "ĠInclud": 7084,
      "ĠStats": 7085,
      "Ġlanding": 7086,
      "Ġgit": 7087,
      "ulous": 7088,
      "Ġreli": 7089,
      "ĠJon": 7090,
      "ĠJun": 7091,
      "ĠJune": 7092,
      "ĠReplace": 7093,
      "Ġstructure": 7094,
      "Ġstuff": 7095,
      "istent": 7096,
      "osion": 7097,
      "Ġvol": 7098,
      "apons": 7099,
      "Ġbehavior": 7100,
      "ĠScheme": 7101,
      "Ġexc": 7102,
      "ĠTrick": 7103,
      "ibly": 7104,
      "Ġled": 7105,
      "ĠTwitch": 7106,
      "Ġunit": 7107,
      "ĠToy": 7108,
      "Ġadmin": 7109,
      "rites": 7110,
      "ĠEmbr": 7111,
      "ĠBuilds": 7112,
      "ĠCompute": 7113,
      "Ġrecent": 7114,
      "ĠPartner": 7115,
      "afka": 7116,
      "ĠFresh": 7117,
      "Ġarm": 7118,
      "ullsh": 7119,
      "ĠSeason": 7120,
      "Ġcommercial": 7121,
      "rete": 7122,
      "ĠAcadem": 7123,
      "fficiency": 7124,
      "ĠDragon": 7125,
      "vertis": 7126,
      "ĠInvestor": 7127,
      "ĠPlayer": 7128,
      "Ġneutrality": 7129,
      "ĠAdvis": 7130,
      "ĠMathematic": 7131,
      "ĠInfo": 7132,
      "ĠDemocr": 7133,
      "ĠKeynote": 7134,
      "ĠInterviews": 7135,
      "screen": 7136,
      "aiwan": 7137,
      "ĠAbst": 7138,
      "ĠLabor": 7139,
      "Ġsetup": 7140,
      "ottest": 7141,
      "ĠGeorge": 7142,
      "ĠStores": 7143,
      "ĠHandling": 7144,
      "Ġtried": 7145,
      "hematical": 7146,
      "ĠReflect": 7147,
      "ĠDigg": 7148,
      "Ġcontainer": 7149,
      "preter": 7150,
      "ĠCoinbase": 7151,
      "ĠPrinciple": 7152,
      "ĠAstronom": 7153,
      "Ġoutside": 7154,
      "ĠDependency": 7155,
      "ĠStrategies": 7156,
      "ĠEcosystem": 7157,
      "Ġdynamic": 7158,
      "ĠAnalyzing": 7159,
      ".âĢĿ": 7160,
      "Auth": 7161,
      "Or": 7162,
      "build": 7163,
      "graph": 7164,
      "ja": 7165,
      "joy": 7166,
      "uits": 7167,
      "yan": 7168,
      "zen": 7169,
      "Ã¡": 7170,
      "Ø¹": 7171,
      "Ġtim": 7172,
      "atures": 7173,
      "ĠSimp": 7174,
      "itute": 7175,
      "ĠCM": 7176,
      "ĠCup": 7177,
      "ĠCry": 7178,
      "ĠCurrency": 7179,
      "ĠCTO": 7180,
      "rec": 7181,
      "Ġfails": 7182,
      "ĠHI": 7183,
      "ĠHedge": 7184,
      "leet": 7185,
      "ĠPit": 7186,
      "ĠPot": 7187,
      "ĠWood": 7188,
      "ĠDiet": 7189,
      "ĠDrivers": 7190,
      "Ġsix": 7191,
      "Ġseek": 7192,
      "Ġcand": 7193,
      "Ġcause": 7194,
      "Ġcirc": 7195,
      "Ġcapture": 7196,
      "ĠBern": 7197,
      "Ġwish": 7198,
      "Ġwaste": 7199,
      "ĠFirms": 7200,
      "ĠRog": 7201,
      "Ġbet": 7202,
      "Ġbirth": 7203,
      "Ġbubble": 7204,
      "Ġpe": 7205,
      "Ġpoor": 7206,
      "Ġpredic": 7207,
      "etooth": 7208,
      "ĠGear": 7209,
      "ĠLion": 7210,
      "Ġmigr": 7211,
      "ashed": 7212,
      "amin": 7213,
      "amil": 7214,
      "ĠOp": 7215,
      "ima": 7216,
      "Ġharm": 7217,
      "Ġhands": 7218,
      "Ġnational": 7219,
      "ulated": 7220,
      "ĠVen": 7221,
      "ĠVery": 7222,
      "rave": 7223,
      "rapper": 7224,
      "ĠShares": 7225,
      "ocurrencies": 7226,
      "ĠChess": 7227,
      "Ġvict": 7228,
      "ĠKilled": 7229,
      "Ġproposal": 7230,
      "Ġrid": 7231,
      "Ġrates": 7232,
      "arden": 7233,
      "duced": 7234,
      "arks": 7235,
      "ĠScratch": 7236,
      "Ġexample": 7237,
      "phere": 7238,
      "Ġ32": 7239,
      "Ġ37": 7240,
      "Ġcomparison": 7241,
      "ĠBlind": 7242,
      "Ġjo": 7243,
      "Ġspread": 7244,
      "Ġtrading": 7245,
      "Ġtruth": 7246,
      "inton": 7247,
      "mselves": 7248,
      "ĠFreeBSD": 7249,
      "ĠNeu": 7250,
      "ĠHeat": 7251,
      "ĠDonald": 7252,
      "Ġhacks": 7253,
      "Ġdesigners": 7254,
      "Ġneeded": 7255,
      "Ġbackground": 7256,
      "Ġautonomous": 7257,
      "airs": 7258,
      "ĠLaunching": 7259,
      "Ġpreview": 7260,
      "Ġexplain": 7261,
      "ĠPhotograph": 7262,
      "Ġmining": 7263,
      "ĠExtra": 7264,
      "ĠDoctor": 7265,
      "ĠMatt": 7266,
      "Ġprotection": 7267,
      "ields": 7268,
      "ĠDefin": 7269,
      "ĠMeteor": 7270,
      "rolls": 7271,
      "ĠLinks": 7272,
      "irmed": 7273,
      "Ġplayer": 7274,
      "Ġplayers": 7275,
      "ĠGenetic": 7276,
      "ĠEthics": 7277,
      "Ġmoves": 7278,
      "Ġobs": 7279,
      "ĠAMA": 7280,
      "Ġmessaging": 7281,
      "ĠBias": 7282,
      "Ġkilling": 7283,
      "ĠTemplate": 7284,
      "ĠCPUs": 7285,
      "Ġoperating": 7286,
      "ĠCountries": 7287,
      "Ġintroduction": 7288,
      "ĠNFL": 7289,
      "ĠAugust": 7290,
      "Ġmatters": 7291,
      "piracy": 7292,
      "Ġhybrid": 7293,
      "gotten": 7294,
      "uggling": 7295,
      "ĠMeaning": 7296,
      "ĠFalse": 7297,
      "oubles": 7298,
      "ĠMartin": 7299,
      "ĠUnicorn": 7300,
      "iguration": 7301,
      "ĠPentagon": 7302,
      "23": 7303,
      "48": 7304,
      "FA": 7305,
      "Mind": 7306,
      "OW": 7307,
      "Py": 7308,
      "de": 7309,
      "made": 7310,
      "pad": 7311,
      "ql": 7312,
      "rame": 7313,
      "ties": 7314,
      "tml": 7315,
      "ĠSon": 7316,
      "ĠSov": 7317,
      "ĠAG": 7318,
      "ara": 7319,
      "ito": 7320,
      "ĠTaiwan": 7321,
      "ĠCrazy": 7322,
      "Ġfear": 7323,
      "Ġfirms": 7324,
      "ĠPion": 7325,
      "Ġaims": 7326,
      "ĠWis": 7327,
      "ĠWent": 7328,
      "ĠWorse": 7329,
      "ĠIN": 7330,
      "ĠIl": 7331,
      "ĠIgn": 7332,
      "Ġtook": 7333,
      "ĠDart": 7334,
      "Ġsan": 7335,
      "Ġsoc": 7336,
      "Ġsending": 7337,
      "Ġcame": 7338,
      "Ġcelebr": 7339,
      "ĠFemale": 7340,
      "ĠRare": 7341,
      "ĠRyz": 7342,
      "ĠRAM": 7343,
      "âĢľ": 7344,
      "Ġbought": 7345,
      "Ġbenchmark": 7346,
      "Ġplease": 7347,
      "Ġpapers": 7348,
      "ĠGall": 7349,
      "Ġdriving": 7350,
      "ĠLibraries": 7351,
      "Ġmar": 7352,
      "ĠOK": 7353,
      "igate": 7354,
      "urate": 7355,
      "ĠStage": 7356,
      "ĠStupid": 7357,
      "opes": 7358,
      "Ġgender": 7359,
      "Ġreverse": 7360,
      "Ġreduce": 7361,
      "raising": 7362,
      "istical": 7363,
      "ifier": 7364,
      "pty": 7365,
      "ĠChief": 7366,
      "ĠKafka": 7367,
      "aped": 7368,
      "avy": 7369,
      "grad": 7370,
      "ĠSpam": 7371,
      "bert": 7372,
      "ĠTwilio": 7373,
      "inks": 7374,
      "ĠCanon": 7375,
      "ĠPrime": 7376,
      "ĠPrimer": 7377,
      "Ġnotifications": 7378,
      "ĠZeal": 7379,
      "Ġsuff": 7380,
      "appy": 7381,
      "intech": 7382,
      "ificant": 7383,
      "ĠLinear": 7384,
      "Ġquery": 7385,
      "ĠRece": 7386,
      "ĠRealtime": 7387,
      "Ġdiscovery": 7388,
      "ĠReduce": 7389,
      "ĠComments": 7390,
      "ossil": 7391,
      "ĠGround": 7392,
      "ĠElastic": 7393,
      "ĠSurprising": 7394,
      "Ø§ÙĨ": 7395,
      "ĠCrack": 7396,
      "boarding": 7397,
      "Ġcrime": 7398,
      "Ġpayment": 7399,
      "ĠCybersecurity": 7400,
      "Ġgroups": 7401,
      "Ġhigher": 7402,
      "ĠAssistant": 7403,
      "Ġcreates": 7404,
      "ĠDemand": 7405,
      "ĠModeling": 7406,
      "Ġwanted": 7407,
      "Ġinfect": 7408,
      "Ġweekend": 7409,
      "ĠProcessor": 7410,
      "Ġhappen": 7411,
      "Ġprofile": 7412,
      "ĠMotiv": 7413,
      "ARS": 7414,
      "ĠCosts": 7415,
      "ĠØ¨": 7416,
      "atellites": 7417,
      "ĠAttention": 7418,
      "ĠFilter": 7419,
      "ĠDeploying": 7420,
      "ĠDocumentation": 7421,
      "escope": 7422,
      "Ġentrepreneur": 7423,
      "commerce": 7424,
      "Ġvulnerabilities": 7425,
      "ĠIllust": 7426,
      "ĠBerlin": 7427,
      "ĠLLVM": 7428,
      "ĠMVP": 7429,
      "ĠOctober": 7430,
      "ĠRequire": 7431,
      "ĠMotorola": 7432,
      "ĠTogether": 7433,
      "85": 7434,
      "Dev": 7435,
      "Feed": 7436,
      "Lab": 7437,
      "SF": 7438,
      "case": 7439,
      "dev": 7440,
      "fly": 7441,
      "hots": 7442,
      "mer": 7443,
      "mid": 7444,
      "oices": 7445,
      "sl": 7446,
      "vant": 7447,
      "ville": 7448,
      "yers": 7449,
      "zheimer": 7450,
      "Ġtask": 7451,
      "Ġtries": 7452,
      "ĠSC": 7453,
      "ĠSusp": 7454,
      "ĠCouch": 7455,
      "ĠCodes": 7456,
      "reg": 7457,
      "ĠHal": 7458,
      "ĠHear": 7459,
      "level": 7460,
      "ĠPoints": 7461,
      "ĠPinterest": 7462,
      "ĠWid": 7463,
      "ĠDest": 7464,
      "ĠDial": 7465,
      "ĠDestroy": 7466,
      "ĠDifference": 7467,
      "ĠDashboard": 7468,
      "Ġseeks": 7469,
      "Ġcodes": 7470,
      "ĠBase": 7471,
      "ĠBoss": 7472,
      "ĠBinary": 7473,
      "ĠBeware": 7474,
      "isc": 7475,
      "ĠFox": 7476,
      "ĠRat": 7477,
      "ĠRam": 7478,
      "ĠRack": 7479,
      "Ġtheft": 7480,
      "Ġband": 7481,
      "Ġbid": 7482,
      "Ġball": 7483,
      "Ġbase": 7484,
      "Ġbenefits": 7485,
      "Ġpars": 7486,
      "Ġdouble": 7487,
      "Ġdangerous": 7488,
      "ĠLed": 7489,
      "ĠLose": 7490,
      "ĠEch": 7491,
      "Ġmaster": 7492,
      "Ġmental": 7493,
      "Ġforeign": 7494,
      "ĠNan": 7495,
      "ĠNix": 7496,
      "ĠNLP": 7497,
      "term": 7498,
      "Ġones": 7499,
      "ĠStuff": 7500,
      "Ġlosing": 7501,
      "emand": 7502,
      "uls": 7503,
      "ulators": 7504,
      "Ġrein": 7505,
      "2000": 7506,
      "ĠJoy": 7507,
      "ĠJudge": 7508,
      "Ġeye": 7509,
      "ĠProvid": 7510,
      "Ġvan": 7511,
      "iph": 7512,
      "ĠExcel": 7513,
      "ĠScrap": 7514,
      "ĠClose": 7515,
      "Ġwhole": 7516,
      "Ġexecut": 7517,
      "Ġexamples": 7518,
      "ordan": 7519,
      "ĠAlzheimer": 7520,
      "Ġ35": 7521,
      "Ġcompetition": 7522,
      "Ġuntil": 7523,
      "Ġscam": 7524,
      "ĠLeave": 7525,
      "ĠLeading": 7526,
      "ĠWeWork": 7527,
      "ĠIndustrial": 7528,
      "Ġprinter": 7529,
      "ĠRedu": 7530,
      "ĠUpcoming": 7531,
      "class": 7532,
      "ĠAirport": 7533,
      "iversary": 7534,
      "ĠNewsletter": 7535,
      "ĠVisa": 7536,
      "yping": 7537,
      "etailed": 7538,
      "Ġfinding": 7539,
      "Ġdevs": 7540,
      "pressions": 7541,
      "Ġexplains": 7542,
      "Ġmini": 7543,
      "ĠAssembly": 7544,
      "Ġediting": 7545,
      "ĠBecomes": 7546,
      "ĠBecoming": 7547,
      "ĠApoll": 7548,
      "ĠFastest": 7549,
      "bitr": 7550,
      "ĠHappens": 7551,
      "ĠSimulation": 7552,
      "ĠPrinting": 7553,
      "ĠBrexit": 7554,
      "ĠHybrid": 7555,
      "player": 7556,
      "Ġlogo": 7557,
      "Ġcybersecurity": 7558,
      "ĠCurated": 7559,
      "Ġautomated": 7560,
      "Chat": 7561,
      "ĠTerra": 7562,
      "ĠAngularJS": 7563,
      "ĠCrowd": 7564,
      "ĠCrowdfunding": 7565,
      "ĠEstim": 7566,
      "ĠDeployment": 7567,
      "ĠNavy": 7568,
      "ĠÙħØ¨": 7569,
      "Ġlimits": 7570,
      "ometric": 7571,
      "Ġterms": 7572,
      "ĠAccelerator": 7573,
      "ittee": 7574,
      "ĠEssay": 7575,
      "www": 7576,
      "Ġcontainers": 7577,
      "Ġmystery": 7578,
      "ĠJanuary": 7579,
      "Ġbrowsers": 7580,
      "ĠStephen": 7581,
      "ĠDVD": 7582,
      "hedule": 7583,
      "ĠUgly": 7584,
      "ĠEclipse": 7585,
      "ullshit": 7586,
      "Don": 7587,
      "Gen": 7588,
      "Level": 7589,
      "No": 7590,
      "OC": 7591,
      "Over": 7592,
      "RA": 7593,
      "RC": 7594,
      "TL": 7595,
      "Video": 7596,
      "breaking": 7597,
      "friendly": 7598,
      "gery": 7599,
      "ki": 7600,
      "lr": 7601,
      "lime": 7602,
      "ni": 7603,
      "new": 7604,
      "rs": 7605,
      "uing": 7606,
      "uable": 7607,
      "Ġorders": 7608,
      "erd": 7609,
      "Ġtasks": 7610,
      "ĠSA": 7611,
      "ĠSach": 7612,
      "ĠAV": 7613,
      "ĠASP": 7614,
      "itude": 7615,
      "ĠTinder": 7616,
      "ĠCass": 7617,
      "ĠCapture": 7618,
      "start": 7619,
      "Ġfly": 7620,
      "Ġfair": 7621,
      "Ġfuel": 7622,
      "Ġfriendly": 7623,
      "ĠPredic": 7624,
      "icons": 7625,
      "icists": 7626,
      "ĠMaint": 7627,
      "ĠDE": 7628,
      "ĠDuck": 7629,
      "ĠDrops": 7630,
      "Ġcurrency": 7631,
      "ĠBle": 7632,
      "ĠBudget": 7633,
      "ĠBirds": 7634,
      "ĠFe": 7635,
      "ĠFig": 7636,
      "ĠFab": 7637,
      "ĠFusion": 7638,
      "ĠRid": 7639,
      "ĠRide": 7640,
      "ĠReli": 7641,
      "ĠRansomware": 7642,
      "Ġpure": 7643,
      "ĠGig": 7644,
      "ĠGithub": 7645,
      "Ġdestroy": 7646,
      "Ġdifference": 7647,
      "ĠLos": 7648,
      "ĠEyes": 7649,
      "ĠOthers": 7650,
      "igen": 7651,
      "rief": 7652,
      "Ġgold": 7653,
      "ĠVi": 7654,
      "ĠVote": 7655,
      "rapped": 7656,
      "ably": 7657,
      "Ġstupid": 7658,
      "Ġstolen": 7659,
      "Ġeyes": 7660,
      "ighbor": 7661,
      "Ġproof": 7662,
      "plant": 7663,
      "ĠSpin": 7664,
      "ĠSpan": 7665,
      "ĠSpac": 7666,
      "duc": 7667,
      "ĠUnion": 7668,
      "ilem": 7669,
      "ĠAmiga": 7670,
      "Ġchannel": 7671,
      "ĠPlug": 7672,
      "ĠUsage": 7673,
      "erved": 7674,
      "rosc": 7675,
      "Ġplastic": 7676,
      "ĠIntelligent": 7677,
      "icking": 7678,
      "ĠCanvas": 7679,
      "Ġunlock": 7680,
      "Ġhell": 7681,
      "awn": 7682,
      "ĠManifesto": 7683,
      "Ġ400": 7684,
      "ĠBuilder": 7685,
      "ĠHacks": 7686,
      "apped": 7687,
      "ĠFlo": 7688,
      "ĠFlask": 7689,
      "Ġweather": 7690,
      "ĠSues": 7691,
      "Ġquiet": 7692,
      "Ġdiscl": 7693,
      "letely": 7694,
      "ĠSwiss": 7695,
      "ĠPercent": 7696,
      "ĠArticles": 7697,
      "ĠRobin": 7698,
      "ĠConsole": 7699,
      "ĠGenerative": 7700,
      "ĠPatents": 7701,
      "ĠCreativity": 7702,
      "Ġdecision": 7703,
      "ĠParadox": 7704,
      "ĠCEOs": 7705,
      "ĠJustice": 7706,
      "Inf": 7707,
      "Ġconsole": 7708,
      "Ġparts": 7709,
      "ĠSublime": 7710,
      "Ġedition": 7711,
      "ĠMatrix": 7712,
      "ĠSaid": 7713,
      "ĠBecause": 7714,
      "ĠDistribution": 7715,
      "ĠHealthcare": 7716,
      "Ġecosystem": 7717,
      "ditions": 7718,
      "Ġactiv": 7719,
      "Ġdebate": 7720,
      "ĠSQLite": 7721,
      "Ġdistribution": 7722,
      "ĠLonger": 7723,
      "ĠFeds": 7724,
      "Ġautomation": 7725,
      "space": 7726,
      "Ġhandle": 7727,
      "ĠEduc": 7728,
      "ĠPhysical": 7729,
      "ĠBayes": 7730,
      "Ġinterviews": 7731,
      "Ġsupply": 7732,
      "ĠLibre": 7733,
      "This": 7734,
      "ĠKorean": 7735,
      "aurant": 7736,
      "ĠLayout": 7737,
      "ĠPerspective": 7738,
      "ĠSurvive": 7739,
      "ĠDiffusion": 7740,
      "ĠMastodon": 7741,
      "Ġdomains": 7742,
      "ĠEasier": 7743,
      "instein": 7744,
      "ĠWikiLeaks": 7745,
      "ĠHabits": 7746,
      "ĠSeeking": 7747,
      "CoV": 7748,
      "ĠBluetooth": 7749,
      "oenix": 7750,
      "asticsearch": 7751,
      "avourite": 7752,
      "sequences": 7753,
      "ĠRyzen": 7754,
      "ĠApollo": 7755,
      "**": 7756,
      "Data": 7757,
      "IG": 7758,
      "II": 7759,
      "Tw": 7760,
      "You": 7761,
      "can": 7762,
      "cat": 7763,
      "fing": 7764,
      "fish": 7765,
      "gun": 7766,
      "iance": 7767,
      "ls": 7768,
      "men": 7769,
      "oh": 7770,
      "resh": 7771,
      "sign": 7772,
      "talk": 7773,
      "Ġtree": 7774,
      "atial": 7775,
      "ately": 7776,
      "ĠSin": 7777,
      "ĠAD": 7778,
      "ĠAOL": 7779,
      "ĠTet": 7780,
      "ĠTumb": 7781,
      "ĠTED": 7782,
      "storm": 7783,
      "ĠHide": 7784,
      "ĠHomes": 7785,
      "ĠHospital": 7786,
      "ĠPur": 7787,
      "Ġable": 7788,
      "ĠWH": 7789,
      "ĠWish": 7790,
      "ĠIM": 7791,
      "ĠIron": 7792,
      "ĠIcon": 7793,
      "Ġtom": 7794,
      "ĠDating": 7795,
      "ĠDiffer": 7796,
      "ĠDOM": 7797,
      "Ġcable": 7798,
      "Ġcounter": 7799,
      "ĠBiz": 7800,
      "ĠFu": 7801,
      "ĠRing": 7802,
      "ĠRac": 7803,
      "Ġbots": 7804,
      "Ġbatteries": 7805,
      "ĠGro": 7806,
      "ĠGift": 7807,
      "Ġdiv": 7808,
      "ĠLi": 7809,
      "ĠLicens": 7810,
      "Ġmaker": 7811,
      "idering": 7812,
      "ĠTheft": 7813,
      "ĠInk": 7814,
      "aying": 7815,
      "Ġlists": 7816,
      "Ġliter": 7817,
      "Ġhol": 7818,
      "rip": 7819,
      "riers": 7820,
      "riage": 7821,
      "ulting": 7822,
      "abet": 7823,
      "thesis": 7824,
      "istr": 7825,
      "ĠChamp": 7826,
      "ĠThiel": 7827,
      "ĠKev": 7828,
      "apes": 7829,
      "Ġrat": 7830,
      "quency": 7831,
      "ipulation": 7832,
      "ĠExecutive": 7833,
      "ĠSpreads": 7834,
      "ĠCompreh": 7835,
      "ĠScam": 7836,
      "Ġexpensive": 7837,
      "Ġleaves": 7838,
      "ĠPlants": 7839,
      "ĠFacts": 7840,
      "âĢĿ:": 7841,
      "Ġjail": 7842,
      "icked": 7843,
      "yself": 7844,
      "Ġheat": 7845,
      "ĠResource": 7846,
      "ĠResume": 7847,
      "ĠEmpire": 7848,
      "ĠFlip": 7849,
      "Ġemissions": 7850,
      "ynga": 7851,
      "ĠLines": 7852,
      "ĠMeets": 7853,
      "ĠInterfaces": 7854,
      "ĠWindow": 7855,
      "Ġmeets": 7856,
      "ĠGuard": 7857,
      "ĠAtari": 7858,
      "ĠMuseum": 7859,
      "connect": 7860,
      "2003": 7861,
      "2004": 7862,
      "ypse": 7863,
      "ĠCrime": 7864,
      "Ġflights": 7865,
      "ĠStrange": 7866,
      "racting": 7867,
      "ĠCover": 7868,
      "Ġplane": 7869,
      "iquid": 7870,
      "ĠBlocks": 7871,
      "oursquare": 7872,
      "ĠJoins": 7873,
      "Ġcorrect": 7874,
      "Ġsubscription": 7875,
      "ĠLeaders": 7876,
      "ĠSync": 7877,
      "ĠEncrypted": 7878,
      "ĠTrial": 7879,
      "ammer": 7880,
      "ĠUkrain": 7881,
      "ĠCountry": 7882,
      "ĠConcerns": 7883,
      "ĠWonder": 7884,
      "ĠBelieve": 7885,
      "Ġintroduces": 7886,
      "piration": 7887,
      "ĠHuge": 7888,
      "Ġeasily": 7889,
      "Ġaddresses": 7890,
      "ĠProvider": 7891,
      "onstr": 7892,
      "ĠRequests": 7893,
      "ĠConversion": 7894,
      "ertainty": 7895,
      "Ġreturns": 7896,
      "ĠCalculator": 7897,
      "Ġpublishing": 7898,
      "addy": 7899,
      "Torch": 7900,
      "ĠRevealed": 7901,
      "ĠProperty": 7902,
      "ĠWWDC": 7903,
      "Ġsurvive": 7904,
      "drogen": 7905,
      "Ġprepare": 7906,
      "Ġventure": 7907,
      "Ġjoins": 7908,
      "ĠSoviet": 7909,
      "ĠZealand": 7910,
      "ĠSachs": 7911,
      "ĠKevin": 7912,
      "26": 7913,
      "34": 7914,
      "Che": 7915,
      "Driven": 7916,
      "IL": 7917,
      "Open": 7918,
      "dr": 7919,
      "fers": 7920,
      "gener": 7921,
      "hi": 7922,
      "lies": 7923,
      "turn": 7924,
      "Ġtaken": 7925,
      "atar": 7926,
      "ĠSter": 7927,
      "ĠSources": 7928,
      "ĠSaving": 7929,
      "ĠSARS": 7930,
      "ĠAri": 7931,
      "ĠTS": 7932,
      "ĠTook": 7933,
      "ĠTrav": 7934,
      "ĠCred": 7935,
      "ĠCache": 7936,
      "ĠCause": 7937,
      "ĠCircle": 7938,
      "aluation": 7939,
      "stein": 7940,
      "Ġfat": 7941,
      "Ġfemale": 7942,
      "ĠHip": 7943,
      "ĠHole": 7944,
      "Ġach": 7945,
      "iculous": 7946,
      "ĠMent": 7947,
      "ĠMatch": 7948,
      "Ġtowards": 7949,
      "ĠDate": 7950,
      "ĠDiversity": 7951,
      "Ġsym": 7952,
      "Ġwave": 7953,
      "ĠFa": 7954,
      "ĠFuel": 7955,
      "ĠFDA": 7956,
      "Ġtheme": 7957,
      "ĠGap": 7958,
      "ĠGene": 7959,
      "ĠLuck": 7960,
      "ĠEight": 7961,
      "enty": 7962,
      "Ġforward": 7963,
      "ĠNas": 7964,
      "ooter": 7965,
      "ersey": 7966,
      "ĠOcc": 7967,
      "ĠOptions": 7968,
      "ada": 7969,
      "iminal": 7970,
      "Ġloc": 7971,
      "Ġhash": 7972,
      "Ġnan": 7973,
      "Ġnovel": 7974,
      "essment": 7975,
      "opoly": 7976,
      "ĠShr": 7977,
      "ĠShipping": 7978,
      "ĠAsh": 7979,
      "ĠRepe": 7980,
      "ĠRepos": 7981,
      "ctic": 7982,
      "umin": 7983,
      "umes": 7984,
      "istle": 7985,
      "ĠChaos": 7986,
      "Ġviral": 7987,
      "ĠKhan": 7988,
      "Ġancient": 7989,
      "Ġprobe": 7990,
      "plays": 7991,
      "que": 7992,
      "ailability": 7993,
      "Ġchain": 7994,
      "Ġcharge": 7995,
      "ĠPlaces": 7996,
      "ĠFacial": 7997,
      "Ġscheme": 7998,
      "Ġnothing": 7999,
      "athan": 8000,
      "ĠLeaving": 8001,
      "ĠWeight": 8002,
      "ologist": 8003,
      "ĠGovern": 8004,
      "ĠUSD": 8005,
      "ĠEmber": 8006,
      "ĠEmbedded": 8007,
      "ĠDisaster": 8008,
      "Ġalleg": 8009,
      "ĠMeg": 8010,
      "ĠMega": 8011,
      "arger": 8012,
      "fully": 8013,
      "Ġqueries": 8014,
      "ĠModule": 8015,
      "ĠCommercial": 8016,
      "ĠWithin": 8017,
      "ĠAtom": 8018,
      "icted": 8019,
      "ĠOutlook": 8020,
      "vention": 8021,
      "ĠComcast": 8022,
      "iverse": 8023,
      "Ġbutton": 8024,
      "ĠArtist": 8025,
      "ĠDecisions": 8026,
      "ĠCrunch": 8027,
      "Ġflow": 8028,
      "ĠPosts": 8029,
      "ĠReactive": 8030,
      "ĠExplains": 8031,
      "ĠGenerating": 8032,
      "ĠStarts": 8033,
      "ĠWarren": 8034,
      "hema": 8035,
      "Ġtechnique": 8036,
      "verty": 8037,
      "ĠPrototype": 8038,
      "ĠPaying": 8039,
      "Ġpartners": 8040,
      "ĠElectron": 8041,
      "ĠCoast": 8042,
      "ĠExtensions": 8043,
      "ĠBlogging": 8044,
      "ĠGreatest": 8045,
      "ĠLesson": 8046,
      "Ġsolutions": 8047,
      "Ġinstant": 8048,
      "ĠMeetup": 8049,
      "Ġselect": 8050,
      "blog": 8051,
      "ĠÙĪ": 8052,
      "ennis": 8053,
      "Ġassistant": 8054,
      "ĠLightning": 8055,
      "ĠKiller": 8056,
      "syched": 8057,
      "Ġtracker": 8058,
      "Ġannounced": 8059,
      "Ġsimilar": 8060,
      "Ġrelated": 8061,
      "Ġclients": 8062,
      "ĠTracker": 8063,
      "Reilly": 8064,
      "Ġattempt": 8065,
      "ĠBillionaire": 8066,
      "Ġsyntax": 8067,
      "ĠSchmid": 8068,
      "Ġthreatens": 8069,
      "Ġreports": 8070,
      "ĠCOVID": 8071,
      "Ġcurated": 8072,
      "Ġequity": 8073,
      "Ġrestrict": 8074,
      "ĠÙħØ": 8075,
      "What": 8076,
      "Ġtemplate": 8077,
      "ĠToward": 8078,
      "Ġcharging": 8079,
      "ĠPublishing": 8080,
      "ĠMyths": 8081,
      "ĠWallet": 8082,
      "ĠWalmart": 8083,
      "ĠConversation": 8084,
      "ĠURLs": 8085,
      "ĠMVC": 8086,
      "ĠForeign": 8087,
      "istoric": 8088,
      "Torrent": 8089,
      "Ġsuggests": 8090,
      "Ġpopulation": 8091,
      "ciousness": 8092,
      "ĠLaravel": 8093,
      "Ġconsidered": 8094,
      "Ð¾Ð": 8095,
      "ĠTotal": 8096,
      "ĠKinect": 8097,
      "ĠMexico": 8098,
      "ĠEcho": 8099,
      "47": 8100,
      "HA": 8101,
      "HD": 8102,
      "MM": 8103,
      "OD": 8104,
      "Pr": 8105,
      "Pay": 8106,
      "bul": 8107,
      "hib": 8108,
      "ih": 8109,
      "jan": 8110,
      "loop": 8111,
      "overy": 8112,
      "pret": 8113,
      "rical": 8114,
      "table": 8115,
      "text": 8116,
      "tons": 8117,
      "wind": 8118,
      "Ĥ¬": 8119,
      "onto": 8120,
      "Ġten": 8121,
      "atible": 8122,
      "ĠSIM": 8123,
      "ĠTro": 8124,
      "ĠTCP": 8125,
      "ĠCD": 8126,
      "ĠCas": 8127,
      "ĠCable": 8128,
      "Ġfriend": 8129,
      "Ġflying": 8130,
      "ĠHey": 8131,
      "ĠHaving": 8132,
      "ĠMond": 8133,
      "ĠMoment": 8134,
      "ĠWedding": 8135,
      "ĠIOS": 8136,
      "Ġtold": 8137,
      "Ġtown": 8138,
      "Ġcoffee": 8139,
      "Ġcitiz": 8140,
      "ĠBatteries": 8141,
      "ĠFant": 8142,
      "ĠFiction": 8143,
      "ĠFoursquare": 8144,
      "ĠRo": 8145,
      "ĠRendering": 8146,
      "Ġbus": 8147,
      "Ġboss": 8148,
      "Ġputs": 8149,
      "ĠGn": 8150,
      "Ġdating": 8151,
      "Ġdrops": 8152,
      "ĠLoop": 8153,
      "ĠEs": 8154,
      "Ġmistakes": 8155,
      "elly": 8156,
      "oops": 8157,
      "aml": 8158,
      "ĠInitiative": 8159,
      "urther": 8160,
      "adata": 8161,
      "ayer": 8162,
      "ĠStress": 8163,
      "ĠStructures": 8164,
      "Ġhim": 8165,
      "Ġgun": 8166,
      "Ġgone": 8167,
      "uly": 8168,
      "Ġreach": 8169,
      "eboard": 8170,
      "ĠVuit": 8171,
      "raid": 8172,
      "ĠJen": 8173,
      "ĠJordan": 8174,
      "Ġstage": 8175,
      "ĠAnything": 8176,
      "Ġeat": 8177,
      "umor": 8178,
      "ĠProxy": 8179,
      "ĠChair": 8180,
      "ĠKim": 8181,
      "ogen": 8182,
      "Ġru": 8183,
      "Ġrule": 8184,
      "pload": 8185,
      "endor": 8186,
      "ĠCond": 8187,
      "iven": 8188,
      "ivot": 8189,
      "actic": 8190,
      "ĠSpend": 8191,
      "ĠScreens": 8192,
      "ĠBeauty": 8193,
      "Ġshopping": 8194,
      "Ġleaked": 8195,
      "Ġcompl": 8196,
      "Ġplug": 8197,
      "Ġcluster": 8198,
      "ĠImplic": 8199,
      "ĠLeague": 8200,
      "ĠZynga": 8201,
      "ĠWorkshop": 8202,
      "ĠPhoenix": 8203,
      "ĠDisapp": 8204,
      "ĠContext": 8205,
      "ĠDesigns": 8206,
      "ruary": 8207,
      "Ġquit": 8208,
      "Ġroot": 8209,
      "ĠWilli": 8210,
      "ĠSwartz": 8211,
      "Ġrecy": 8212,
      "okes": 8213,
      "ĠMont": 8214,
      "ĠElasticsearch": 8215,
      "2002": 8216,
      "gypt": 8217,
      "ĠChem": 8218,
      "ĠEvalu": 8219,
      "ĠManaged": 8220,
      "ĠRemove": 8221,
      "Ġprefer": 8222,
      "aptops": 8223,
      "ĠAccident": 8224,
      "Ġconsumer": 8225,
      "Ġgrid": 8226,
      "Ġground": 8227,
      "onomy": 8228,
      "ĠIncident": 8229,
      "Ġprototype": 8230,
      "ĠMetal": 8231,
      "Ġwarning": 8232,
      "ĠFormat": 8233,
      "ocalypse": 8234,
      "Ġamong": 8235,
      "Ġnewsletter": 8236,
      "ĠSigns": 8237,
      "ruption": 8238,
      "Ġ2008": 8239,
      "ĠConfirms": 8240,
      "Ġabs": 8241,
      "liance": 8242,
      "ĠEncrypt": 8243,
      "Ġconfirms": 8244,
      "ĠPractice": 8245,
      "1997": 8246,
      "ĠSheet": 8247,
      "Ġbreaks": 8248,
      "Ġencrypted": 8249,
      "ĠPandora": 8250,
      "Ġeconomic": 8251,
      "Ġasks": 8252,
      "enefit": 8253,
      "Ġconnection": 8254,
      "ĠImportance": 8255,
      "Ġschools": 8256,
      "Ġmeetings": 8257,
      "ĠImproved": 8258,
      "Ġrevealed": 8259,
      "Ġsuccessfully": 8260,
      "Ġversions": 8261,
      "ĠPipeline": 8262,
      "ĠSemantic": 8263,
      "Ġdocumentation": 8264,
      "iminals": 8265,
      "Ġunderstanding": 8266,
      "ĠShopify": 8267,
      "Ġcompetitor": 8268,
      "ĠVMware": 8269,
      "ĠEasily": 8270,
      "Engine": 8271,
      "Ġcaused": 8272,
      "ĠTitan": 8273,
      "ĠReinforcement": 8274,
      "ĠPremium": 8275,
      "Ġvehicles": 8276,
      "ĠNorway": 8277,
      "ĠExecution": 8278,
      "ĠUkrainian": 8279,
      "ĠSchmidt": 8280,
      "ĠVuitton": 8281,
      "--": 8282,
      "Bot": 8283,
      "CSS": 8284,
      "Fac": 8285,
      "Gu": 8286,
      "LE": 8287,
      "afer": 8288,
      "eaking": 8289,
      "from": 8290,
      "gment": 8291,
      "here": 8292,
      "ipped": 8293,
      "nam": 8294,
      "pat": 8295,
      "pal": 8296,
      "pot": 8297,
      "tain": 8298,
      "vis": 8299,
      "yles": 8300,
      "Ã¶": 8301,
      "Ġice": 8302,
      "Ġera": 8303,
      "ĠØ§Ø": 8304,
      "iner": 8305,
      "inem": 8306,
      "onest": 8307,
      "anes": 8308,
      "ĠSP": 8309,
      "ĠSud": 8310,
      "ĠSets": 8311,
      "ĠSund": 8312,
      "ĠTi": 8313,
      "ĠTown": 8314,
      "ĠTLS": 8315,
      "ĠCurrent": 8316,
      "station": 8317,
      "Ġfe": 8318,
      "Ġfine": 8319,
      "leges": 8320,
      "ĠPle": 8321,
      "ĠPictures": 8322,
      "ĠMand": 8323,
      "ĠMouse": 8324,
      "ĠMerc": 8325,
      "rog": 8326,
      "ĠWritten": 8327,
      "ĠDA": 8328,
      "ĠDual": 8329,
      "Ġcamp": 8330,
      "ĠBed": 8331,
      "ĠBio": 8332,
      "ĠBoring": 8333,
      "Ġworse": 8334,
      "Ġwoman": 8335,
      "owl": 8336,
      "isl": 8337,
      "ĠRu": 8338,
      "ĠRom": 8339,
      "Ġbal": 8340,
      "Ġbomb": 8341,
      "Ġposs": 8342,
      "Ġposition": 8343,
      "ĠGiants": 8344,
      "Ġdro": 8345,
      "Ġdespite": 8346,
      "ĠLoc": 8347,
      "ĠLif": 8348,
      "ĠLoses": 8349,
      "ĠEat": 8350,
      "ĠESP": 8351,
      "ĠEgg": 8352,
      "ĠEFF": 8353,
      "ĠEinstein": 8354,
      "ento": 8355,
      "asma": 8356,
      "Ġforces": 8357,
      "Ġandroid": 8358,
      "ĠOSS": 8359,
      "ĠTheme": 8360,
      "ithium": 8361,
      "imens": 8362,
      "ĠStone": 8363,
      "ĠStaff": 8364,
      "Ġloses": 8365,
      "Ġlicens": 8366,
      "agen": 8367,
      "essen": 8368,
      "ria": 8369,
      "opilot": 8370,
      "ods": 8371,
      "ĠVector": 8372,
      "ĠViral": 8373,
      "raight": 8374,
      "ĠJump": 8375,
      "ĠReform": 8376,
      "ĠAngry": 8377,
      "ĠAnswers": 8378,
      "umn": 8379,
      "Ġthanks": 8380,
      "Ġ150": 8381,
      "ĠKe": 8382,
      "outube": 8383,
      "Ġrac": 8384,
      "allow": 8385,
      "ellow": 8386,
      "anta": 8387,
      "ĠExecut": 8388,
      "ĠSpain": 8389,
      "ĠSpaces": 8390,
      "ĠComponent": 8391,
      "ĠUnt": 8392,
      "ĠClosing": 8393,
      "ilet": 8394,
      "ĠBeij": 8395,
      "Ġexpected": 8396,
      "irement": 8397,
      "ĠTrouble": 8398,
      "ĠAlternatives": 8399,
      "Ġ31": 8400,
      "ĠPlain": 8401,
      "ĠArc": 8402,
      "rowing": 8403,
      "Ġjudge": 8404,
      "rivile": 8405,
      "Ġcloser": 8406,
      "ĠDeals": 8407,
      "ĠTechCr": 8408,
      "yson": 8409,
      "cription": 8410,
      "Ġscal": 8411,
      "ĠToken": 8412,
      "jected": 8413,
      "ĠSecuring": 8414,
      "Ġ48": 8415,
      "ĠQuit": 8416,
      "ĠEmergency": 8417,
      "ĠSucceed": 8418,
      "ĠXP": 8419,
      "Ġoutage": 8420,
      "ĠBitcoins": 8421,
      "ĠRecovery": 8422,
      "ĠCommod": 8423,
      "ĠComputational": 8424,
      "Ġdisp": 8425,
      "Ġmeas": 8426,
      "ĠNeo": 8427,
      "ĠAtomic": 8428,
      "ĠOuts": 8429,
      "Ġoffline": 8430,
      "conduct": 8431,
      "ĠAllow": 8432,
      "ĠBigger": 8433,
      "ĠMonster": 8434,
      "ĠComic": 8435,
      "ĠElite": 8436,
      "resses": 8437,
      "ĠSearching": 8438,
      "ĠTransparency": 8439,
      "othing": 8440,
      "Ġflash": 8441,
      "ainstream": 8442,
      "Ġaccused": 8443,
      "ĠConserv": 8444,
      "ĠSolid": 8445,
      "ĠPoly": 8446,
      "ĠParents": 8447,
      "ĠDrugs": 8448,
      "Ġbigger": 8449,
      "Ġtechnologies": 8450,
      "ĠActions": 8451,
      "Ġpartner": 8452,
      "ĠAnnounced": 8453,
      "Ġrap": 8454,
      "ĠBlogs": 8455,
      "Ġruns": 8456,
      "ĠDocuments": 8457,
      "Ġpasses": 8458,
      "ĠListen": 8459,
      "ĠWaymo": 8460,
      "ĠAntar": 8461,
      "Ġadded": 8462,
      "Ġstrateg": 8463,
      "ĠHappiness": 8464,
      "Ġupdated": 8465,
      "ĠSimulator": 8466,
      "ĠGeo": 8467,
      "Ġsignal": 8468,
      "Ġabuse": 8469,
      "ĠEngines": 8470,
      "ĠRaising": 8471,
      "Ġobjects": 8472,
      "ĠSummary": 8473,
      "ĠKnows": 8474,
      "ĠTerror": 8475,
      "Ġrelations": 8476,
      "ĠPyTorch": 8477,
      "ĠWallpapers": 8478,
      "Ġasked": 8479,
      "Ġgraphics": 8480,
      "ĠDirectory": 8481,
      "Ġmeeting": 8482,
      "havi": 8483,
      "ĠPrior": 8484,
      "Ġpractice": 8485,
      "Ġtargeting": 8486,
      "Ġdescri": 8487,
      "ĠFactory": 8488,
      "Ġcritical": 8489,
      "ieves": 8490,
      "ĠLLM": 8491,
      "Ġquickly": 8492,
      "Ġtreatment": 8493,
      "ĠAffordable": 8494,
      "ĠPresentation": 8495,
      "ĠTreatment": 8496,
      "Ġprovide": 8497,
      "ĠNovel": 8498,
      "Ø³ÙĦ": 8499,
      "ĠReturns": 8500,
      "ĠâĤ¬": 8501,
      "ĠUnicode": 8502,
      "Ġastron": 8503,
      "ĠFootball": 8504,
      "ĠConverter": 8505,
      "Ġsummer": 8506,
      "Ġvehicle": 8507,
      "ĠTHE": 8508,
      "Office": 8509,
      "ennials": 8510,
      "Ġwireless": 8511,
      "ĠAndreessen": 8512,
      "ilemma": 8513,
      "ĠTumblr": 8514,
      "sychedel": 8515,
      "Facebook": 8516,
      "ĠBeijing": 8517,
      "ĠTechCrunch": 8518,
      "55": 8519,
      "Block": 8520,
      "Gener": 8521,
      "IO": 8522,
      "LL": 8523,
      "Not": 8524,
      "RS": 8525,
      "aiting": 8526,
      "car": 8527,
      "cue": 8528,
      "cuts": 8529,
      "cape": 8530,
      "crast": 8531,
      "draw": 8532,
      "fi": 8533,
      "fall": 8534,
      "front": 8535,
      "gov": 8536,
      "human": 8537,
      "king": 8538,
      "lash": 8539,
      "nab": 8540,
      "oa": 8541,
      "piring": 8542,
      "ven": 8543,
      "wid": 8544,
      "xiety": 8545,
      "zes": 8546,
      "Ð»": 8547,
      "ÑĢ": 8548,
      "onia": 8549,
      "Ġtale": 8550,
      "ĠSer": 8551,
      "ĠSens": 8552,
      "ĠAP": 8553,
      "ĠTy": 8554,
      "ĠTal": 8555,
      "ĠTun": 8556,
      "ĠTale": 8557,
      "ĠCock": 8558,
      "ĠCensorship": 8559,
      "ĠCognitive": 8560,
      "stream": 8561,
      "rep": 8562,
      "ĠHour": 8563,
      "ĠHill": 8564,
      "ĠHoney": 8565,
      "ĠHij": 8566,
      "ĠPeak": 8567,
      "Ġaim": 8568,
      "ĠDive": 8569,
      "ĠDue": 8570,
      "ĠDumb": 8571,
      "ĠDisease": 8572,
      "Ġsen": 8573,
      "Ġsources": 8574,
      "Ġcourses": 8575,
      "ĠBike": 8576,
      "Ġwor": 8577,
      "Ġopp": 8578,
      "Ġoption": 8579,
      "Ġpen": 8580,
      "Ġpark": 8581,
      "etime": 8582,
      "omas": 8583,
      "Ġdig": 8584,
      "Ġdrives": 8585,
      "ĠLate": 8586,
      "ĠLies": 8587,
      "ĠLens": 8588,
      "ĠLanding": 8589,
      "ĠLaser": 8590,
      "ĠEgypt": 8591,
      "Ġment": 8592,
      "Ġmill": 8593,
      "asion": 8594,
      "ĠOpp": 8595,
      "ĠOAuth": 8596,
      "ĠTheorem": 8597,
      "ĠUC": 8598,
      "olation": 8599,
      "otech": 8600,
      "otyping": 8601,
      "urer": 8602,
      "Ġhor": 8603,
      "Ġhide": 8604,
      "Ġhub": 8605,
      "Ġhunt": 8606,
      "Ġnav": 8607,
      "aga": 8608,
      "rian": 8609,
      "opia": 8610,
      "Ġgal": 8611,
      "Ġreaches": 8612,
      "2022": 8613,
      "oder": 8614,
      "ĠVac": 8615,
      "ĠVers": 8616,
      "ĠVene": 8617,
      "ĠVacc": 8618,
      "ĠShift": 8619,
      "throp": 8620,
      "Ġeating": 8621,
      "ĠCharts": 8622,
      "Ġvoting": 8623,
      "ĠThose": 8624,
      "ubator": 8625,
      "Ġproxy": 8626,
      "asts": 8627,
      "ĠConcept": 8628,
      "ĠUnveils": 8629,
      "ĠUnexpected": 8630,
      "ĠClients": 8631,
      "ĠBeats": 8632,
      "ĠBegins": 8633,
      "assment": 8634,
      "ounds": 8635,
      "Ġleads": 8636,
      "Ġchess": 8637,
      "Ġchart": 8638,
      "Ġchoice": 8639,
      "Ġplain": 8640,
      "cohol": 8641,
      "ĠDepression": 8642,
      "ĠOpening": 8643,
      "ĠAndrew": 8644,
      "ĠForecast": 8645,
      "ĠiPod": 8646,
      "rains": 8647,
      "apper": 8648,
      "Ġembedded": 8649,
      "Ġwealth": 8650,
      "Ġresult": 8651,
      "Ġblow": 8652,
      "Ġcontact": 8653,
      "ĠMeat": 8654,
      "ĠRecent": 8655,
      "ĠCommission": 8656,
      "Ġ737": 8657,
      "Ġaging": 8658,
      "Ġaggreg": 8659,
      "Ġroom": 8660,
      "ĠOutside": 8661,
      "ĠBridge": 8662,
      "ĠElse": 8663,
      "itories": 8664,
      "Ġcommands": 8665,
      "ĠDeclar": 8666,
      "ĠCheat": 8667,
      "Ġanywhere": 8668,
      "Ġproductive": 8669,
      "ĠRobert": 8670,
      "ĠBackbone": 8671,
      "ĠAcademic": 8672,
      "ĠFinland": 8673,
      "ĠPlayers": 8674,
      "ĠMaybe": 8675,
      "Ġsurprising": 8676,
      "ĠRuns": 8677,
      "ĠEverywhere": 8678,
      "eliev": 8679,
      "ĠMarc": 8680,
      "Ġinsurance": 8681,
      "ĠSaud": 8682,
      "ĠRevis": 8683,
      "anna": 8684,
      "ĠForms": 8685,
      "ĠAutomatically": 8686,
      "Ġblocked": 8687,
      "Ġdrugs": 8688,
      "ĠBanking": 8689,
      "ĠLeader": 8690,
      "Ø§Øª": 8691,
      "ĠPrinter": 8692,
      "ĠWinter": 8693,
      "ĠStatement": 8694,
      "ĠHandle": 8695,
      "Ġframeworks": 8696,
      "Ġmovies": 8697,
      "ĠSyndrome": 8698,
      "ĠTalking": 8699,
      "ĠRaise": 8700,
      "ombie": 8701,
      "Ġtrip": 8702,
      "Ġkiller": 8703,
      "Ġbreakthrough": 8704,
      "Ġpackages": 8705,
      "ĠCommunities": 8706,
      "Ġredesign": 8707,
      "ĠRisks": 8708,
      "ĠSupports": 8709,
      "ĠDirector": 8710,
      "ĠLimit": 8711,
      "essionals": 8712,
      "ĠToronto": 8713,
      "Ġidentify": 8714,
      "ĠDocumentary": 8715,
      "ĠGraham": 8716,
      "ĠVulnerabilities": 8717,
      "Ġbreaking": 8718,
      "Ġmovement": 8719,
      "ĠEquity": 8720,
      "ĠConstruction": 8721,
      "Ġuniversal": 8722,
      "ĠMovement": 8723,
      "ĠCharacter": 8724,
      "izza": 8725,
      "ĠForever": 8726,
      "ĠAlphabet": 8727,
      "Ġprovider": 8728,
      "Ġmethods": 8729,
      "ĠCNN": 8730,
      "Ġperspective": 8731,
      "ĠOpportunities": 8732,
      "ĠManufacturing": 8733,
      "Ġarrested": 8734,
      "ĠVehicles": 8735,
      "Ġmicroservices": 8736,
      "ĠAnnouncement": 8737,
      "ĠLua": 8738,
      "ĠLecture": 8739,
      "Ġcompromised": 8740,
      "ĠToyota": 8741,
      "bitrary": 8742,
      "imensional": 8743,
      ".,": 8744,
      "150": 8745,
      "600": 8746,
      "?âĢĿ": 8747,
      "Day": 8748,
      "Hack": 8749,
      "IA": 8750,
      "My": 8751,
      "Mon": 8752,
      "Per": 8753,
      "Rec": 8754,
      "TH": 8755,
      "aa": 8756,
      "aver": 8757,
      "big": 8758,
      "bine": 8759,
      "ek": 8760,
      "ienced": 8761,
      "lie": 8762,
      "night": 8763,
      "nical": 8764,
      "run": 8765,
      "uana": 8766,
      "xt": 8767,
      "yter": 8768,
      "zone": 8769,
      "zuel": 8770,
      "Ð½": 8771,
      "ÑĤ": 8772,
      "ÙĤ": 8773,
      "Ùĥ": 8774,
      "inch": 8775,
      "ĠSW": 8776,
      "ĠSus": 8777,
      "ĠTrib": 8778,
      "ĠCort": 8779,
      "ĠCorn": 8780,
      "ĠCreation": 8781,
      "star": 8782,
      "Ġfont": 8783,
      "ĠHi": 8784,
      "ĠHook": 8785,
      "ĠPM": 8786,
      "ĠPub": 8787,
      "ĠMM": 8788,
      "roph": 8789,
      "rock": 8790,
      "ĠWriters": 8791,
      "ĠDu": 8792,
      "ĠDou": 8793,
      "ĠDunk": 8794,
      "Ġsure": 8795,
      "Ġspl": 8796,
      "Ġcart": 8797,
      "isms": 8798,
      "ĠFest": 8799,
      "ĠFont": 8800,
      "ĠRates": 8801,
      "ĠRiver": 8802,
      "ĠRoyal": 8803,
      "Ġbudget": 8804,
      "Ġbroke": 8805,
      "Ġpi": 8806,
      "ĠGS": 8807,
      "ĠGram": 8808,
      "ilers": 8809,
      "ĠLG": 8810,
      "ĠLas": 8811,
      "ĠLun": 8812,
      "ĠLev": 8813,
      "ĠLists": 8814,
      "ĠLuc": 8815,
      "ĠEvern": 8816,
      "ĠElement": 8817,
      "Ġmigration": 8818,
      "elp": 8819,
      "ĠNine": 8820,
      "ĠNiger": 8821,
      "ĠUps": 8822,
      "olar": 8823,
      "ĠInbox": 8824,
      "urers": 8825,
      "Ġonto": 8826,
      "Ġlate": 8827,
      "Ġlif": 8828,
      "unge": 8829,
      "Ġhyp": 8830,
      "Ġhousing": 8831,
      "open": 8832,
      "Ġgap": 8833,
      "ulf": 8834,
      "Ġreb": 8835,
      "rapp": 8836,
      "ĠShared": 8837,
      "Ġstable": 8838,
      "Ġstopped": 8839,
      "upal": 8840,
      "ĠeBook": 8841,
      "ĠeBay": 8842,
      "isted": 8843,
      "illiant": 8844,
      "Ġther": 8845,
      "ĠKr": 8846,
      "ĠKat": 8847,
      "ogy": 8848,
      "quer": 8849,
      "ortem": 8850,
      "eller": 8851,
      "fforts": 8852,
      "ducing": 8853,
      "ĠSci": 8854,
      "ĠSched": 8855,
      "ika": 8856,
      "Ġexchange": 8857,
      "Ġshop": 8858,
      "Ġshared": 8859,
      "ĠWebS": 8860,
      "ervised": 8861,
      "ĠDegree": 8862,
      "Ġunve": 8863,
      "ĠImper": 8864,
      "lict": 8865,
      "ĠForum": 8866,
      "ĠLeaks": 8867,
      "ĠWeather": 8868,
      "Ġ45": 8869,
      "OSS": 8870,
      "ĠIndependent": 8871,
      "uxury": 8872,
      "ĠDisp": 8873,
      "rich": 8874,
      "ĠRecru": 8875,
      "ĠGitlab": 8876,
      "ĠSmarter": 8877,
      "ĠOutage": 8878,
      "ĠUpgrade": 8879,
      "ĠAging": 8880,
      "Ġworldwide": 8881,
      "ularity": 8882,
      "ĠFrank": 8883,
      "ĠInstitute": 8884,
      "ĠMinimum": 8885,
      "ĠTransfer": 8886,
      "version": 8887,
      "ĠHighly": 8888,
      "ĠBackup": 8889,
      "ĠExplore": 8890,
      "aires": 8891,
      "ĠPatients": 8892,
      "Ġdecentralized": 8893,
      "ĠWarning": 8894,
      "Ġowners": 8895,
      "Ġexpert": 8896,
      "Ġtransfer": 8897,
      "Ġexplor": 8898,
      "Ġexplanation": 8899,
      "ĠCycle": 8900,
      "ĠDeepMind": 8901,
      "ĠAssoc": 8902,
      "ĠWatching": 8903,
      "Ġmarketplace": 8904,
      "ĠDemocracy": 8905,
      "ĠMetaverse": 8906,
      "scale": 8907,
      "rollers": 8908,
      "Ġblocking": 8909,
      "ĠOwnership": 8910,
      "ĠStarlink": 8911,
      "ĠClasses": 8912,
      "Ġplaying": 8913,
      "Ġretail": 8914,
      "Ġvalidation": 8915,
      "Ġsever": 8916,
      "Ġdocs": 8917,
      "block": 8918,
      "ĠWinning": 8919,
      "kyo": 8920,
      "Ġability": 8921,
      "ĠStreams": 8922,
      "ĠWanted": 8923,
      "Ġairport": 8924,
      "ĠPortable": 8925,
      "factor": 8926,
      "Ġhandling": 8927,
      "ĠOperation": 8928,
      "ĠKnown": 8929,
      "ĠCapitalism": 8930,
      "Ġtaxes": 8931,
      "hosted": 8932,
      "ĠCalling": 8933,
      "Ġsync": 8934,
      "ĠThemes": 8935,
      "ĠSenior": 8936,
      "ĠPrediction": 8937,
      "Ġerrors": 8938,
      "ĠColorado": 8939,
      "ĠBeginners": 8940,
      "Ġelectricity": 8941,
      "Ġpractical": 8942,
      "ometimes": 8943,
      "ĠPiracy": 8944,
      "Ġmathematics": 8945,
      "Ġdirectory": 8946,
      "Ġfocused": 8947,
      "Ġcharacter": 8948,
      "ĠBrian": 8949,
      "Ġengines": 8950,
      "Ġinternational": 8951,
      "Ġremoved": 8952,
      "ĠFalcon": 8953,
      "Ġcontinue": 8954,
      "ĠFlexible": 8955,
      "Ġexecution": 8956,
      "ĠBuffett": 8957,
      "ĠGirls": 8958,
      "ĠDrawing": 8959,
      "Ġutility": 8960,
      "ĠISPs": 8961,
      "party": 8962,
      "Ġdatas": 8963,
      "ĠOCaml": 8964,
      "ĠEbola": 8965,
      "pathy": 8966,
      "Ġpredicts": 8967,
      "ighborhood": 8968,
      "ĠMonday": 8969,
      "\"?": 8970,
      "Af": 8971,
      "DP": 8972,
      "Ed": 8973,
      "Em": 8974,
      "Search": 8975,
      "TR": 8976,
      "beta": 8977,
      "ca": 8978,
      "cd": 8979,
      "card": 8980,
      "first": 8981,
      "gs": 8982,
      "hor": 8983,
      "hai": 8984,
      "lers": 8985,
      "lam": 8986,
      "law": 8987,
      "miss": 8988,
      "rument": 8989,
      "sid": 8990,
      "west": 8991,
      "week": 8992,
      "Ã¼": 8993,
      "ĠĠ": 8994,
      "eration": 8995,
      "Ġtel": 8996,
      "Ġtalent": 8997,
      "anos": 8998,
      "orp": 8999,
      "ĠAer": 9000,
      "ĠAhead": 9001,
      "ĠAverage": 9002,
      "enge": 9003,
      "arc": 9004,
      "ĠTells": 9005,
      "ĠCraw": 9006,
      "state": 9007,
      "reets": 9008,
      "ĠHope": 9009,
      "ĠPic": 9010,
      "ĠPaint": 9011,
      "iche": 9012,
      "rooms": 9013,
      "ĠIO": 9014,
      "ĠDa": 9015,
      "ĠDro": 9016,
      "ĠDRM": 9017,
      "Ġsun": 9018,
      "Ġscripts": 9019,
      "Ġcop": 9020,
      "Ġcapt": 9021,
      "Ġcoup": 9022,
      "Ġcaps": 9023,
      "Ġcreation": 9024,
      "ĠFather": 9025,
      "ĠFully": 9026,
      "ĠRab": 9027,
      "ĠRain": 9028,
      "ĠRail": 9029,
      "ĠResign": 9030,
      "Ġpitch": 9031,
      "Ġpuzzle": 9032,
      "Ġpublished": 9033,
      "ĠGPL": 9034,
      "ĠGateway": 9035,
      "ĠGarden": 9036,
      "Ġdollar": 9037,
      "Ġdashboard": 9038,
      "ĠLee": 9039,
      "ĠLikely": 9040,
      "ĠNu": 9041,
      "idays": 9042,
      "ĠOpinion": 9043,
      "igar": 9044,
      "utation": 9045,
      "ĠUpload": 9046,
      "olut": 9047,
      "otypes": 9048,
      "uru": 9049,
      "Ġlack": 9050,
      "Ġlower": 9051,
      "Ġhomes": 9052,
      "Ġhuge": 9053,
      "Ġhospital": 9054,
      "agger": 9055,
      "estream": 9056,
      "essage": 9057,
      "employment": 9058,
      "Ġgene": 9059,
      "Ġrew": 9060,
      "ĠVs": 9061,
      "rapping": 9062,
      "ĠShape": 9063,
      "ĠShooting": 9064,
      "ĠAsync": 9065,
      "ĠJQuery": 9066,
      "ĠReplic": 9067,
      "Ġstats": 9068,
      "Ġstreet": 9069,
      "Ġstructures": 9070,
      "ifi": 9071,
      "ĠThank": 9072,
      "Ġrare": 9073,
      "Ġransomware": 9074,
      "oster": 9075,
      "ipes": 9076,
      "antage": 9077,
      "ignment": 9078,
      "ĠExpensive": 9079,
      "Ġbegins": 9080,
      "ĠSpending": 9081,
      "ĠClone": 9082,
      "Ġexposed": 9083,
      "ĠAmong": 9084,
      "Ġdoor": 9085,
      "Ġleaks": 9086,
      "Ġapply": 9087,
      "Ġcomponent": 9088,
      "Ġcloses": 9089,
      "ĠTok": 9090,
      "ĠTokyo": 9091,
      "lectual": 9092,
      "ĠQuiet": 9093,
      "ĠQuarter": 9094,
      "ĠQuotes": 9095,
      "ĠEmerging": 9096,
      "ĠWorkplace": 9097,
      "Ġemergency": 9098,
      "Ġoverview": 9099,
      "Ġenh": 9100,
      "Ġdeveloped": 9101,
      "Ġblind": 9102,
      "redible": 9103,
      "argo": 9104,
      "Ġdisaster": 9105,
      "ĠNegot": 9106,
      "ĠAgent": 9107,
      "ĠSteal": 9108,
      "ĠSurge": 9109,
      "Ø§Ùĩ": 9110,
      "ĠDeck": 9111,
      "ĠImpossible": 9112,
      "ĠCrush": 9113,
      "ĠToolkit": 9114,
      "posing": 9115,
      "Ġaccording": 9116,
      "ĠCreators": 9117,
      "Ġdecl": 9118,
      "Ġdecade": 9119,
      "Ġremember": 9120,
      "ĠExperiments": 9121,
      "Ġgenerating": 9122,
      "ĠDrupal": 9123,
      "Ġindependent": 9124,
      "shore": 9125,
      "ĠGoodbye": 9126,
      "tenance": 9127,
      "ĠEntire": 9128,
      "official": 9129,
      "ceptions": 9130,
      "ĠTimeline": 9131,
      "ĠSupercomputer": 9132,
      "ĠMathematical": 9133,
      "Ġplatforms": 9134,
      "ĠCapit": 9135,
      "Ġguys": 9136,
      "ĠPasses": 9137,
      "Ġamazing": 9138,
      "Ġcoverage": 9139,
      "produc": 9140,
      "Ġfunds": 9141,
      "Ġmembers": 9142,
      "Ġdebugging": 9143,
      "Ġolder": 9144,
      "Ġaband": 9145,
      "Ġparallel": 9146,
      "Ġmoved": 9147,
      "Ġlogin": 9148,
      "ĠRepublic": 9149,
      "ĠFedora": 9150,
      "ĠHoliday": 9151,
      "Ġclassic": 9152,
      "ĠOldest": 9153,
      "ĠClojureScript": 9154,
      "Ġcentral": 9155,
      "Ġspecies": 9156,
      "Ġacquired": 9157,
      "Ġeconomics": 9158,
      "ĠTemplates": 9159,
      "engers": 9160,
      "Ġteaching": 9161,
      "ĠNavigation": 9162,
      "Ġexpand": 9163,
      "ĠPanel": 9164,
      "ĠIII": 9165,
      "Why": 9166,
      "ĠOrganization": 9167,
      "Ġmassive": 9168,
      "Ġcharges": 9169,
      "ĠUltra": 9170,
      "Ġwindows": 9171,
      "ĠDomin": 9172,
      "ĠBenchmarking": 9173,
      "istorical": 9174,
      "Ġcrowds": 9175,
      "ĠIsraeli": 9176,
      "ĠInfluence": 9177,
      "ĠMelt": 9178,
      "Ġfreelance": 9179,
      "ĠIRS": 9180,
      "Ġturning": 9181,
      "ĠHarmful": 9182,
      "ĠGuidelines": 9183,
      "ĠOpenStack": 9184,
      "Ġpollution": 9185,
      "ĠBloomberg": 9186,
      "roversy": 9187,
      "ĠSprint": 9188,
      "ĠVirginia": 9189,
      "rimination": 9190,
      "TeX": 9191,
      "ĠCitizen": 9192,
      "Ġpretty": 9193,
      "Ġillegal": 9194,
      "Ġrival": 9195,
      "ĠAstronomers": 9196,
      "ĠGallery": 9197,
      "ĠTetris": 9198,
      "haviour": 9199,
      "nabis": 9200,
      "width": 9201,
      "ĠVenezuel": 9202,
      "ĠSaudi": 9203,
      "ĠEvernote": 9204,
      "'d": 9205,
      "39": 9206,
      "300": 9207,
      "75": 9208,
      "700": 9209,
      "AX": 9210,
      "Bank": 9211,
      "HN": 9212,
      "One": 9213,
      "Ruby": 9214,
      "Us": 9215,
      "bability": 9216,
      "fe": 9217,
      "fun": 9218,
      "fast": 9219,
      "hub": 9220,
      "rid": 9221,
      "rang": 9222,
      "rays": 9223,
      "uitive": 9224,
      "vision": 9225,
      "yze": 9226,
      "Ãł": 9227,
      "Ñģ": 9228,
      "inct": 9229,
      "ĠSE": 9230,
      "ĠSize": 9231,
      "ĠSoul": 9232,
      "ĠAims": 9233,
      "ĠArab": 9234,
      "ario": 9235,
      "ĠTip": 9236,
      "ĠTargets": 9237,
      "ĠCVE": 9238,
      "alone": 9239,
      "Ġfans": 9240,
      "Ġflex": 9241,
      "Ġfacing": 9242,
      "ĠHair": 9243,
      "leph": 9244,
      "ĠPix": 9245,
      "ĠPurch": 9246,
      "iced": 9247,
      "ĠMes": 9248,
      "roit": 9249,
      "ĠWriter": 9250,
      "ĠDar": 9251,
      "ĠDraft": 9252,
      "ĠDSL": 9253,
      "Ġsus": 9254,
      "Ġsem": 9255,
      "Ġspr": 9256,
      "Ġsees": 9257,
      "Ġsells": 9258,
      "Ġcivil": 9259,
      "ĠBob": 9260,
      "ĠBans": 9261,
      "Ġwrapper": 9262,
      "iser": 9263,
      "ĠFalls": 9264,
      "ĠFinger": 9265,
      "ĠRh": 9266,
      "ĠRot": 9267,
      "ĠRoot": 9268,
      "ĠRuntime": 9269,
      "Ġthemselves": 9270,
      "andra": 9271,
      "Ġbed": 9272,
      "Ġpicture": 9273,
      "etics": 9274,
      "omi": 9275,
      "ĠGA": 9276,
      "Ġdiffer": 9277,
      "ĠLit": 9278,
      "ĠLum": 9279,
      "ĠLov": 9280,
      "ĠLTE": 9281,
      "ĠEE": 9282,
      "ĠEating": 9283,
      "ĠEll": 9284,
      "ĠEffort": 9285,
      "Ġmir": 9286,
      "Ġmakers": 9287,
      "Ġforced": 9288,
      "ĠNice": 9289,
      "idates": 9290,
      "ĠOh": 9291,
      "ĠUFO": 9292,
      "usual": 9293,
      "ĠInequality": 9294,
      "urd": 9295,
      "ither": 9296,
      "ador": 9297,
      "cher": 9298,
      "Ġlands": 9299,
      "aganda": 9300,
      "estic": 9301,
      "Ġrepe": 9302,
      "Ġrefer": 9303,
      "ebase": 9304,
      "odies": 9305,
      "ĠYe": 9306,
      "ĠAsynchronous": 9307,
      "ĠRepresent": 9308,
      "Ġstates": 9309,
      "ĠAns": 9310,
      "osis": 9311,
      "Ġthread": 9312,
      "ĠKal": 9313,
      "plane": 9314,
      "ofounder": 9315,
      "asting": 9316,
      "actics": 9317,
      "Ġbeats": 9318,
      "orms": 9319,
      "ĠCompl": 9320,
      "ĠScore": 9321,
      "ĠScene": 9322,
      "ĠUntil": 9323,
      "iki": 9324,
      "Ġshuts": 9325,
[...]
